#version: 0.2
Ġ t
Ġ a
i n
h e
r e
o n
Ġt he
Ġ ì
e r
a t
Ġ s
Ġ o
e n
Ġ c
e s
n d
Ġ w
i s
i t
o r
Ġ p
a l
in g
a n
Ġ f
Ġ b
ì Ŀ
Ġ ë
e d
Ġo f
Ġ in
o u
Ġa nd
Ġ m
a r
Ġt o
i c
i on
Ġ d
l e
r o
a s
í ķ
en t
Ġ h
Ġt h
Ġ ê
c t
Ġ e
ë ĭ
Ġ re
â Ģ
i l
o m
v e
Ġ l
s t
Ġ n
l y
Ġ is
Ġb e
ì Ĺ
s e
Ġ T
at ion
o l
Ġ g
i m
e t
i d
c e
u r
u t
o t
o w
c h
r a
ëĭ ¤
i g
Ġf or
ìĿ ´
Ġ í
Ġ u
Ġ y
Ġ A
ë Ĭ
Ġs t
Ġth at
ê ³
Ġ on
v er
Ġ S
i r
ëĬ Ķ
u l
Ġ I
Ġ C
Ġp ro
it h
a y
Ġy ou
a m
Ġa s
e l
ì Ħ
Ġc on
Ġa re
ì ŀ
ê °
ìĹ Ĳ
ì ł
Ġw ith
i f
a d
he r
Ġa n
ìĿ Ħ
Ġo r
íķ ĺ
Ġ it
Ġa l
ì §
âĢ Ļ
o d
m ent
ë ¡
Ġw h
t er
Ġ 1
ìĿ ĺ
g e
es s
Ġì ŀ
ĠT he
at e
t h
er s
a b
Ġ M
Ġì Ŀ
i es
Ġ he
Ġd e
o p
Ġe x
Ġ P
Ġ (
e ct
Ġs u
it y
Ġc om
t s
ì ĭ
Ī ëĭ¤
ë¡ ľ
il l
o re
íķ ľ
ë ¥
i ve
Ġc an
ì ļ
ê³ ł
u re
u s
¸ °
Ġ B
k e
a c
Ġw e
Ġ v
Ġh a
q u
Ġ âĢ
i v
u m
a in
is t
o s
p p
es t
e m
ro m
ë ı
ì§ Ģ
Ġì ł
Ġ 2
l d
Ĥ ¬
ig h
ì ľ
Ġ H
ì Ĭ
i al
ì ķ
ë ¦
ê° Ģ
Ġc h
Ġb y
Ġ W
u d
o c
Ġ r
Ġa t
Ġ D
ìĿ Ģ
Ġn e
Ġ E
ê ²
a nd
n t
Ġf rom
re s
an t
Ġ en
ë ĵ
ë¥ ¼
Ġ le
or t
Ġs e
Ġê °
ìĦ ľ
Ġ R
Ġ F
u n
ic al
Ġw as
Ġë °
Ġì ķ
Ġn ot
Ġha ve
o g
ê ¸°
Į Ģ
r i
Ġs h
Ġs p
ë Ĥ
ì ĸ
Ī ĺ
ë §
ar t
Ġ G
Ġ im
ion s
Ġ N
íķ ´
d u
Ġ L
Ġê ²
Ġyou r
ëĭ Īëĭ¤
Ġth is
0 0
ëı Ħ
Ġw or
p t
r ou
al l
ë¦ ¬
p er
Ġa b
ĠìĿ ´
e re
Ġthe ir
o st
a ct
Ġu s
ou r
Ġp l
t her
T he
om e
ê µ
f f
ic h
Ġë §
g h
in e
Ġì ĭ
ou ld
ìĿ ¸
at ed
a g
p l
Ġin t
igh t
âĢ Ŀ
ë ©
ì Ľ
ar d
ou t
ë ł
a re
i z
a ge
el l
Ġì Ĺ
ìľ ¼
a k
r u
Ġa d
ë ³
id e
an s
Ġin c
Ġw he
ou s
Ġ O
ìĭ ľ
e c
Ġcon t
Ġthe y
o od
as t
Ġcom p
Ġ k
e ar
c c
ë °
ation s
ìĸ ´
ë Ŀ
ìŀ Ĳ
Ġì Ħ
Ġwh ich
ì ĥ
u st
Ġì §
Ġre s
i b
ìĬ ¤
en d
Ġal l
Ġm ore
Ġw ill
ë ¶
ve l
Ġd is
Ġ U
i p
ì Ĥ¬
s o
ab le
ĠâĢ ľ
or m
Ġìŀ Ī
ĠI n
a p
ëĿ ¼
Ġim p
on g
ĠT h
Ġê ³
an ce
· ¸
ë ¬
at er
Ġh as
£ ¼
en ce
Ġì Īĺ
u al
Ġë ĭ
Ġt e
Ġm an
Ġ J
i a
í ĸ
Ġd o
il d
e w
ul t
ìľ¼ ë¡ľ
k s
i re
ë ŀ
ig n
Ġal so
e p
ar y
Ġc l
ìŀ ¥
Ġo ther
ì ĺ
ent s
Ġì ĺ
Ġì Ĥ¬
r y
in d
re at
Ġë Ĥ
a ch
ëĵ ¤
ê³ ¼
í Ļ
a ke
Ġë ³
Ġb ut
Ġm e
res s
ìĹĲ ìĦľ
Ġp er
ì ²
it ion
ê² Į
a v
Ġp re
Ġa pp
ct ion
o se
as e
Ġ j
ë Ĳ
Ġ2 0
Ġs o
as s
Ġon e
Ġu n
im e
ic e
ë Ł
Ġs y
Ġo ut
ìł ķ
on e
ëĤ ĺ
a u
Ġin f
en s
or s
a ce
Ġwe re
ver y
c es
Ġe v
Ġë ĮĢ
Ġì ľ
ac k
i ke
Ġa r
ë ĮĢ
Ġcom m
Ġë ¶
ë© ´
Ġab out
Ġst ud
í ĺ
Ġ 3
ì Ĩ
Ġthe m
ìĽ Ĳ
í Ĭ
ìĬ µ
ë į
Ġp e
u e
o k
or d
Ġë ª
Ġê ·¸
or y
ë ²
ì ¹
b er
an g
Ġì ĥ
ì Ļ
Ġs c
Ġ íķ
am e
i le
Ġê ¸°
ìł ģ
ol og
n ow
Ġê° Ģ
¹ Ħ
ìļ Ķ
Ġm ay
if f
ìļ ©
Ġwh o
nd er
ĠI t
al th
ĠTh is
ĠS t
is h
Ġ qu
Ġp art
r ic
ìķ Ħ
l ow
ìĿ ¼
it e
Ġ1 9
Ġê µ
a il
Ġ K
u b
Ġu p
ë ħ
Ġbe c
ou nd
ìĥ ģ
ou nt
if ic
ë ª
Ġre c
re e
Ġt ra
ë¶ Ģ
ìł ľ
op le
íĬ ¸
ìĬµ ëĭĪëĭ¤
ing s
Ġit s
ë³ ´
ay s
Ġë ĵ
Ġthe se
i e
Ġwhe n
' s
Ġwor k
Ġhe l
íķĺ ëĬĶ
) .
Ġint o
ê ¸
ë§ Į
Ġo ver
Ġs ome
Ġth an
Ġ ro
Ġcon s
re n
Ġd iff
it ies
Ġê² ĥ
Ġì§ Ģ
Ġìĭ ľ
l ud
Ġt ime
at es
ìĦ ±
Ġe m
Ġh ow
Ġhel p
Ġl ike
rou gh
Ġg o
Ġo ur
ment s
er v
Ġthe re
Ġh is
Ġu se
ļ Į
ff ect
Ġë ı
í ĥ
Ġne ed
al ly
Ġpe ople
ĠC h
Ġa cc
on s
Ġë ¬
Ġy ear
st em
n ing
. .
Ġc ol
Ġu nder
Ġa ct
Ġa g
r it
Ġbe en
Ġbe t
´ Ģ
Ġìł Ħ
m s
Ġ "
ou gh
ver s
Ġsu ch
h y
c ess
vel op
ì £¼
i an
au se
Ġt r
i ous
Ġìķ Ħ
Ġ V
le ct
ro w
ter n
Ġb l
Ġk now
l l
l es
ë ¯
on d
at ing
w e
Ġinc lud
o ve
l ic
Ġs a
Ġd es
¤ ĳ
Ġ ra
t e
¡ °
Ġì ĸ
Ġm ost
Ġpro v
Ġ Y
Ġì ļ
j ect
ìł Ħ
o ok
Ġí Ļ
Ġre l
ì Īĺ
p le
ul ar
i ent
íĻ Ķ
Ġë³ ´
y p
Ġpro du
il ity
ìĻ Ģ
Ġhe alth
ëĵ ľ
Ġne w
Ġ if
ir st
Ġin d
o b
re d
í Ħ
at ive
Ġch ild
Ġ íķĺ
Ġde velop
c ed
Ġìł ľ
Ġan y
ëı Ļ
Ġf e
ur ing
ê ±
Ġus ed
Ġre p
Ġg en
o v
ì ¶
Ġ íķľ
Ġsy stem
Ġof f
Ġp r
Ġëĭ ¤
êµ ¬
Ġth rough
f ul
ation al
Ġd i
êµ Ń
Ġsp ec
m er
p h
Ġ 4
Ġre g
Ġì Ĩ
is e
Ġìł ķ
Ġwh at
Ġ20 1
Ġh ad
ë £
Ġdiff ere
ar k
o ol
Ġ 5
Ġt w
Ġa c
Ġw ould
ë¬ ¸
ic s
rou nd
í ļĮ
he n
Ġìŀ Ĳ
Ġa m
Ġon ly
ure s
íĦ °
Ġman y
Ġí ĺ
Ġad d
ì °
ìĹ ¬
os s
Ġex p
t en
ĠâĢ ĺ
ìĹ ħ
ra ct
al s
u c
í Ķ
ĠâĢ ĵ
he d
o in
et h
Ġsu pp
ot h
ìĭ ł
íķĺ ê³ł
ri b
ëĭ Ī
n e
) ,
Ġde c
ow er
as ed
er g
in k
ib le
Ġf irst
ch n
íķ ł
Ġn o
Ġin v
an ge
Ġas s
Ġì °
Ġì £¼
Ġw ell
ë ¹Ħ
ro p
I n
f ter
t ing
Ġw ater
ol d
it s
ìĨ Į
e f
Ĩ µ
t ain
Ġsh ould
ìļ °
is s
if e
er m
2 0
Ġs ur
Ġre m
Ġìľ Ħ
Ġh igh
ë© °
Ġo b
Ĥ °
ĠU n
at a
f orm
ê° Ħ
Ġp at
c y
Ġimp ort
ê ¹
ëŁ ¬
ëħ Ħ
ĠìĿ ¸
Ġtr ans
we en
ì¹ ĺ
Ġat t
Ġf l
Ġm ake
Ġì ¶
b le
í Į
Ġtw o
Ġs m
Ġle ar
ar ch
Ġex per
g an
i ence
ra m
ur al
Ġê² ½
Ġê ±
ìŀ ħ
ow n
Ġë Ĳ
he s
Ġp ers
Ġbet ween
e ver
© ëĭĪëĭ¤
Ġwhe re
Ġe ffect
n ess
ut ion
ê³ µ
ic k
o y
Ġin ter
Ġb u
Ġg et
Ġs ign
Ġsu b
ak ing
w n
n g
Ġëĵ ±
se l
olog y
ĠH e
Ġ -
Ġm od
Ġëª ¨
an ts
ent ial
Ġp res
f ore
ëĲ ĺ
ìķ ¼
Ġdiffere nt
í ı
Ġin st
Ġc o
i et
ì§ Ħ
Ġc ould
ad e
il y
i ed
Ġm ed
ê³ Ħ
Ġre se
x t
ìĦ ¸
Ġt yp
Ġte chn
Ġex am
s s
Ġv ar
Ġyear s
Ġpro cess
Ġ ke
Ġë į
ĠëĤ ĺ
h at
ĠìĿ ¼
in es
Ġì ²
Ġì ¤ĳ
Ġinc re
v ent
ir on
Ġdis c
ëį °
ë§ Ī
Ġê³ µ
íĸ Īëĭ¤
Ġp ol
Ġwor ld
Ġfor m
Ġc ar
a w
Ġd et
ere d
u ch
íĸ ī
ch ool
Ġres p
Ġe ar
Ġl ong
id ent
Ġë ²
ic es
Ġw ay
Ġinf orm
g et
Ġs im
at ure
Ġ 6
Ġev en
t ed
c er
Ġìŀ Īëĭ¤
u es
Ġë¶ Ģ
Ġd ata
iv es
ì Ĥ°
Ġ her
Ġìĥ ģ
Ġn um
Ġimport ant
Ġj ust
Ġre qu
Ġ ed
ical ly
Ġs oc
Ġh um
p s
f t
r on
ëł ¤
in s
Ġcomm un
. âĢĿ
st and
it ed
at h
ual ly
Ġì Ĭ
Ġs k
ar m
Ġle ad
Ġbec ause
is ts
Ġre f
c k
is m
Ġse e
Ġgen er
ìķ Ī
ê¹ Į
ru ct
ëª ħ
as es
Ġl ar
Ġe very
Ġ2 00
Ġf ound
Ġa fter
iz e
e g
v iron
Ġc re
Ġse c
od y
ìļ ´
Ľ Ħ
Ġí Ķ
Ġpro g
ìĿ´ ëĭ¤
Ġex t
ê¸ Ī
Ġf act
ì ¦
Ġc a
ot her
Ġf ood
Ġc ent
ì² ´
Ġl ife
ĠìŀĪ ëĬĶ
Ġë ¯
Ġthe n
ur n
Ġc ount
Ġg row
Ġth ose
Ġ very
ol low
Ġí ı
om m
Ġar t
Ġpart ic
l ed
iz ed
c on
l and
Ġìĸ ´
ìĭ Ŀ
Ġl oc
í Ĵ
ë¬ ´
mer ic
Ġchild ren
or k
Ġê³ ł
µ ľ
ic t
í ģ
i ew
Ġë§ Ī
í ŀ
Ġìķ Ĭ
ag es
al ity
ĠìĨ Į
Ġ1 0
ìľ Ħ
Ġle vel
Ġí Į
ĠThe y
Ġe ach
ê ·¸
ê° ľ
iv id
Ġde p
ë¯ ¸
Ġst r
Ġê ´Ģ
Ġd uring
ê ´Ģ
ê± °
Ġbe ing
ķ Į
Ġp h
Ġin s
Ġs et
ìŀ ¬
Ġm ain
Ġpers on
Ġìľ ł
ë Ħ
Ġm on
íķ Ļ
ê² ½
ì ¡°
Ġg ra
Ġì ¹
i vers
ect ion
ĠëĤ ´
T h
ce pt
Ġp ub
Ġa v
ĠP ro
Ġa ut
i en
ìĭ ¤
Ġof ten
Ġstud ents
Ġd ist
y s
1 9
d s
Ġì Ľ
ìĺ ¤
Ġre du
Ġ ent
ëĭ ¨
Ġ íķ´
Ġm in
h ip
ë¶ Ħ
v ed
ĠìĹ ¬
Ġinform ation
w ard
Ġìĺ ¤
ë£ Į
ĠW e
ìĿ Į
Ġus ing
Ġs ol
ê ·
ĠA s
ĠìŀĪ ìĬµëĭĪëĭ¤
viron ment
Ġc all
ìĥ Ŀ
Ġex pl
Ġo wn
Ġê° ľ
Ġë ¹Ħ
ëĲ ľ
ëł ¥
Ġt reat
erg y
Ġ 7
Ġf am
Ġr is
Ġre ad
Ġì ¢
ìĦ ł
Ġpro t
Ġcomp le
d ition
ĠA meric
i qu
Ġc he
at her
Ġf ind
Ġc ur
ĠH ow
ĠìĹ Ĩ
Ġ1 8
Ġm uch
Ġë Ķ
Ġde f
Ġf ollow
Ġpro ble
ĠA l
g g
an y
im es
Ġg ood
ĠI f
íŀ Ī
Ġv al
Ġb oth
íĴ Ī
00 0
Ġg l
Ġprov id
Ġwh ile
Ġdo es
Ġstud y
Ġí ĸ
ëŀ ĺ
ëĤ ´
Ġì ¡°
Ġb ack
ì¶ ľ
t le
ìľ ł
Ġm y
Ġdes ign
ĠF or
Ġsa id
Ġê ¸
i o
Ġs he
ver n
ou n
êµ Ĳ
Ġë° ı
ì Ī
ìĺ ģ
Ġë§ Į
oc k
it al
Ġ 8
Ġë° Ķ
e x
ra in
Ġë¬ ´
c om
ë¥ ´
í ħ
Ġunder stand
Ġì Ļ
Ġen d
Ġs erv
Ġm ade
Ġêµ ¬
Ġìĭ ł
hy s
im ate
Ġf un
Ġp op
Ġt ake
re ad
Ġs chool
Ġs ame
c ent
Ġp ower
ro l
Ġìĥ Ŀ
ĠìĿ ĺ
ĠìĹ °
Ġc or
Ġb ody
Ġact iv
Ġbe fore
Ġv is
í İ
Ġsh ow
Ġh ist
Ġc are
ĠìĦ ľ
ĠìĦ ł
Ġsm all
u nd
ĳ ľ
Ġor gan
v es
Ġë ķĮ
iet y
Ġë° ©
Ġsupp ort
Ġdis e
| |
ĠA n
ivid ual
a x
al e
ak es
t y
í Ĺ
ĠC on
ìĽ Ķ
i el
Ġp ar
Ġl ess
ra p
Ġall ow
ion al
Ġb r
ìĹ °
c ial
Ġad v
ĳ Ĳ
Ġc le
ëĭ ¹
ut e
Ġp ract
ë¬ ¼
v ing
Ġg rou
Ġrese arch
ĠìĬ ¤
en g
Ġha nd
in al
Ġcomm on
Ġp oss
Ġí Ĩµ
Ġcons id
ĠI nd
Ġë° ľ
Ġ 9
Ġimp ro
Ġd ay
Ġa round
Ġ '
âĢ ľ
iv ing
Ġen vironment
Ġch ar
om en
ĠThe se
ìŀħ ëĭĪëĭ¤
er ing
1 0
ëĬ ¥
ìŀ ĳ
Ġìķ Ī
i x
Ġinclud ing
Ġag ain
Ġb o
ì ħ
r al
it ions
Ġind ividual
ul ation
Ġhum an
Ġìļ °
d er
Ġe lect
i er
ì ¡
ater ial
Ġp ot
c ing
Ġl ook
Ġì µľ
ë¯ ¼
Ġë¯ ¸
in ce
ìĸ ĳ
ĠY ou
ì§Ģ ë§Į
Ġ |
ab ility
ff ic
ìĹ Ń
u p
ire ct
íĺ ¸
Ġm em
ĠA r
Ġcon f
Ġd own
ìĹ Ī
Ġë§ Ĳ
íķ ©ëĭĪëĭ¤
ĠS p
Ġo cc
Ġëı Ħ
a ir
ë Ķ
it ive
Ġst ate
Ġrequ ire
Ġpl an
ar s
Ġc ell
ë¡ Ŀ
i um
c l
n ce
Ġed uc
Ġb en
Ġm ust
oin t
Ġl it
Ġen ergy
Ġp o
es p
ë² ķ
t he
Ġcont in
Ġbe l
Ġbu ild
Ġë ħ
ìŀ Ħ
Ġcl ass
in ess
Ġnum ber
ro ss
Ġprodu ct
, âĢĿ
om s
act er
íĥ Ģ
Ġn ow
Ġexam ple
Ġbe h
her s
is hed
íģ ¬
Ġëı Ļ
Ġt est
ent al
ì° ¨
Th is
Ġg u
ë° ©
Ġd r
v en
Ġm et
Ġs er
Ġe qu
Ġpro f
d ay
âĢ Ķ
ter s
ĠìĦ ¸
Ġe as
Ġí ĥ
us s
el s
íĶ Ħ
Ġìĺ Ī
. ,
Ġpl ay
Ġm aterial
Ġapp ro
ĠS c
Ġ est
Ġst art
Ġsy m
e ad
our ces
Ġl and
¶ Į
Ġo p
re nt
ur y
Ġis s
Ġen g
iz ation
igh ts
are d
r ies
ëĵ¤ ìĿ´
Ġêµ Ń
Ġí Ĭ
Ġë¶ Ħ
Ġcon st
Ġg reat
a ve
Ġlear n
Ġë¬ ¸
Ġdevelop ment
e e
Ġa w
a j
Ġgo vern
Ġsa f
id s
sel f
ëŀ Į
ĺ Ĳ
Ġsoc ial
pt ion
Ġsign ific
¤ Ģ
Ġth ree
Ġìĺ ģ
Ġm ight
½ Ķ
ĠìĦ ±
Ġlar ge
in ed
ivers ity
Ġch ang
Ġknow n
Ġ ident
eth od
et s
as h
ìĹĲ ê²Į
if y
ul l
iv en
ĠB ut
ê° ģ
ì ¤ĳ
Ġp hys
re en
ìłģ ìĿ¸
Ġprov ide
ect ed
ain s
Ġt em
ĠThe re
ul ts
in ation
or ts
l ine
Ġ ide
Ġr ight
Ġp ur
Ġwith in
r ation
Ġca us
Ġpro ject
Ĩ ł
Ġris k
g er
ou se
Ġp os
ëł Ī
con om
n er
ĠN ew
i od
Ġ ve
Ġde m
Ġwith out
ĠëĲ ĺ
t t
Ġch ange
Ġben ef
Ġinclud e
Ġst and
er t
oc i
Ġc ult
Ġë Ħ
Ġqu est
Ġc our
Ġê± °
Ġs om
Ġìĭ ¤
a h
Ġlear ning
en se
Ġpub lic
í Ĩµ
Ġst ill
Ġth ough
Ġh im
Ġim m
Ġth ink
Ġpl ace
Ġëį Ķ
Ġb re
Ġì§ Ħ
Ġa ir
o h
Ġw rit
ial ly
ere st
ill s
Ġb est
Ġan al
ĠA nd
Ġw ant
Ġc ap
Ġë§ İ
i or
Ġres ult
íĸ Ī
ëĤ ľ
i ver
ìĭ ¬
Ġpro per
ìĿ´ ëĿ¼
.. .
Â ·
Ġm at
Ġí ģ
ang u
ag n
ëª ¨
Ġm ark
íĹ ĺ
ëį ĺ
Ġê ·
l ess
Ġd id
ĠA d
Ġen s
Ġf ew
íı ¬
ë¥ ¸
ĠHow ever
Ġm us
Ġp ain
ìĹ Īëĭ¤
âĢ ĵ
íķĺ ê²Į
íķĺ ìĹ¬
Ġ ess
ì² ľ
an k
Ġh ome
Ġn at
íķľ ëĭ¤
Ġper form
ord ing
Ġd on
Ġbet ter
Ġin du
Ġimp act
Ġme as
Ġë Ĩ
Ġm ethod
Ġke ep
in ing
Ġcall ed
b s
cc ess
or n
ë° ľ
ate g
Ġpro m
Ġbl ood
Ġìŀ ¥
ĠìĤ¬ ìļ©
s p
í ĭ
ou th
Ġb us
as on
Ġdise ase
s c
Ġê ¹
m e
ìł Ĳ
ë° ĺ
al k
l ish
Ġcont rol
Ġì ´
d e
Ġs it
Ġpres ent
Ġo pp
Ġinf l
Ġf in
Ġsignific ant
Ġl ight
Ġì Ĥ
Ġinv ol
Ġbec ome
Ġan t
os ed
b ers
í ĳľ
ìĨ į
I t
Ġo per
ê¹Į ì§Ģ
Ġd irect
Ġpre vent
Ġre t
olog ical
Ġre al
W hat
ĠI s
ĠëĮĢ íķľ
Ġde v
o id
i ents
Ġacc ess
Ġê° Ļ
ì ¢
ĠE x
ìłģ ìľ¼ë¡ľ
Ġle g
Ġfe el
Ġp ass
Ġc ause
Ġê² °
ë§ ¤
Ġc reat
Ġêµ Ĳ
at s
Ġe conom
oc us
ĠëĶ °
ro du
if ied
ĠE ng
iel d
ê± ´
ê »
og n
Ġre st
w ays
Ġc ost
ent ly
g en
our ce
Ġl ow
Ġ1 5
Ġa ffect
Ġse ver
Ġare a
is ion
ìĹĲ ëĬĶ
Ġìķ Į
Ġë ĺĲ
er tain
Ġë ©
Ġpot ential
ĠíĻ ķ
e ed
Ġm ove
Ġ &
ì² Ń
Ġt re
Ġint erest
Ġì¶ Ķ
at ic
Ġbel ie
Ġan other
Ġw omen
í Ĥ
ê² ©
in c
ëĵ ł
ĠìĽ Ĳ
ĠW h
Ġê° ķ
Ġs l
Ġadd ition
ĠD e
ìł Ģ
iv ed
Ġb as
ent ion
r is
Ġpl ant
Ġm aking
ic le
Ġí İ
Ġ [
ë² Ī
Ġcon n
Ġ :
ê ¶Į
Ġ1 2
ard s
er n
p ar
ìĦ ¤
Ġpartic ular
t o
ìķ ½
Ġtreat ment
Ġíĺ Ħ
Ġme ans
age ment
an ces
Ġan im
aj or
Ġìł Ģ
Ġ 0
Ġav ail
Ġd el
pl oy
Ġe le
l ing
Ġrep ort
Ġë¶ Ī
or ies
pl es
Ġto p
Ġcon d
ëĶ Ķ
Ġear ly
ill ion
Ġindu st
íķĺ ê¸°
Ġl angu
Ġh ig
Ġìŀ ¬
Ġprog ram
Ġíķ ł
Ġto o
í ĽĦ
Ġì ¦
ë³ ¸
i k
± ħ
Ġc al
a z
Ġeffect ive
t on
Ġsystem s
ĠW hen
ar c
Ġí ĽĦ
Ġê³ Ħ
ĠìľĦ íķ´
ìķ ĺ
ĠR e
ot e
m an
ìĪ ł
ĠS h
Ġagain st
Ġhist ory
u g
Ġë§ ¤
Ġf ac
Ġl im
h or
er al
c le
v iew
ut ure
Ġare as
ic ation
ìļ ¸
Ġf ocus
Ġposs ible
Ġsever al
Ġme an
i ans
Ġf ore
ĠUn iversity
Ġvar ious
Ġch o
he re
Ġl aw
Ġe t
Ġab le
ĠìĤ¬ ëŀĮ
ê¸ ī
Ġfam ily
el f
ë ¸
Ġocc ur
ur ther
Ġbe g
Ġha pp
Ġo ld
Ġt er
Ġtechn ology
Ġcre ate
ĠP l
Ġper iod
Ġlevel s
ĠAmeric an
Ġt ru
Ġst ruct
Ġnat ural
ĠC l
Ġgovern ment
ort un
Ġì¢ ĭ
Ġhe re
end s
ì ¸
Ġother s
ĠT o
ĠìĦ ¤
Ġê° Ĳ
Ġìł ģ
Ġb ased
1 2
ĠR es
w ork
Ġexper ience
Ġë° Ľ
Ġìŀ ĳ
Ī ¬
Ġor der
Ġ Q
ì¹ ´
ê» ĺ
Ġw ar
ì¦ Ŀ
Ġdes c
Ġm ajor
w w
ĠâĢ Ķ
Ġm il
Ġop en
am p
Ġspec ific
ot s
Ġcur rent
Ġd ue
Ġto ol
Ġch all
or th
iss ion
Ġê²½ ìļ°
u se
Ġn on
Ġgrou p
l ished
p or
Ġimpro ve
ë¶Ģ íĦ°
Ġth ings
b e
Ġinv est
Ġsec ond
ìĦ Ŀ
ëł ¨
Ġìŀ ħ
ì§ ģ
Ġtyp e
id ence
Ġe l
ë©´ ìĦľ
Ġm ult
íĺ ķ
Ġíı ¬
om p
Ġ .
at or
Ġf re
Ġbus iness
Ġp ress
Ġneed s
H ow
Ġsu ccess
Ġë° °
r an
Ġo pt
í Ĩł
ab or
ë° Ķ
Ġëĭ ¹
Ġin tern
Ġavail able
Ġbeh av
Ġl ast
I f
ì² ĺ
end ed
Ġspec ies
Ġam ong
Ġc ertain
1 8
o ver
il ar
ress ion
ìĺ Ģ
ĠE n
p ort
s y
Ġcons um
ë¦ °
ì ¤Ģ
in a
Ġ19 9
led ge
ì ´
r ist
Ġëħ ¸
ĠíĶ Ħ
Ġfun ction
Ġapp lic
íķ ©
ic ult
ĠíĬ ¹
p ect
Ġcom e
iqu e
Ġë Ĭ
Ġcond itions
Ġf low
ë² Ħ
Ġprof ess
pt oms
er c
ĠC an
u rop
Ġl o
Ġu nt
Ġm ar
Ġro le
Ġë° ĺ
ì¢ ħ
Ġf uture
Ġt imes
Ġfollow ing
Ġh y
Ġí ļĮ
ì§ Ī
Ġproble ms
Ġass oci
ê² ł
Ġf ree
Ġa ge
Ġen c
Ġor ig
on es
. "
o le
Ġloc al
Ġs ay
Ġsc ient
en cy
Ġëĵ ¤
Ġì¶ ľ
Ġh ard
os p
W e
´ ĳ
Ġcount ry
Ġproble m
1 1
Ġ Z
ëĭ ĺ
Ġëĭ ¨
ê° Ĳ
ë ĳĲ
il ities
Ġs ince
Ġne ar
ĠUn ited
Ġke y
Ġhe ad
âĢ ¦
re t
Ġë ¹
es ts
Ġeduc ation
Ġr un
ë£ ¨
Ġb i
is ed
Ġc ase
at ory
as ing
o x
Ġs w
Ġwe e
ĠT e
end ing
ol ution
Ġess ential
Ġmon th
íĺ Ħ
Ġp ost
Ġre ce
ĠC ol
Ġìļ Ķ
A s
Ġob ject
Ġincre ase
ap e
Ġcom b
Ġ3 0
ic ro
r ing
ĠG od
ut ions
am es
a per
Ġcommun ity
Ġm en
un e
ir c
ìĿ´ íĬ¸
Ġl ist
íĮ Į
th ough
ê² °
ë¦ ½
ec ially
Ġì° ¨
- -
Ġd ig
ac y
Ġtem per
Ġd am
Ġp oint
ë¡ ł
Ġ1 7
Ġv ir
' t
ĠC omm
5 0
Ġc rit
o f
ëŁ °
ate ly
Ġn ame
Ġb ro
Ġb ir
op e
ê° ķ
Ġdet erm
Ġcomp ut
Ġcell s
Ġf il
ob al
Ġlangu age
Ġp ut
in t
Ġper cent
eth ing
ĠB y
Ġac ross
Ġg r
ĠS e
at ors
Ġrep res
Ġv iew
Ġresp ons
Ġc y
as ter
Ġíķ Ħ
Ġì Ī
Ġchang es
or ing
Ġne cess
íķ ¨
Ġlike ly
Ġle t
Ġs ays
Ġv ol
ëĤ ¨
Ġdiff icult
urop e
Ġyou ng
ëį Ķ
esp ecially
íĻ ĺ
Ġcont rib
ab ly
Ġs ens
ure d
Ġte am
íĥ ľ
Ġn et
Ġsh ort
Ġre le
id es
Ġe y
Ġê² Į
Ġst ep
Ġprot ect
Ġres ults
Ġhe art
ĠW hat
Ġqu ality
Ġf our
Ġn ut
Ġ1 6
ëĵ¤ ìĿĢ
Ġê± ´
Ġë Ī
Ġsp ace
íĭ °
ìľ ¡
Ġredu ce
Ġpl ants
3 0
ĠíĮ Į
Ġal ways
ì ¼
ur ity
Ġsym ptoms
Ġhig her
f ace
Ġconsid er
Ġcle ar
a f
Ġíķ ¨
Ġb rain
Ġphys ical
Ġìļ° ë¦¬
Ġt urn
ch ie
et ic
ĠA t
ëĭ¤ ëĬĶ
Ġspec ial
Ġsk ills
Ġsu gg
Ġtyp es
Ġlit tle
ëħ ¸
Ġp are
Ġwh y
ĠíĨµ íķ´
Ġw ays
Ģ ìĿ´
ĠSt ates
ĠëĤ ¨
/ /
ë° °
Ġf ar
S t
Ġstr ong
Ġë ¨
w are
i res
ĠB l
n ot
Ġto day
Ġsom ething
Ġgrow th
ĠU S
le ment
ĠS o
Ġê³ ¼
ag ing
Ġ especially
Ġunderstand ing
Ġal ong
íĶ ¼
Ġwor ks
ĠA f
ore d
o ks
our s
ĠE urope
Ġ1 1
ê· ¼
Ġus ually
íĥ Ŀ
Ġeffect s
Ġwork ing
Ġm ind
The re
Ġì »
Ġ â
ib ility
ëĵ¤ ìĿĺ
ë³ µ
ru ction
Ġte ac
Ġchar acter
Ġd ra
Ġd ays
ac es
Ġinfl u
Ġiss ues
one y
Ġcont ain
Ġto get
Ġcour se
Ġtoget her
Ġì° ¸
ap s
Ġb ook
Ġm ot
Ġknow ledge
Ġg ive
Ġe ffic
ak en
ìħ ĺ
ys is
Ġob s
ĠC ent
Ġmain tain
at ures
ĠO r
et y
Ġdisc uss
od e
Ġcan cer
Ġp ast
or ld
he m
Ġem ploy
em ber
Ġrel ations
n s
Ġra d
Ġunt il
Ġindividual s
on t
Ġapp ear
Ġs ing
ĠP h
: //
Ġg iven
Ġactiv ities
Ġ ill
it her
Ġ er
ar ing
Ġpol it
it ing
Ġcon cer
om es
le ep
Ġprodu ction
at ch
f act
Ġpat ients
ab les
Ġcount ries
ĠA ll
Ġt ry
Ġsim ilar
ì Ķ
Ġë¬ ¼
i ation
Ġr ange
Ġpre v
ĠW ith
Ġex ist
Ġs elf
iv ity
ra ph
ì§ ĳ
am m
st it
Ġl ater
Ġa chie
ou ra
p r
ĠO n
av es
a pt
em s
í Ŀ
Ġproduct s
Ġstr ateg
íĤ ¤
Ġres ources
a pp
Ġê°Ģ ëĬ¥
b r
ĠN ational
ist ic
Ġens ure
Ġg re
iz ing
f or
ru g
Ġm akes
o ot
du ct
m in
ë¦ Ħ
ĠB e
2 1
Ġbeg in
Ġc irc
Ġadd ress
Ġche m
ì »
Ġaut hor
ire d
Ġst ress
Ġê²ĥ ìĿ´
Ġcomple te
Ġl ot
Ġwor ds
sel ves
Ġne xt
l er
ë¹Ħ ìĬ¤
ĠCh rist
Ġpr im
Ġìłľ ê³µ
y m
ĠM ed
Ġl oss
ëĭ ¬
us h
Ġf urther
ìĽ Į
Ġest ab
Ġhealth y
Ġíķ Ļ
Ġ $
± Ħ
Ġl ower
íķĺ ì§Ģ
ac c
Ġde ath
ri ed
1 5
ach ing
ì ½Ķ
Ġrese arc
ì¦ Ī
Ġrec ord
ific ation
Ġëį °
Ġc ases
ëĬĶ ëį°
ĠíĻ ľ
ë³ Ħ
Ġìļ ´
s w
id d
ĠìĿ´ ìļ©
n ed
b on
Ġs ide
Ġaw ay
ë¦¬ ê³ł
Ġsu re
Ġë ĳĲ
Ġen ough
ut es
Ġpol ic
Ġ íķĺëĬĶ
Ġexper ien
Ġas k
Ġman agement
Ġê¹ Ģ
Ġtra dition
ìĨ ¡
ĠI m
1 6
Ġto ward
W hen
ra y
ĠíĶ ¼
ë ĸ
Ġ1 4
ĠëķĮ ë¬¸
Ġmed ical
Ġí Ŀ
Ġl ine
Ġpre d
Ġmaterial s
Ġk ind
Ġf ull
ip le
Ġcl imate
ìľ¼ ë©°
ĠìĹ Ń
Ġchall eng
ĠS ome
Ġmark et
Ġpop ulation
le t
ëŀ ĳ
Ġcomple x
Ġpro p
Ġf und
Ġam ount
Ġopp ortun
is c
Ġm illion
Ġm ov
Ġìĺ ¬
ĠAf ric
th ing
Ġso il
ë¥ ĺ
Ġì§ ģ
Ġrec ogn
íİ ¸
Ġle ast
Ġs al
ã ħ
Ġwhe ther
Ġval ue
ëª ©
ĠìĥĿ ê°ģ
F or
m it
Ġab ove
s ide
Ġê¸ Ī
Ġha ving
Ġe ff
Ġt erm
Ġ1 00
Ġfact ors
Ġbenef its
Ġdi et
Ġstud ies
Ġcol le
íķ Ń
A n
b y
ĠHe alth
1 7
Ġgo ing
ĠE ar
an e
g ed
ëŁ ī
Ġactiv ity
i pp
Ġl ive
Ġmod el
ìŀ Ī
il t
Ġdesc rib
Ġcent ury
Ġíĸ ī
m ost
Ġperson al
Ġb ig
· ¨
ĠìķĦ ëĭĪ
ã Ģ
Ġhelp s
ìĻ ¸
an ced
Ġrec omm
ê² ĥ
g es
st r
Ġpartic ip
b o
Ġn orm
re am
ì¡ ±
Ġab ility
Ġte xt
Ġsk in
Ġsub ject
a ut
ëĭ¤ ê³ł
ī ´
ic ations
Ġappro ach
Ġc ru
Ġ z
ëŀ Ģ
Ġne g
Ġsit u
sy ch
Ġë³ Ģ
r im
Ġëĭ ¬
c ul
Ġb at
Ġg round
Ġav oid
u ment
os is
Ġne ver
ë ¨
Ġle ft
íİ ĺ
Ġrepres ent
ed i
ip s
N A
Ġgener al
Ġhow ever
Ġpress ure
Ġ ur
Ġëª ©
ver age
read y
Ġbuild ing
Ġd og
it es
2 2
Ġart icle
ìĺ Ī
er y
Ġserv ices
ĠG o
Ġin it
í ļ
un g
Ġíķ¨ ê»ĺ
am in
n ts
l o
ëĦ ¤
Ġìĥ Ī
Ġsu m
re l
Ġsc ience
ëĵ ±
Ġh ouse
ĠìĹ ´
Ġì¹ ´
Ġsu st
ë° ķ
1 4
Ġassoci ated
Ġrelations hip
ĠO ne
Ġf ield
Ġo il
Ġind ic
Ġw ind
Ġp ay
Ġre ason
Ġpract ice
Ġcle an
íĸ ¥
Ġthe rap
ê° Ŀ
Ġn ature
Ġprovid es
Ġdet ail
am ple
Ġex erc
ëıĦ ë¡Ŀ
Ġqu ick
n al
Ġw ide
Ġíı ī
Ġíĺ ¸
Ġ1 3
Ġë ¦
Ġgl obal
Ġst ory
ĠB rit
íĮ ħ
al f
Ġcol lect
Ġc ity
Ġíķĺ ëĤĺ
Ġsust ain
Ġrem ain
Ġ /
ne y
ra ms
Ġal ready
Ġquest ion
Ġc ut
Ġcom es
Ġs ource
Ġcl ose
Ġcon dition
ìĦ¸ ìļĶ
Ġfre qu
Ġquest ions
Ġë ¸
Ġf all
êµ °
Ġcol l
Ġgrou ps
ëł ¹
Ġì ½Ķ
Ġfl u
y n
Ġso ft
Ġme et
c hes
Ġst at
Ġse en
u ed
or g
Ġp aper
om an
Ġab s
1 3
ìł Ī
en ing
om et
ê¸° ë¥¼
f er
ĠM an
and s
Ġw r
Ġd one
W h
a im
Ġeng ine
Ġinter act
Ġincre ased
Ġass ess
Ġíķľ êµŃ
Ġs leep
Ġf ri
ë¸ Į
ĠTh at
Ġl ay
ĠíĻ Ķ
Ġs ize
ĠA I
Ġnecess ary
ot t
Ġr ate
2 00
Ġde g
Ġre ally
ro ll
Ġfe ed
Ġcont ent
as k
ver se
íĮ Ĳ
Ġindust ry
, "
Ġbe low
ëĵ¤ ìĿĦ
re ct
_ _
ren g
Ķ ëĭ¤
Ġon line
Ġsu n
Ġsaf e
ëĭ ´
Ġs ound
Ġacc ording
ch an
an cial
ĠL e
Ġem ot
¤ Ħ
ĠW orld
Ġsur face
Ġr ather
T o
Ġtra ining
b ased
ĠìĤ ´
us ion
Ġbec ame
ëŁ ¼
Ġëª ħ
Ġev ent
Ġdevelop ed
Ġsim ple
ic ial
y stem
ir d
Ġsing le
ĠíķĦ ìļĶ
ĠëĶ° ëĿ¼
i ol
Ġenvironment al
es c
iv al
a e
Ġre d
Ġwe ight
Ġre pl
p ut
Ġê° Ħ
Ġ5 0
Ġëª »
Ġf ail
Ġëĵ ľ
E R
Ġconsid ered
Ġm ach
Ġìŀ ĺ
ĠG erm
Ġìĸ´ ëĸ
Ġresearc hers
Ġd rug
Ġh old
Ġint rodu
ĠEng lish
Ġint eg
Ġm ass
Ġneed ed
ĠíĶĦ ë¡ľ
ens ive
Ġen h
Ġf ru
ì ±ħ
ric t
ly ing
Ġph ot
ĠíĻ ĺ
Ġeconom ic
Ġrequire d
Ġan sw
Ġí Ĺ
p ro
em ic
ĠW ar
Ġdo ct
Ġf at
Ġm icro
Ġb al
Ġreg ular
re me
Ġl iving
Ġon ce
íĶ Į
Ġpur p
ere nce
Ġmod ern
Ġëĭ¤ ë¥¸
Ġë³ ¸
Ġpop ular
ĠG en
ĠëĮĢ íķ´
C h
um p
g o
Ġacc ount
Ġ ut
ĠJ oh
Ġh tt
ear ch
Ġwho le
Ġd om
Ġanal ysis
le y
ect ions
Ġì§Ģ ëĤľ
Ġincre asing
ust om
Ġm oney
ĠA m
ove red
ĠëĨ Ĵ
ĠWh ile
Ġg reen
Ġt ar
ìĥ ī
ĠIn tern
Ġobs erv
Ġpro te
ìĸ µ
Ġthem selves
Ġsaf ety
Ġë ģ
se qu
Ġe ither
Ġcre ated
Ġrel ated
u le
ĠëĲ ľ
Ġanim als
Ġpat tern
ĠD r
ac ks
u nt
Ġì¦ Ŀ
Ġpar ts
au gh
u fact
al u
ĠìĻ ¸
Ġl if
Ġwor d
ëĲĺ ëĬĶ
Ġhist or
Ġë¦ ¬
Ġ =
Ġident ify
Ġcomp any
ĠSt ud
l ike
an n
Ġì§ ĳ
ë ĥ
ep end
Ġcan not
Ġm ental
Ġn ational
y le
Ġë§İ ìĿĢ
w ay
ëĦ Ī
ìĹĲìĦľ ëĬĶ
Ġj ob
Ġwh ite
Ġpat h
ve re
Ġmem bers
Ġíİ ¸
Ġpos itive
Ġev idence
is ing
Y ou
Ġìł Ĳ
ag ed
ë ¹
ëĤ ł
en ces
Ġhe at
ĠA ss
Ġfam il
ĠS he
Ġsugg est
íħ Į
ĠC ar
íĻ ©
Ġc at
ìĬ¤ íĬ¸
Ġì´ Ī
Ġ X
ail y
Ġpr iv
ë¦ ¼
Ġh ab
l ight
er ve
Ġt aken
Ġmethod s
h old
Ġstud ent
ell ing
Ġí Ī¬
ore s
Ġê°Ļ ìĿĢ
Ġst reng
ëĿ¼ ê³ł
Ġ vers
Ġíķľ ëĭ¤
h ing
al es
Ġche ck
Ġ19 8
Ġto t
ib r
Ġpro b
l t
Ġë Ŀ
Ġan n
Ġent ire
Ġf ish
Ġìłķ ë³´
ast ic
Ġì¹ ĺ
Ġì¢ ħ
Ġoff er
A S
oin ts
ë§ Ŀ
is on
Ġf ive
Ġun ique
Ġtool s
og raph
Ġbehav ior
ë ģ
Ġsp e
íĻ ľ
Ġperform ance
Ġìĭľ ìŀĳ
Ġê°Ģ ìŀ¥
ìĿ´ ëĤĺ
Ġprodu ce
Ġd oc
Ġre act
Ġp ort
íķĺ ë©°
ĠìĹ Ĳ
Ġìķ ½
Ġt aking
Ġs ense
Ġtemper ature
Ġwee k
n ces
ill ed
ì¶ Ķ
os es
Ġar ch
Ġchem ical
Ġ2 5
Ġê² Ģ
Ġthrough out
Ġact ually
er ous
Ġbre ak
ĠM ar
I D
Ġg as
ĠìĦľ ë¹ĦìĬ¤
ĠA b
Ġpare nts
Ġdi agn
ul ations
ien cy
Ġìĭľ ê°Ħ
Ġin j
Ġr ights
ĠC O
Ġde ep
Ġmeas ure
Ġcomp on
Ġd est
ĠS outh
Ġë¬¸ ìłľ
n ov
ed s
ĠD o
on se
ac ed
ë§ Ĳ
Ġdam age
ĠìĹ ħ
ĠìľĦ íķľ
re g
Ġcon duct
ra d
ĠC omp
Ġë ¡
Ġdesign ed
s h
a i
Ġpolit ical
ur ch
Ġì Ĥ°
it ud
iv il
2 3
Ġenc oura
ron t
Ġst ates
Ġs ite
ol ic
Ġcomp an
Ġeas y
Ġs ent
Ġide a
Ġl ink
ron ic
Ġret urn
ì¶ľ ìŀ¥
al ing
ì Ĥ
m ing
Ġallow s
Ġbl ack
ur s
Ġj our
Ġcol or
Ġfin ancial
Ġl ab
Ġl ives
le x
Ġh arm
ĠCon t
Ġìĭ ¬
Ġrel ig
Ġì² ĺ
Ġdis ord
z e
Ġe c
ĠC al
ìĹĲ ëıĦ
h ib
Ġb ar
Ġmonth s
o on
Ġì² ´
A l
it ation
Ġ ver
Ġë§ ŀ
g ing
ìł ¸
ist ance
Ġpre c
Ġì² Ń
Ġf arm
ëł ĩ
Ġa ction
Ġìĸ ĳ
Ġëª¨ ëĵł
Ġl a
ri or
g est
Ġsu per
ĠT r
u el
ĠA ct
ub lic
Ġsoc iety
ĠAmeric a
Ġimp lement
ë ´
Ġthough t
ì¶ ķ
Ġstruct ure
Ġsu ff
ĠA ust
Ġw in
ive ly
Ġem erg
Ġvar iety
íķĺ ë©´
Ġpr inc
Ġc e
ì¸ ł
he t
ê ´ĳ
Ġinclud es
ĠE m
Ġì° ¾
p ly
Ġsec urity
Ġwrit ing
cc ording
Ġcom pl
Ġmean ing
Ġcaus es
Ġserv ice
rop ri
íķ´ ìķ¼
Ġcar bon
ĠN orth
Ġtar get
Ġreg ard
Ġlong er
ë¦¬ ëĬĶ
Ġe ver
Ġë§Į ëĵ¤
ful ly
Ġí Ĵ
2 5
Ġread ing
Ġde b
Ġparticular ly
ow s
Ġman ufact
Ġcru cial
ì £
Ġit self
e xt
ë³ ĳ
Ġëĭ¤ ìĸĳ
ĠìķĦ ìĿ´
Ġfood s
Ġst op
p ts
c ient
E S
av ing
p id
Ġst e
r ast
ĠíĮ Ĳ
Ġup on
m ber
en ed
ĠëĶ Ķ
ĠR ep
i am
Ġ2 4
ĠG e
ìĺ ¨
Ġì§Ħ íĸī
ëĲĺ ìĸ´
Ġme chan
Ġpub lished
iqu es
ul es
) :
ist ics
op h
ĠS oc
it ary
ĠM ay
Ġpol l
Ġg e
Ġíģ ¬
n ers
Ġcomput er
ì µľ
Ġbr ing
ĠìĿ´ ìĥģ
as c
Ġsp read
Ġelect ric
Ġë© Ķ
ìĬ ¹
Ġt alk
ë¶ ģ
Ġaw are
Ġlit er
Ġf ire
Ġc ame
Ġreg ion
Ġm or
Ġre v
Ġh ours
Ġar g
Ġcaus ed
ac hes
ĠS u
Ġtradition al
Ġal most
Ġter ms
g ar
Ġê²ĥ ìľ¼ë¡ľ
2 4
Ġnet work
Ġf ace
ĠEar th
ol l
ict ion
Ġcont act
Ġc op
is es
ic les
Ġb acter
ĠìĨ Ĳ
A R
Ġí ĳľ
Ġê° ģ
Ġem b
Ġc ustom
ë Ĩ
Ġmin im
m a
os ing
Ġv ide
A T
Ġrec ent
Ġìĺ ¨
ĠG u
ì´ Ī
Ġsub st
c ies
Ġs ources
Ġl ove
6 0
Ġtra vel
Ġth reat
ĠInd ia
ric ult
Ġmon it
o or
Ġshow s
Ġcult ure
Ġatt ention
Ġs at
ìĿ´ëĿ¼ ê³ł
in ary
at ives
Ġy et
ìĿ´ ì§Ģ
íķĺ ëĭ¤
ë³ Ģ
is ions
ëı ħ
ê¸ ¸
Ġmus ic
Ġc r
Ġcomp et
ut ed
en n
Ġëĵ¤ ìĸ´
ĠìŀĪ ìĸ´
Ġmat ter
Ġb ur
ib er
ĠëĿ ¼
ê±° ëĤĺ
ĠY our
Ġcrit ical
ab et
Ġpos ition
es e
Ġw ild
Ġd aily
Ġar r
og rap
Ġse par
Ġover all
h ood
Ġprev ious
ĠP r
Ġhe av
et er
art ment
Ģ ë¡ľ
Ġwe bs
Ġsh are
Ġê´Ģ ëł¨
ĠìĻ Ħ
Ġë² Ī
Ġresp onse
uc k
ì§Ģ ëĬĶ
Ġì§Ģ ìĽĲ
į ¼
Ġprog rams
end er
Ġh alf
ëłĪ ìĿ´
ĠìĨ į
ë© Ķ
Ġg ain
Ġcons ist
ë³´ ëĭ¤
ë¶ Ī
Ġë° Ŀ
imate ly
i able
Ġpat ient
Ġev ents
Ġsur v
n ew
Ġacc ur
ĠD ep
Ġb ra
. )
Ġchalleng es
iss ions
j oy
Ġanal y
m on
Ġdevelop ing
Ġp sych
Ġgrow ing
ĠA pp
Ġs low
Ġdig ital
um e
Ġê²ĥ ìĿĦ
Ġus es
Ġt ell
Ġìķ ŀ
ëĿ ½
ĠìĿ Į
Ġe at
Ġbu ilt
Ġschool s
ar ies
idd le
ĠA fter
ĠìŀĲ ìĭł
ĠP e
Ġhy d
os ure
Ġ19 7
Ġc oun
Ġet c
ëĿ¼ ëĬĶ
Ġachie ve
Ġpract ices
Ġlead ing
a ff
ĠH is
row n
Ġì§Ģ ìĹŃ
ìĺĢ ëĭ¤
l or
íħ Ķ
il s
e b
Ġvis it
Ġex c
Ġ4 0
ĠF r
Ġìĭ Ŀ
Ġiss ue
ì ½
ap an
Ġmed ia
Ġprovid ed
ig ure
Ġexper im
t ies
Ġrem ov
Ġmove ment
ct ions
Ġcommun ities
Ġbe gan
du c
m b
min ist
Ġcl aim
Ġtot al
Ġstand ard
ir m
ve y
Ġth ing
Ġsom et
Ġê²ĥ ìĿ´ëĭ¤
Ġto ok
Ġre view
Ġsh own
b an
ad es
Ġgre ater
ìĸ ¸
Ġl ack
Ġcompan ies
Ġl ed
Ġas pect
se t
íļ į
o ber
or ks
Ġí ŀ
Ġexpl ain
f ort
Ġí ļ
Ġcontin ue
Ġinvol ved
Ġse x
Ġmult iple
c are
Ġt ax
Ġë° ķ
Ġa im
ĠCan ad
ro om
ter m
Ġv it
Ġgu id
c hed
ĠC o
Ġdo ing
I S
Ġapplic ations
olog ies
Ġë°© ë²ķ
Ġg ard
Ġtru e
Ġresp ect
ìķ ł
f ect
Ġv acc
en e
ĠëĺĲ ëĬĶ
Ġst ay
ĠëķĮë¬¸ ìĹĲ
Ġíķ ©ëĭĪëĭ¤
Ġsim ply
k now
Ġë ł
Ġê²ĥ ìĿĢ
ĠRes earch
ic ine
Ġo x
Ġtechn iques
ë¦¬ ë¥¼
Ġr out
ëŀ ľ
o very
ìķĺ ëĭ¤
Ġa verage
Ġdem on
ĠP ar
Ġlook ing
Ġse lect
ar ily
Ġcommun ication
ĠíĻķ ìĿ¸
Ġëĭ¤ìĸĳ íķľ
ĠSt ate
Ġcor rect
Ġdev ices
Ġsol ar
ã ģ
ëħ Ģ
Ġget ting
Ġpre p
Ġdist rib
4 0
Ġext reme
Ġsomet imes
hen s
Ġref lect
Ġeas ily
Ġcon c
Ġsp eed
d om
Ġfor ms
ë ī´
ĠJoh n
Ġs ix
Ġê¸° ìŀĲ
Ġen joy
Ġdoes n
Ġdise ases
Ġve get
Ġsome one
ĠC ons
ì¡ Į
Ġcreat ing
erv ation
Ġprog ress
Ġcomm it
Ġë² ķ
Ġapp l
Ġprovid ing
ëĮĢ ë¡ľ
Ġdra w
Ġtoward s
Ġse em
Ġìŀ Ħ
Ġv iol
Ġout side
ĠS chool
Ġa ud
ĠI nt
Ġ ir
Ġbelie ve
Ġf em
Ġl og
Ġwas te
Ġquick ly
er ation
os ition
Ġìłľ íĴĪ
Ġf ul
ìł ĳ
Ġapp ropri
es tern
ìľ ¨
Ġì ·¨
ĠY ork
ĠBrit ish
ir it
Ġnorm al
Ġser ious
Ġp rior
Ġca pt
Ã ©
Ġc ra
Ĳ ëĭ¤
Ġsoft ware
Ġë³ µ
ìĤ¬ ë¥¼
Ġtyp ically
Ġim age
Ġimport ance
ê² ¬
Ġrel ative
ol es
O ne
í Ī¬
Ġide as
ĠP re
ĠQ u
íı ī
ìĭľ ê°Ħ
Ġì ±Ħ
v ant
m y
ë¡ľ ìļ´
rough t
B ut
Ġpo or
Ġ Â
ĠH ist
Ġp an
Ġdis pl
Ġk ids
st er
Ġrequ ires
ìĭ Ń
Ġac cept
ĠíĶ Į
Ġa ff
I N
Ġprim ary
Ġm ess
Ġfe atures
Ġbas ic
ìŀĲ ê°Ģ
ww w
Ġref er
Ġexerc ise
Ġw ood
Ġprocess es
ĠN o
ĠJ apan
oun ts
Ġì´ Ŀ
ĠM e
Ġë ĸ
i ot
Ġev alu
Ġcon cept
as ons
Ġb ab
g round
ĠM any
eng th
ĠS ec
ĠP res
Ġad apt
iz ations
Ġey e
Ġvir us
Ġt akes
w h
Ġìĸ ¸
Ġí ħ
Ġneg ative
Ł ģ
is ter
Ġp le
ëĬ ĺ
land s
Ġgener ally
Ġteac hers
ê¸ Ģ
u ge
ce ll
Ġd ry
ĠëĪ Ħ
Ġexp ress
Ġe th
Ġcomp ared
o es
Ġal tern
Ġdeterm ine
Ġl at
if t
Ġorig in
y ond
Ġscient ists
ad s
ĠJ ew
Ġlead ers
Ġbl ock
Ġcult ural
Ġc amp
Ġì ¤Ģ
Ġëı Į
Ġ ,
ìĹĪ ìĬµëĭĪëĭ¤
ëĲ ©ëĭĪëĭ¤
Ġanim al
Ġdiffere nce
Ġt ree
Ġíķ Ń
ĠIn stit
Ġprofess ional
ìĦ ¼
ul ate
r ition
Ġintern ational
Ġsupp ly
ĠAust ral
Ġear th
ĠH ere
íĿ ¬
Ġê°Ģ ì§Ģ
Ġf ram
Ġind epend
r ated
ens ion
ĠR eg
ĠCh ina
Ġd ang
Ġhigh ly
Ġê· ¼
Ġaut om
Ġfore st
Ġcost s
ter y
Ġco ver
ĠëĬ Ĳ
ip ment
abet es
Ġn ight
Ġst ra
ed eral
Ġt ur
ĠP er
Ġm agn
Ġorig inal
Ġë¡ ľ
e v
ê¸° ìĹĲ
Ġse vere
ì¹ ¨
Ġve h
Ġdec re
Ġin nov
ëĿ¼ ìĿ¸
Ġaddition al
ì ³
or por
am ed
ìĦ± ìĿĦ
ĠM ore
b ol
Ġpolic y
Ġì¶ ©
ell ig
Ġpro ced
Ġw arm
Ġext ra
um b
Ġprodu ced
op s
Ġreport ed
vent ion
id er
Ġdirect ly
ri pt
Ġwrit ten
Ġt iss
Ġì ±ħ
Ġfor ce
Ġtre es
ĠM in
ì Łģ
Ġprot ection
Ġatt ack
an cy
Ġê·¸ ëŁ¬
Ġtrans port
Ġì§ Ī
ĠU s
ie f
Ġp ict
Ġst ar
Ġë¨ ¹
Ġ i
Ġsee k
Ġê± ¸
f l
Ġcon cent
Ġhum ans
l s
Ġtherap y
it able
Ġt end
r s
Ġinst it
íķ´ ìĦľ
Ġele ments
iz es
Ġf a
Ġins ide
ìĽ Ģ
Ġë² Ħ
Ġinst ead
ĠSc ience
ĠìĦ¸ ê³Ħ
Ġnum bers
ì° °
uc le
j ust
Ġh ar
Ġìĭ ¶
Ġact ive
Ġ2 1
Ġstart ed
Ġimm edi
ĠI I
om ing
an a
ìŀĲ ëĬĶ
Ġdec ision
ì¡ ´
Ġopt im
Ġíķĺ ê³ł
Ġp oints
Ġre ve
Ġproject s
Ġbeh ind
y ing
ìķ ħ
Ġc ard
Ġa p
ur ies
Ġë¯¸ êµŃ
av or
Ġac id
Ġinf ection
Ġs il
Ġte eth
ë° ±
Ġì° ½
ĠA g
ĠK ing
Ġw all
h a
ĠìĤ¬ ìĹħ
Ġíĥ Ģ
Ġê ´ĳ
Ġp ack
ou d
Ġinflu ence
ic ated
Ġf oot
Ġs qu
ren ch
Ġfe et
ograp hy
Ġdef in
Ġl ate
A N
Ġê·¸ ë¦¬ê³ł
" .
id ge
Ġbro ad
Ġìĭľ ìŀ¥
Ġlar ger
Ġatt em
Ġcl in
r ial
Ġconn ect
ar r
ers on
Ġì º
Ġapplic ation
Ġinst all
Ġdr ink
Ġadv ant
Ġdem and
Ġval ues
Ġinvest ig
ĠëĲ ł
Ġus ers
Ġser ies
Ġdemon str
n a
d ing
al y
ê¸° ëıĦ
Ġinclud ed
Ġeffic ient
ac hed
Ġê°ľ ìĿ¸
íĺ ĳ
ĠE duc
r ight
Ġíģ °
Ġadd ed
Ġh ot
in o
ec ause
he l
ĠëĤ´ ìļ©
Ġb reat
Ġdis p
ell ow
ìķ ¡
Ġprote in
Ġtest ing
Ġíĺ ķ
Ġc it
ound s
Ġstrateg ies
Ġexp ect
is ms
Ġscient ific
y l
ĠíĬ ¸
Ġw alk
Ġqu ant
O n
Ġim pl
ìĶ ¨
Ġthere fore
r ig
n ame
Ġyour self
ľ ´
Wh ile
Ġlim ited
Ġëĭ ´
Ġd ou
ë Ī
ch ing
Ġëª¨ ëĳĲ
Ġë¯ ¼
ëŀ ¨
Ġsol ution
Ġdoct or
Ġg ame
c ome
Ġon es
itud e
w here
o ly
Ġëł Ī
Ġc ross
Ġbe aut
Ġbehav i
Ġpurp ose
e qu
ëĵ¤ ìĹĲê²Į
âĢ ¢
ut h
Ġcol on
Ġtrans form
E D
Ġì ĵ
ë° Ľ
ĠìĦľ ìļ¸
Ġc red
ĠìĤ¬ íļĮ
à ¤
ì§Ģ ë¥¼
Ġm other
Ġexpl ore
Ġspe ak
Ġf ast
Ġqu ite
r or
Ġdoc ument
Ġm om
ĠR ec
ĠEurope an
ëĵ Ŀ
ìĪ ľ
Ġoff ers
an ks
ĠìĪ ľ
Ġad op
Ġth us
Ġequ ipment
in ks
ĠëĤ ł
Ġthink ing
ĠG l
Ġansw er
ìłķ ë³´
ĠëĮĢ íĳľ
ê· ľ
c oh
it is
Ġp age
Ġfamil ies
O N
d en
it ect
t ime
8 0
Ġvide o
ìĹ Ĩ
Ġcap ac
Ġstreng th
Ġst ru
u ous
ê¹ Ģ
Ġb it
S o
ìŀĪ ëĬĶ
Ġle aves
A C
Ġë°Ŀ íĺ
Ġest im
ĠëĪ Ī
Ġre ach
Ġíļ ¨
Ġê³ł ê°Ŀ
Ġsitu ation
Ġìł ĳ
Ġnut ri
Ġleg al
ìĦľ ëĬĶ
Ġíĸ Īëĭ¤
Ġuse ful
Ġê· ľ
Ġse a
ë¸ Ķ
Ġëı ħ
Ġeff orts
Ġappropri ate
ro gen
Ġíĸ Ī
b re
Ġte aching
ĠëĦ Ī
Ġf it
Ġd iv
Ġprom ot
Ġë§İ ìĿ´
Ġì ¤Ħ
I C
Ġbo oks
Ġì ī
Ġu lt
ĠA c
Ġbacter ia
Ġag ricult
ëŁ ½
Ġb ad
ĠìĹ¬ ëŁ¬
Ġcent ral
Ġsu gar
ĠAr t
g n
The se
Ġa st
âĢĿ .
r ate
Ġvis ual
ĠO f
Ġus er
Ġstep s
Ġan x
Ġë Ĵ
Ġcho ose
b ack
Ġc ool
at t
íħ ľ
Ġmeas ures
Ġgo al
Ġr ates
Ġwebs ite
Ġc ivil
ìĿ µ
íĸĪ ìĬµëĭĪëĭ¤
Ġres id
Ġmod els
Ġs n
Ġê¸° ìĪł
Ġì» ¤
ĠM ost
ë¨ ¸
v est
ëĲ ł
ëĲľ ëĭ¤
in ct
Ġí Ĩł
Ġhab it
Ġear l
ĠëĺĲ íķľ
Ġëĭ¤ ìĿĮ
Ġsignificant ly
Ġê²Į ìŀĦ
E x
i ers
ĠT ra
Ġins p
ĠS m
Ġopportun ities
Ġestab lished
Ġro b
Ġ20 20
Ġbec omes
Ġconst ruction
Ġhand s
ĠH ar
B y
O R
Ġth ird
el t
Ġprob ably
Ġwork ers
od ies
Ġsur round
Ġce le
Ġê³ ³
Ġì¢ĭ ìĿĢ
ĠF rom
v al
ĠP art
Ġe ating
ê² ¨
Ġmin utes
Ġth ous
c les
ì§ ¸
Ġopt ions
Ġd ark
le ction
Ġh or
ìĿ´ ê³ł
ffic ient
ĠìĦł íĥĿ
Ġìļ´ ìĺģ
ĠW ill
Ġan cient
at form
ce ed
Ġag o
Ġmil itary
Ġthe ory
b or
Ġl abor
Ġad ults
Ġbenef it
Ġse arch
Ġê¸° ìĹħ
Ġbir th
Ġrespons ible
ol ar
Ġ #
Ġì¤ĳ ìļĶ
Ġresp ond
Ġn ation
Ġh ost
Ġ201 6
Ġem p
Ġs old
Ġse ason
Ġf ront
ê·¸ ëŀ¨
ĠìĹ° êµ¬
Ġexperien ces
ic ate
ĠN e
Ġrem ains
iel ds
res h
m ar
ĠN ot
Ġ201 7
Ġestab lish
Ġdev ice
ìŀĲ ìĿĺ
ì²ĺ ëŁ¼
re hens
Ġs ou
ĠB o
ëł¥ ìĿĦ
ce an
Ġm ix
ĠL ear
Ġt ri
ê· ¹
Ġnew s
ì° ½
ill ing
ĠAfric a
Ġso on
Ġ201 5
c il
Ġbe yond
ĠInd ian
ĠE d
Ġíĺ ĳ
ëĭĪ ê¹Į
Ġinter p
Ġcoll abor
Ġë°ľ ìĥĿ
Ġ6 0
Ġredu cing
Ġm is
ĠìĹĨ ëĬĶ
Ġmem ory
Ġt ests
Ġra pid
Ġtra ck
Ġbal ance
ª ½
i pl
Ġì ½
ë¡ Ģ
ĠCh ild
ĠK e
Ġë ´
Ġinvol ves
ĠTe chn
Ġex act
Ġpattern s
h aps
ab ilities
H e
Ġob tain
Ġexp osure
Ġf ight
Ġë¸ Į
Ġmach ine
Ġfri ends
Ġcompon ents
Ġíģ ´
Ġsustain able
c ks
use um
ĠC om
ĠR uss
ĠM on
ĠCent er
ĠE l
Ġìķ ł
ĠêµĲ ìľ¡
Ġb ase
i us
Ġey es
Ġim ages
ĠJ es
Ġrecomm end
Ġcar ry
Ġíĸ ¥
ĠO ther
coh ol
as ks
Ġ201 8
ê¸° ê°Ģ
ìľ¼ ë©´
Ġproper ty
Ġsol utions
Ġhe ld
ist ry
ax im
A d
l ife
Ġì ¡
Ġpriv ate
ĠInstit ute
Ġcont ains
Ġr ich
ìłķ ìĿĦ
i ance
Ġtechn ologies
Ġë² ł
Ġris ks
b it
ĠJ an
s u
ĠìłĦ ë¬¸
Ġcap ital
Ġevery one
Ġc ode
Ġe gg
Ġ201 9
Ġ2 3
Ġst age
se ct
Ġopportun ity
Ġìł Ī
Ġs ect
Ġsign s
Ġpower ful
il le
Ġwe b
Ġwee ks
ĠìķĬ ëĬĶ
Ġre asons
Ġt able
Ġw a
o ke
Ġsp irit
Ġsh ape
p e
Ġc rop
Ġan g
Ġrece ive
Ġwr ite
í į¼
he st
ëłĩ ê²Į
Ġbegin ning
Ġwe ather
Ġpr in
am ic
ĠC ount
ĠD ay
Ġìłķ ëıĦ
Ġto wn
2 7
Ġcol d
Ġu nd
ìŀ¥ ìĿĦ
ĠAfric an
W ith
u ary
ash ing
Ġíŀ ĺ
Ġ19 4
Ġoff icial
stand ing
Ġf ra
Ġì¹ ľ
Ġaffect ed
Ġut il
ul ated
Ġf uel
if orn
en ge
E N
ĠìķĦëĭĪ ëĿ¼
Ġdi abetes
ĠF rench
Ġstand ards
Ġê°ľ ë°ľ
Ġimm une
ĠA ug
se c
Ġgo als
ĠS w
Ġcal cul
Ġproper ties
ì» ¤
Ġad minist
Ġpl aces
il es
Ġm ob
2 6
Ġem ail
Ġ ...
m ission
Ġl ength
ĠJ u
r ical
im in
Ġevery thing
ìĿ ĳ
Ġs ection
Ġag ree
ie ce
Ġexam ples
Ġal though
Ġeffective ly
ĠIntern ational
âĢ ĺ
i ples
Ġst ri
Ġdep end
P ro
I T
Ġìĥģ íĻ©
Ġl ost
Ġcon sequ
w ise
Ġpur ch
ìĹ ´
w ater
ri ption
und red
an cing
Ġcommon ly
Ġëĭ¤ ìĭľ
i os
um an
íķĻ êµĲ
e es
ìĿ´ ëĬĶ
cept ion
m ed
Ġper fect
ë§ ī
Ġorgan ization
Ġsym bol
he ad
ìĿ´ëĿ¼ ëĬĶ
ĠM us
pp er
ĠH er
Ġcho ice
Ġenh ance
Ġconf lic
ìŀ¥ ìĿĢ
A t
Ġcont ext
ìĤ¬ ì§Ģ
ph as
Ġl ines
Ġsc reen
Ġê²° ê³¼
Ġro om
i ar
¨ ìĸ´
Ġcont roll
A nd
iforn ia
Ġm ill
ĠAl though
ĠìĿ´ ë²Ī
or ation
Ġc ry
ex ample
ines e
Ġis n
ëĬ Ĳ
Ġeffic iency
-- --
ĠIn c
Ġc ook
Ġm ention
Ġloc ated
Ġem issions
ĠO ur
Ġant i
ĠF irst
Ġdec isions
Ġìļ ©
Ġdec l
Ġra re
ĠIn st
Ġeconom y
Ġâ ĸ
Ġlar gest
Ġëĵ± ìĿĦ
c o
Ġloc ation
Ġe p
ĠS erv
Ġ201 4
Ġcon ce
Ġg ives
Ġ <
ëł ¸
Ġel se
Ġvir t
lo ad
Ġtrans l
Ġsuccess ful
Ġrequire ments
ìĿ´ íĦ°
Ġm ount
ir ing
Ġm ole
Ġpre gn
Ġíı¬ íķ¨
Ġpl atform
Ġs we
Ġcomm er
Ġh ope
Ġhealth care
Ġp et
Ġ19 6
ë² Į
Ġìĸ ¼
ĠS ystem
u ro
Ġ2 2
Ġíķ ©
id ed
ë ķĮ
ìĥģ ìĿĦ
Ġgu ide
Ġf ear
Ġgra du
Ġê´Ģ ê³Ħ
ĠM y
ĠA nt
Ġc am
g y
e al
ther n
Ġset t
Ġde al
Ġstru gg
Ġíĥ ľ
ĠìŀĪ ìĿĦ
Ġlim it
Ġê ¶Į
Ġim ag
íĻĶ ë¥¼
' re
m ore
Ġsum mer
Ġg ot
i ate
Ġconst ant
pr il
ar ian
Ġj ud
Ġor d
est ic
ĠU se
íĻ ķ
Ġemot ional
ĠW est
Ġë§Ī ìĿĮ
Ġac ad
Ġf inal
ver t
Ġse ems
ĠDe velop
Ġsmall er
us ed
Ġ201 2
Ġtra de
Ġr ise
Ġorgan izations
ĠDep artment
il os
ĠJes us
Ġint ellig
yp e
Ġw ent
Ġë¬´ ë£Į
ri e
re c
or age
ìľĦ ìĽĲ
ĠGerm an
Ġconsum ption
ĠìĿ´ ìĸ´
Ġ ing
Ġredu ced
ĠìķĦ ëĭ
Ġexp ected
Ġn ucle
ìĺ ¬
Ġgard en
Ġ x
ĠG ree
Ġman age
ĠCh ar
ì£ ł
ĠR ed
íķĺ ìĭľ
7 0
Ġeduc ational
ìĦ¼ íĦ°
Ġb rought
ra ft
Ġp en
Ġë³ ¼
for ce
Ġcit iz
ĠëĦ ĺ
ìĤ ´
íĬ ¹
be ing
ens ity
her n
Ġanx iety
Ġold er
a id
l im
Ġrece ived
Ġact ions
2 8
¿ Ĳ
Ġ201 3
u k
Ġsh all
Ġcontrib ute
P A
ìĸ´ ìļĶ
Ġhistor ical
it er
Ġ201 0
ĠCal ifornia
ĠëĦ ¤
Ġro ot
Ġv ict
Ġobject s
Ġwh ose
Ġj oin
Ġde ad
2 9
ì³ Ĳ
Ġb ul
Ġinst ance
Ġrelig ious
Ġbas is
w ide
Ġsc ale
ast e
Ġoccur s
ĠD is
Ġas se
Ġsit es
Ġnear ly
ĠM arch
Ġb ott
ĠF l
am b
Ġplan ning
Ġc ou
Ġh ous
ĠëĴ ¤
Ġcapac ity
en cies
u ments
ì ±Ħ
Ġarch itect
Ġinst ru
om y
Ġ +
Ġë¶ ģ
Ġteac her
Ġr ules
ëĲĺ ê³ł
Ġcon vers
ĠíĮ ¨
Ġdiffere nces
ĠíĺĦ ìŀ¬
íı °
Ġass ist
ì° ©
O S
Ġë§Ĳ íĸĪëĭ¤
Ġpres ence
ëĭ µ
Ġra in
i ra
augh t
oc ol
Ġcent er
ĠìĿ´ íĽĦ
on y
Ġë¹ ł
dition ally
y ear
ruct ure
Ġì¶Ķ ê°Ģ
ĠPro g
ë¦¬ ê°Ģ
m osp
Ġh undred
ul a
Ġê²ĥ ìŀħëĭĪëĭ¤
I V
ĠEduc ation
Ġv ia
ĠCanad a
ĠS im
Ġd at
Ġany thing
Ġeff ort
Ġpl astic
am ples
Ġc ateg
Ġë°Ŀíĺ Ķëĭ¤
Ġtru st
Ġlaw s
Ġdescrib ed
Ġvar i
ĠM od
Ġbab y
Ġê·¸ ëŁ°
og en
Ġm axim
Ġcomplete ly
Ġdet ect
ĠAss oci
Ġcurrent ly
Ġhtt ps
ĠìĿ´ ìķ¼
ìĤ¬ ëĬĶ
â ĸ
ìĦ± ìĿ´
rel ated
od ay
ĠT w
ĠA ccording
oc ks
Ġcomp rehens
c he
! !
Ġrem ember
ĠìĥĪ ë¡ľìļ´
Ġal one
ĠB ar
ĠO ct
ĠComm un
Ġh osp
Ġv ital
ĠBl ack
og le
Ġex cess
Ġtry ing
Ġì¦ Ĳ
ĠCh inese
į ëĭĪëĭ¤
Ġill ness
Ġíħ Į
Ġgo es
Ġful ly
Ġ2 6
Ġbir ds
ra el
ë§ ģ
ê¸° ëĬĶ
Ġha ir
Ġeas ier
E C
Ġfru it
Ġë°Ķ ë¡ľ
Ġh yp
Ġw on
Ġm o
ê°Ģ ëĬĶ
Ġt ou
it ch
ĠG ra
ĠTr ans
Ġdeg ree
ê± ¸
ort hern
Ġìłķ ë¶Ģ
Ġincre ases
Ġì§Ģ ê¸Ī
ĠS ch
Ġhtt p
Ġ201 1
Ġplan et
our nal
ĠP ark
ĠH igh
Ġad just
Ġnot e
Ġìĸ´ëĸ ¤
ĠìĤ¬ ìĭ¤
Ġgen etic
ë¦ Ń
Ġcele br
Ġst im
Ġë¸ Ķ
Ġsa w
Ġw ond
S ome
ĠE ven
are nt
Ġmus cle
Ġland sc
Ġattem pt
ìĬ¤ íħľ
ĠAmeric ans
Ġex ec
ë² ł
Ġwin ter
Ġtr ial
Ġem phas
Ġallow ing
Ġd yn
ger y
Ġf resh
Ġ2 8
Ġm outh
ĠìĦ¤ ëªħ
Ġle ave
Ġpo ly
Ġto ld
air s
Ġfun ctions
Ġres istance
Ġto x
Ġdrug s
ë² Ķ
ì¹ ľ
b ook
ĠJ une
Ġent er
ĠA re
íķĺ ë©´ìĦľ
Ġv ary
Ġsh ap
ëĦ ·
ĠìŀĪ ìľ¼ë©°
Ġp ow
Ġ2 7
Ġd er
Ġabs or
ĠìŀĪ ëıĦë¡Ŀ
Ġm al
Ġm iddle
9 0
Ġcolle ction
tern al
Ġb orn
ìĤ¬ ìĹħ
Ġexist ing
ìĹ ¼
Ġro ad
Ġal g
Ġd ate
Ġal cohol
Ċ Ċ
ro te
re es
Ġprom ote
ê² Ģ
ĠThe ir
Ġvis ion
Ġprofess ion
Ġpr ice
Ġcommer cial
ib ly
Ġb all
ë¦ ´
Ġnut rition
Ġ ice
Ġrec ently
ë¥ ł
Ġf ert
Ġê¸° ëĬ¥
ĠAug ust
Ġaspect s
ee ch
Ġse qu
Ġappl ied
Ġë° ±
ogn itive
Ġì¤ĳ êµŃ
am ent
ĠF in
ru pt
ĠìĿ´ ë¯¸
ĠI S
Ġst ories
Ġm iss
ì£¼ ìĿĺ
Ġt ask
ĠR iver
Ġbelie f
ĠHist ory
Ġfollow ed
c ious
ĠU K
Ġinfl amm
ìĹ Ķ
ĠSe pt
b l
Ġf ile
Ġmom ent
Ġfact or
Ġinc orpor
Ġpers pect
Ġcont ract
Ġte ach
ric k
iven ess
ĠA pril
3 5
ê³ ³
Ġh on
u ild
ĠChrist ian
it or
Ġcom fort
il it
od es
Ġstat us
ĠìĤ ¼
ord s
ĠR ead
ì² ł
Ġatt ract
nd s
Ġdispl ay
Ġt asks
er o
Ġê° ĸ
Ġexp and
ì ª½
u ff
Ġìĥģ íĴĪ
Ġro ck
Ġqu al
Ġfor ces
Ġask ed
ĠW ater
Ġant ib
ic a
Ġadv anced
ĠìĿ´ ìľł
Ġfor ward
ibr ary
Ġrelationship s
if ul
Ġstruct ures
ëĵ¤ ê³¼
Ġac qu
I s
Ġwor th
ough t
ig en
ire ction
ĠS ur
Ġnot hing
Ġm ig
Ġident ified
ëŀľ ëĵľ
ĠëıĻ ìķĪ
ĠU nder
Ġinit i
ĠD uring
Ġdep ression
Ġtiss ue
Ġm id
ìĤ¬ ê°Ģ
y gen
Ġallow ed
ĠìĿ¸ íĦ°
qu e
Ġrem ove
se e
Ġf ather
Ġchall enge
S A
ĠëĨ į
Ġto oth
ĠíĹ Ī
Ġreg ions
a ur
Ġíķĺ ì§Ģë§Į
ëħ Ĳ
íĮ ¨
ãħ ĭ
âĢĿ ,
E M
Ġc ities
ĠPro f
Ġb illion
Ġíİ ĺ
ĠìķĪ ìłĦ
v ious
Ġcom ing
Ġt en
Ġv o
Ġit ems
am a
Ġf air
u x
as ts
Ġtrans fer
Ġconn ection
if ically
Ġê¸ ¸
Ġrecomm ended
Ġval u
Ġ8 0
ĠEng land
ĠíĻľ ëıĻ
ĠR et
ĠThe n
ur ance
Ġg old
Ġcomm and
Ġdetail s
ĠGo vern
ĠIs rael
ì¸ µ
w orks
om b
ëĿ¼ ìĿ´
ĠD av
Ġne igh
Ġë³´ ê³ł
Ġoper ations
Ġinc ome
Ġinterest ing
Ġst aff
ìŀĲ ë¥¼
P S
Ġser ve
st e
ìĭľ ìķĦ
ĠA ut
Ġass ign
l in
al ed
Ġdog s
Ġpe ace
Ġfe ature
ic ip
Ġt it
ĠJu ly
is l
Ġmov ing
Ġst orage
o e
ìŀĲ ìĿ¸
b al
re w
Ġfri end
Ġw oman
Ġbusiness es
Ġëª¨ ìĬµ
Ġg iving
Ġappro x
Ġat mosp
ĠìĤ¬ ì§Ħ
Ġpl aced
Ġur ban
ap ter
Ġco ast
Ġdisord er
Ġo ption
Ġf ederal
Ġmem ber
Ġapp ly
Ġn orth
Ġst yle
ëĲ Ĳëĭ¤
Ġn av
3 3
í Ĩ
Ġr at
ìļ ±
Ġpl ans
Ġens uring
Ġearl ier
ĠD NA
h ouse
un ch
oc r
D A
ĠP at
Ġìĵ °
Ġgl ass
Ġch ronic
ic o
ĠìĬ ¹
ĠM c
Ġwe ak
ĠêµŃ ëĤ´
Ġhe ar
ëī´ ìĬ¤
Ġì°¸ ìĹ¬
Ġr ule
Ġindust rial
ĠO ver
os ystem
ĠC ity
Ġv ul
ì¼ Ģ
ar a
ĠB ra
ĠìĤ¬ ìĿ´
Ġbl ue
o ff
h ab
ĠG reat
į ¨
Ġmet al
know n
Ġexper t
Ġp iece
Ġinst ruct
Ġmajor ity
Ġí Ĥ
ies t
ed om
Ġhim self
Ġconcer ns
Ġrun ning
form ation
Ġocc up
Ġmil k
Ġtemper atures
ing u
ed ing
ĠPe ople
Ġê°Ģ ê²©
Ġfind ings
ìĭľ ìĺ¤
ĠV al
Ġdi ed
A L
ro s
Ġup d
Ġelectric ity
Ġtr ig
c an
an ish
Ġdisc overed
Ġdisord ers
el ines
Ġbec oming
Ġëħ ¼
ĠíĶĦë¡ľ ê·¸ëŀ¨
Ġconst it
Ġre ality
Ġk ing
Ġpolic ies
.. ..
com es
ond on
ĠPro t
ashing ton
a ul
ĠL et
Ġí Ľ
Ġsa ve
Ġcomp ar
» ê²Į
Ġcy cle
Ġch ance
Ġgener ation
Ġaltern ative
Ġê´Ģ ë¦¬
is ation
ĠAl so
g in
Ġhelp ing
Ġro t
Ġnum erous
Ġclin ical
Ġs ch
hem at
Ġs outh
Ġrelative ly
Ġres ource
ìĭĿ ìĿĦ
ĠE ach
Ġset ting
Ġb ound
h am
Ġw id
ĠìĿ¼ ë³¸
rom e
Ġf ix
Ġcaus ing
Ġdep ending
Ġì £
Ġh orm
ĠCh urch
ìĤ¬ ìĿĺ
Ġê³Ħ íļį
ent y
Ġd ed
Ġin sect
Ġ- -
es ign
Ġtop ic
Ġshow ed
in y
Ġprocess ing
Ġdi vers
Ġs on
a ign
ĠJ ournal
in ated
Ġb one
id ing
ĠV ir
Ġsupp l
ten ance
ìĿ´ ìĬ¤
Ġadv ance
Ġb ed
íĨµ ëł¹
ëŀ µ
Ġbo x
Ġencoura ge
Ġëģ Ŀ
Ġill ust
cl usion
ul um
Ġele ment
Ġsu sp
ess ion
How ever
s es
ch ange
Ġaware ness
ien ces
Ġun it
Ġì¤Ģ ë¹Ħ
Ġf lex
Ġn amed
Ġfem ale
Ġìĭľ ìĦ¤
Ġpare nt
U n
Ġcontin ued
Ġmed icine
ĠP ol
ìħ Ķ
Ġì² «
Ġpre par
Ġvit amin
Ġì² ľ
f ord
ĠAustral ia
Ġê¸ Ģ
Ġê ¼
ĠìĿ´ ëŁ°
Ġl iqu
Ġw atch
Ġìµľ ê³ł
ur g
ub e
Ġh uge
m en
ĠëĤĺ íĥĢ
mit ted
Ġ7 0
er a
ĠS ince
ëĦ Ĳ
Ġclass room
Ġmil es
A M
ĠA v
ce mber
z z
Ġdid n
ĠPres ident
Ġ200 9
Ġcomb ination
Ġex cell
ĠJ ust
Ġg ames
ìĿ´ ë©°
Ġb odies
re et
Ġchang ing
êµĲ ìľ¡
ĠB ecause
Ġconst ruct
Ġvers ion
ĠN ow
Ġproper ly
Ġorgan ic
Ġev ol
Ġw rote
Ġinf ections
Ġchang ed
I m
ĠP ress
¿ ł
ê°Ģ ì§Ģ
ĠC ong
ur t
ĠëĦĪ ë¬´
Ġê·¸ ëŀĺ
ë§Į ìĽĲ
l ast
Ġpart ners
ere nces
ìĭŃ ìĭľìĺ¤
Ġcharacter istics
Ġg ir
het ic
Ġlay er
Ġdest ro
Ġhapp en
Ġp ick
Ġpred ict
ur ally
ê²ł ìĬµëĭĪëĭ¤
Ġheav y
Ġcons ult
Ġb ank
ĠE ast
Ġev olution
Ġrep e
1 00
ec es
Ġ iron
Ġd en
ì ·¨
ĠJan uary
Ġsugg ests
c raft
Ġfrequ ently
Ġvalu able
Ġdist ance
Ġë§Įëĵ¤ ìĸ´
Ġd irection
Ġ200 8
ĠB i
at ers
Ġex hib
Ġm ut
Ġë§ Ľ
Ġsc en
ë ·
ĠEn vironment
Ġconn ected
E T
ê¸° ìĹħ
Ġdr ive
Ġíķ´ ëĭ¹
ove mber
ĠC our
íĥ ģ
hy d
Ġë³ Ħ
¾ ¸
Ġinvol ve
ëĭ¤ ë©´
Ġcour t
ĠSept ember
Ġfor mer
op y
Ġph ilos
__ __
rast ructure
Ġform ed
Ġf avor
Ġst ream
V ID
Ġìķ ¼
Ġsp ect
ĠìĿ Ģ
Ġimpro ved
Ġd ri
ous ly
ë° Ģ
Ġh omes
ri ef
ific ial
ĠR o
ĠWill iam
ĠR oman
Ġêµ¬ ë§¤
ĠN et
d o
Ġwide ly
Ġfeel ing
Ġst ore
Ġox ygen
ĠíĻľ ìļ©
ĠThere fore
ĠëĮĢ ìĥģ
Ġpre fer
Ġth r
Ġassess ment
ĠP C
ch ar
ìľ µ
ĠC or
Ġextreme ly
Ġvul ner
Ġprinc iples
Ġnutri ents
Ġwr ong
Ġdec ades
Ġíĺ¸ íħĶ
Ġbu y
ìĹ ĩ
Ġacad emic
Ġ2 9
Ġê²½ ìłľ
Ġrele vant
3 6
Ġì§ģ ìłĳ
Ġì ¸
al t
íģ ¼
Ġk id
Ġresult ing
ĠC oun
ĠìĤ¬ ëŀĳ
un ction
ĠOct ober
Ġtre ated
Ġparticip ants
ĠAr ch
ĠêµŃ ê°Ģ
ĠìĺĪ ìłķ
Ġë ľ
Ġobserv ed
ĠL aw
Ġag g
k y
Ġì¶ ķ
Ġbelie ved
Ġread y
Ġexper ts
ì§ ķ
a res
Ġe ight
Ġtechn ique
Ġthous ands
ĠF eb
A fter
Ġcitiz ens
Ġwork ed
Ġrele ase
p ris
Ġinj ury
W hy
ĠW ashington
íķľ êµŃ
Ġse eds
por ary
ìĹĲìĦľ ëıĦ
Ġp hen
Ġstart ing
S T
Ġrec y
Ġb ud
pl ace
Ġexperien ced
Ġêµ °
Ġc ris
ĠìĹ¬ íĸī
ress ive
ĠIn ter
ì§Ģ ëħ¸
The y
at in
Ġequ al
Ġn ative
i ant
ĠM ex
Ġjour ney
Ġ9 0
ish ing
ang ing
Ġf ields
ìĤ¬ ìĿ´íĬ¸
Ġpict ure
Ġbuild ings
Ġt our
Ġrepl ace
Ġimmedi ately
ì¡Į ëĭ¤
Â °
ef ore
B C
Ġmanufact ure
ê° Ī
res p
A ll
Ġdi verse
Ġrep orts
Ġt im
ëŁ¬ íķľ
Ġhig hest
íİĺ ìĿ´ì§Ģ
Ġm ission
Ġsp ring
Ġ20 21
am ental
ìķĪ ë§Ī
Ġbo ard
Ġë¶Ħ ìĦĿ
Ġm ap
Ġë¶Ģ ë¶Ħ
m et
Ġec osystem
Ġconduct ed
0 1
Ġë³ ĳ
Ġc ore
Ġc and
ĠíĮĲ ë§¤
ĠL ondon
ĠW ork
Ġfore ign
om a
ĠS an
4 5
om ic
Ġstrateg y
Ġdef ined
íĥ Ħ
Ġdist inct
Ġsur vey
ĠìķĮ ëł¤
ond s
Ġdistrib ution
c ers
A P
Ġêµ¬ ìĦ±
Ġoff ic
ë¡ľ ëĤĺ
ag er
ìŀ¥ ìĿ´
p ing
le v
Ġmonit oring
Ġintern al
Ġjour nal
Ġn ames
Ġsm art
ĠCon f
Ġoff ice
Ġd ivid
ĠC he
Ġhouse hold
ify ing
Ġìī ½
ĠGerm any
b ed
Ġide al
Ġpract ical
ë¦½ ëĭĪëĭ¤
Ġë¨ ¸
ĠìĿ¼ ë°ĺ
Ġpoll ution
S p
Ġì¡ ´
ra b
íļĮ ìĿĺ
ë ĺĲ
Ġg ave
Ġcontin ues
ĠD on
Ġìĸ´ëĸ »ê²Į
ut ing
Ġlead s
Ġinit ial
Ġimpact s
Ġê· Ģ
Ġgra ph
em y
ed ia
Ġevent ually
Ġsur gery
Ġper haps
Ġdig est
Ġê±´ ê°ķ
Ġsp eech
ĠUn ion
ur ation
Ġre new
Ġmot iv
Ġch urch
us es
ĠS y
ĠPl an
S h
ë´ ī
Ġappear s
gy pt
ĠI ts
Ġout comes
ĠU N
Ġtreat ments
Ġs ac
Ġf igure
ĠìķĬ ê³ł
Ġback ground
k en
h ors
Ġlearn ed
ë¦¬ ìĬ¤
Ġg ender
Ġs av
Ġt ips
ĠíĤ ¤
ĠíĻĺ ê²½
ra w
ìĨ Ĳ
ĠìŀĲ ëıĻ
con t
ward s
im ent
Ġsl ight
Ġconce pts
Ġ200 0
Ġê²½ íĹĺ
re p
Ġel imin
Ġown ers
ê¸ ´
Ġfail ure
Ġìŀ ¡
A r
Ġp ip
ĠR em
H ere
z ing
Ġv ill
as ion
or ial
Ġê·¸ ê²ĥ
íħ Ĳ
ĠB r
Ġmo ist
ĠíĻ į
3 8
Ġpass ed
Ġsitu ations
t ical
ĠF ood
Ġsec ure
Ġsepar ate
Ġpop ulations
Ġlo ad
ric ulum
Ġmaintain ing
g ment
ï ¼
Ġê¸° ì¤Ģ
Ġëĭ¹ ìĭł
íĺ ¼
ĠìŀĪ ìĹĪ
ĠìĹĨ ëĭ¤
ĠëĬ ĺ
Ġexperim ent
Ġinflu en
ĠëĮĢ íĨµëł¹
9 9
âĢĻ ,
Ġfa ith
ĠH ouse
C on
ol id
Ġp ul
ru ary
er ate
Ġsex ual
Ġbr an
Ġìµľ ê·¼
Ġcar ried
Ġget s
ĠDe cember
Ġelect rical
pp ed
Ġveget ables
Ġìłģ ìļ©
Ġ19 5
Ġt rib
Ġp ric
ograph ic
Ġbre ast
Ġc ognitive
ĠD ata
Ġm ale
ĠëĲľ ëĭ¤
I I
m al
Ġcre ation
Ġcomprehens ive
Ġhapp ens
ëĥ Ĳ
Ġsh ared
Ġengine ering
Ġdes p
ì¹ĺ ë¥¼
C O
ĠSp ec
Ġintrodu ced
ĠE v
Ġdang erous
Ġadvant age
ĠìĿĺ ë¯¸
Ġv es
Ġaccur ate
Ġlink ed
ĠDevelop ment
A D
Ġperform ed
Ġregard ing
erv ed
Ġout put
oc al
im ens
) ;
or ith
ĠO nce
Ġb urn
Ġsol id
iet ies
Ġd rop
Ġfl ood
Ġìĸ´ ëł¤
0 5
i as
ĠP al
ëĦ¤ ìļĶ
A ccording
Ġhe aring
ing ly
Ġno vel
Ġfind ing
Ġintellig ence
Ġam ounts
am s
Ġass um
ĠSoc ial
rap y
Ġfil m
ud d
ĠG reen
at ically
Ġíļ¨ ê³¼
ìĥ Ī
Ġëĵ± ìĿĺ
Ġany one
Ġfam ous
ĠCount y
e an
ë¦¬ ìķĦ
ĠAssoci ation
ìħ ¨
ë³ ¼
Ġin put
olog ist
Ġr iver
Ġf ig
ĠN ovember
Ġtr uth
ĠT est
i eces
ëĤĺ ëĬĶ
cl us
Ġd ental
Ġ >
ĠSoc iety
Ġë© ´
ĠD ec
u it
Ġbeaut iful
ord er
Ġact ual
Ġpresent ed
Ġinf rastructure
Ġis ol
ê· ł
ë ĳ
ĠìŀĪ ìĹĪëĭ¤
ĠíĪ¬ ìŀĲ
ĠFr ance
Ġth ick
Ġmot or
Ġcons ervation
H E
Ġsect or
Ġë ī´
ĠE gypt
Ġrecord s
go ing
Ġimpro ving
row s
ì£¼ ëĬĶ
Ġrev olution
Ġinvest ment
R E
ìĥ µ
Ġj oint
Ġcoun ter
Ġì¹ĺ ë£Į
ĠìŀĪ ê³ł
ë¦¬ ìĹĲ
Ġapprox imately
Ġm ist
Ġì°¾ ìķĦ
Ġ ign
Ġop in
Ġtra d
ì º
Ġ esc
ĠìķĬ ìĿĢ
ĠGen eral
Ġìµľ ëĮĢ
r um
Ġad ult
ĠProg ram
Ġcred it
viron ments
Ġc ert
ĠS T
Ġviol ence
3 7
ot hes
ac ing
Ġ200 7
r ant
Ġsy nt
Ġmain tenance
ĠChild ren
ro id
Ġpl ays
Ġpotential ly
ĠW estern
O ur
ê²ł ëĭ¤
Ġun ivers
ë¥´ ë©´
Ġt ail
Ġex cept
ĠOr gan
Ġë¬´ ìĹĩ
ëį ¸
Ġprofession als
Ġcamp aign
Ġsp ot
ĠA ng
Ġs ample
Ġpres c
Ġnot es
bo ard
ĠC ur
í Ľ
ĠJew ish
esp ite
Ġë ĳ
Ġbo ost
Ġfram ew
Ġident ity
Ġkeep ing
re te
ëıĦ ë¥¼
at ural
Ġm ag
or ge
ĠíĬ¹ íŀĪ
ì§Ģ ê³ł
Ġdiagn osis
Ġindepend ent
Ġh om
Ġcare er
Ġdisc over
Ġnot ice
ĠM at
¶ ģ
Ġconsequ ences
ĠR el
Ġìĭľ ìĬ¤íħľ
ìĿ¸ ìĿ´
Ġa id
íģ ´
Ġse ven
ìķ Ļ
ain t
3 4
on ic
Ġm it
ĠìĽ Ķ
i j
k ing
Ġf ine
est yle
ĠTh us
ë² ¤
Ġor al
Ġchemical s
Ġliter ature
Ġí ľ´
ĠíķĻ ìĥĿ
? âĢĿ
ĠIntern et
Ġexcell ent
ĠêµŃ ë¯¼
Ġleg isl
ìĭľ ëĬĶ
ĠâĢ ¦
Ġcont rast
ĠCol le
B S
ens es
Ġme at
Ġìĺ¨ ëĿ¼ìĿ¸
Ġmanufact uring
Ġcirc um
ĠJapan ese
Ġê·¸ëŁ¬ ëĤĺ
Ġexp osed
ĠCO VID
Ġp al
Ġt rou
Ġess ay
Ġì¶Ķ ì²ľ
â Ĺ
3 9
Ġrep rodu
Ġëį° ìĿ´íĦ°
Ġconflic t
íķĺ ì§Ģë§Į
Ġmess age
ĠA ir
Ġmus cles
Ġo cean
ĠL ord
Ġìĸ »
Ġinflamm ation
Ġê° Ī
Ġemploy ees
M any
R es
Ġë§ ī
ent ed
m at
Ġs and
Ġì²ĺ ìĿĮ
ĠA D
Ġf ost
Ġcal c
Ġf aster
Ġse ed
Ġìĥģ íĥľ
Ġves sel
Ġê´Ģ ìĭ¬
Ġl ung
Ġrele ased
Ġrefer red
ë¡ ¯
Ġregular ly
ë¯ Ģë¡ľ
C C
Ġinstit utions
ĠP ublic
Ġfocus ed
Ġegg s
Ġoper ation
ok ing
Ġfarm ers
3 1
Ġun f
Ġintern et
Ġì¹ ¨
íķ ĳ
ìĬ¤ ë¥¼
* *
Ġbott om
Ġexact ly
Ġveh icle
Ġaffect s
m ark
Ġfac ilit
Ġph ase
ortun ately
Ġì¢ĭ ìķĦ
ëĿ¼ ëıĦ
ĠëĨĴ ìĿĢ
Ġcontin uous
Ġmention ed
Ġincreasing ly
Ġclear ly
Ġìĭ¤ ìłľ
ĠAd ditionally
Ġestim ated
Ġstate ment
Ġmin or
Ġdef ic
Ġen vironments
Ġinc l
Ġlandsc ape
Ġal t
op hy
Ġthe r
ter ies
o oth
rie ved
um in
olog ists
ĠPh il
cl ing
Ġref ers
b all
Ġf ol
ì° ¬
Ġrec overy
Ġfeel ings
c ular
Ġprep ared
Ġc overed
Ġredu ction
ul ating
Ġapp e
Ġhelp ed
ĠM ark
Ġnucle ar
it c
ĠF ound
ìĽĲ ìĿ´
Ġfre edom
Ġter rit
ĠìĪĺ ëıĦ
ë¶Ģ ë¶Ħ
Ġtechn ical
íķĺ ìĦ¸ìļĶ
ess or
ke y
ĠìĹĨ ìĿ´
Ġvol ume
Ġinterp ret
Ġt um
Ġm aster
Ġexp ression
Ġclass es
n es
ĠLear ning
ĠìĤ¬ ìĿ´íĬ¸
T S
5 00
Ġpart y
ë Ĥ¬
Ġcl ick
Ġw el
Ġemerg ency
Ġë°© ë¬¸
Ġíı Ń
Ġalg orith
Ġm el
ĠìŀĲìĭł ìĿĺ
Ġwe alth
Ġpurp oses
Ġìĺģ íĸ¥
Ġcolle ge
Ġëª ĩ
Ġì¸ ¡
Ġìĺģ íĻĶ
nd rome
M S
ì´ Ŀ
Ġinterest ed
ĠRe v
Ġl ov
ĠëĲĺ ëĬĶ
Ġë¬¸ íĻĶ
el ine
Ġdat ab
ëĵľ ëĬĶ
Ġmost ly
Ġha z
ĠO ff
Ġgr ass
Ġthough ts
rou p
b i
Ġëª ¸
ë· °
Ġproced ure
Ġadv ice
Ġë³´ ìĹ¬
êµ ´
Ġwe ar
ant ic
Ġeng age
Ġbel ong
Ġgen e
ëŀ įëĭĪëĭ¤
Ġê¸° ë¡Ŀ
ë§Ī íĬ¸
Ġconcer n
Ġê¸° ëĮĢ
Ġsc he
ìŀĳ ê¶Į
Ġë§¤ ìļ°
Ġnav ig
he ther
Ġbat tery
ĠGo ogle
Ġdeg rees
Ġìŀ ł
ìĿ´ ìĸ´
ĠFeb ruary
Ġì Ķ
om as
Ġbenef icial
ul f
at hy
Ġall erg
ĠR ef
Ġcompon ent
Ġwant ed
Ġlet ter
ĠH el
Ġfru its
id a
ĠìĨĮ ê°ľ
Ġf ib
p art
Ġref erence
Ġre in
ìĪ Ļ
act ive
Ġì½ ĺ
Ġì¦Ŀ ê°Ģ
Ġvict im
Ġdou b
re st
ĠìĿ´ ë¦Ħ
ĠH uman
Ġspec ifically
al d
Ġatt acks
ap ers
ìĽĲ ìĿĦ
Ġvacc ine
Ġcop y
íķ Ħ
Ġmed ications
s on
Ġlangu ages
igen ous
ak ers
0 4
ĠìĿ´ íķ´
il ing
Ġdestro y
ìĤ¬ íļĮ
Ġsu itable
Ġí ĭ
ĠìķĦëĭ Į
t ion
ì¶ ©
Ġflow ers
An other
Ġremov ed
ic ians
Ġbl og
ĠT V
Ġmet ab
ĠìĿ´ ë¥¼
Ġaut hors
Ġreact ion
6 5
Ġê³ ¨
Ġdel iver
Ġê±° ëŀĺ
ĠìľĦ ì¹ĺ
Ġing red
ìĭľ ìĹĲ
ĠW hy
Ġrout ine
Ġcl os
Ġgood s
Ġhelp ful
r ich
Ġrad iation
Ġoper ating
ĠìĹ Ħ
Ġple ase
Ġsurround ing
Ġm ath
Ġê³Ħ ìĨį
" ,
Ġp ieces
Ġdetail ed
r ates
Ġun c
ì¸ ¡
Ġprim arily
ĠP hys
ĠSu pp
Ġmeet ing
k in
Ġatt rib
ĠëĲ ©ëĭĪëĭ¤
í ĮĢ
Ġann ual
ĠìĦ¤ ì¹ĺ
Ġext ensive
lic k
Ġy ellow
Ġë°ľ íĳľ
Ġhe ight
Ġprevious ly
ĠìĿ´ ëŁ¬íķľ
Ġatmosp here
C l
Ġ3 5
ìĭľ íĤ¤
ĠìŀĪëĭ¤ ëĬĶ
Ġdrink ing
ĠìķĮ ìķĦ
ĠF urther
ro g
p en
Ġrespons ibility
ĠCoun cil
ì ģ
Ġun its
7 5
Ġex ternal
Ġdiscuss ion
Ġì² ł
íĺ ľ
Ġfund amental
i i
ĠM or
ĠColle ge
7 8
0 8
Ġra ce
ëģ ¼
Ġu pper
p ed
Ġmov ed
ĠGree k
Ġemot ions
Ġjob s
u ing
Į ĵ
N ow
Ġsign al
ìĿ´ ìĹĪëĭ¤
ĠM ary
Ġëĸ ł
Ġco ord
Ġv ast
ĠM ich
Ġdr iving
Ġharm ful
Ġcon ver
ĠìĹ¬ ìĦ±
Ġstra ight
d own
Ġb oy
ìĽĲ ìĿĢ
Ġliqu id
ĠìłĦ ì²´
ĠPro ject
ress ed
Ġl ived
ã Ĥ
ĠE very
ĠD i
Ġs em
ì¼ ľ
ĠWe b
Ġìĭł ì²Ń
Ġfrequ ency
Ġmat hemat
E L
ĠAs ia
c ast
ë³´ íĹĺ
le g
ëĪ Ħ
íĥ Ī
3 2
r ans
P h
Ġmain ly
19 9
t es
Ġbir d
e y
iver se
er ia
ĩ ¼
et ers
um n
oy al
Ġnot ed
o ch
0 9
Ġconf irm
Ġturn ed
0 2
ĠìŀĪ ìľ¼
Ġcol ors
ì į¨
ĠF ore
Ġdis s
ĠëįĶ ìļ±
Ġsat is
Ġbar ri
Ġform ation
Ġdep ends
t a
Ġd ie
Ġar m
ĠT ur
ë§Ī ìĤ¬ì§Ģ
ì ī
Ġsp end
Ġhe ard
ĠCong ress
Ġí Ħ
orm al
Ġë² Į
Ġre b
Ġdeterm ined
ab ric
Ġl ic
Ġd ram
ĠC le
Ġtox ic
N S
Ġperspect ive
ë¬¸ íĻĶ
Ġpre f
ĠSp anish
Ġindic ate
íĸĪ ëįĺ
Ġì£¼ ìļĶ
Ġs ong
Ġperiod s
Ġhigh light
Ġsens itive
ag s
Ġappro aches
Ġdescrib e
Ġíıī ê°Ģ
Ġman ner
ĠB en
ĠStud ents
Ġsh ar
ĠS ee
ĠëĬĲ ëĤ
Ġveh icles
le ase
Ġnet works
ipp ed
it age
Ġlif estyle
Ġbr ight
ãħĭ ãħĭ
ang es
Ġl iver
Ġê²° ìłķ
U S
ĠEn ergy
ĠW ind
Ġìº Ĳ
ë² ½
ĠìĿ ĳ
Ġp un
Al though
Ġhosp ital
Ġ200 6
ëĲĺ ì§Ģ
Ġìľł ì§Ģ
ìŀ ¡
Ġchar ge
Ġg ar
ìĿ¸ ìĿĺ
Ġspirit ual
ê³ ¡
Ġlo oks
Ġpartic les
id ents
Ġc ere
ĠìĤ° ìĹħ
ìĹĨ ìĿ´
Ġrad io
ĠM useum
Ġsound s
íļĮ ë¥¼
Ġme ant
Ġcard i
ib ilities
ĠH y
Ġro ots
Ġë§Ī ëł¨
Ġhy per
P l
Ġyou th
ot ic
0 6
oth ing
ren ce
ent h
y a
Ġìłķ ì±ħ
ant ed
ĠB el
Ġare n
g ra
Ġn erv
Ġv ent
ĠS un
ĠìĤ ¶
Ġplay ing
te e
R O
Ġint ended
Ġê·¸ ëĬĶ
hip s
Ġtop ics
ĠUs ing
h tt
Ġcris is
l ig
Ġs ort
Ġvo ice
Ġb an
íķĺ ëł¤
Ġadd ing
ĠM et
D F
Ġê³¼ ìłķ
ĠìĿ¼ ë¶Ģ
ĠO b
Ġval id
ĠM icro
Ġìĺ¤ ëĬĺ
Ġke pt
Ġagricult ural
ĠTechn ology
Ġdivers ity
ĠìĬ¤ íĥĢ
e per
Ġste el
ff ee
Ġì§Ģ ìĨį
Ġê¸ ī
ĠëıĮ ìķĦ
Ġì ħ
Ġr ul
Ġë°Ľ ìķĦ
ë¨ ¼
Ġcomb ined
Ġgen es
Ġ20 22
Ġp ark
f ree
Ġbat tle
Ġchalleng ing
ind ing
Ġcon v
Ġvol unt
ĠDav id
Ġmob ile
Ġcreat ive
ce ler
Ġdep th
Ġsy n
Ġsupport ed
Ġr ound
Ġì ¼
Ġcur riculum
ìŀĲ ë£Į
4 4
ĠíķĦìļĶ íķľ
Ġphen omen
Ġsay ing
Ġch ain
ĠRep ublic
act ers
Ġh our
ri age
Ġreg ulations
Ġìĺ¬ íķ´
Ġproced ures
Ġbeg ins
ĠJ ames
Ġcomple ted
Ġcho ices
Ġsp ent
ìĬ¤ íģ¬
Ġart icles
p ass
Ġp p
Ġro ll
f low
Ġw et
ĠM al
ing er
Ġcl im
Ġcent uries
ĠS af
Ġsp orts
Ġpregn ancy
i at
Ġê¸Ī ì§Ģ
0 3
ĠV ol
a ult
ĠìĹĨ ìĬµëĭĪëĭ¤
ĠS er
ar ant
íļ ¨
asc ular
Ġpar am
d ed
Ġv ot
Ġless on
Ġfac ilities
Ġflu id
Ġlat est
ĠK ore
ĠGovern ment
ear s
w ood
ìĿ¸ ëį°
Ġê¸° ë³¸
Ġwond er
Ġp u
Ġserv ed
Ġal ign
T hat
Ġì£ ½
Ġ200 5
Ġg od
Ġph one
Ġsim pl
ê²½ ìłľ
is hes
ë£ ¹
ìĻ Ħ
¤ íĶĦ
Ġê°Ģ ì¡±
ĠìĥĿ ìĤ°
ĠMan agement
ìĬ¤ íĥĢ
B e
ìĽĲ ìĿĺ
ac he
Ġis land
ë³´ ê¸°
Ġgener ate
ĠS ub
Ġf oss
ëı Į
Ġgra de
ê° Ļ
Ġê°Ļ ìĿ´
ĠM ake
r as
ë ľ
ê´Ģ ë¦¬
Ġfert il
Ġdesp ite
Ġprec ise
ĠëĲĺ ìĸ´
ru st
ĠíķĺëĤĺ ëĭĺ
n el
ak s
ĠRet rieved
Ġm ort
ĠCl ass
Ġsu fficient
ë¡ Ń
al le
Ġmove ments
0 7
Ġfamil iar
oin ted
ĠF ran
Ġindust ries
Ġpre t
i xt
Ġh it
Ġk illed
Ġco al
Ġk ill
Ġs amples
ì§ ľ
Ġsal t
ĠëĶ° ë¥´ë©´
Ġrelig ion
Ġl ose
e k
ìĽ ĢìĿ´
D o
ĠD em
Ġappear ance
Ġoff ering
yp es
it ness
Ġprot ected
os ite
Ġmed ication
Ġrecogn ize
Ġê³µ ê°ľ
ëı ¼
Ġapp rec
O T
c ol
ĠL a
Ġinterest s
Ġë £
Ġprote ins
Ġob vious
Ġn arr
Ġguid elines
Ġì¢ Ģ
ĠT ex
ĠíĴ į
íķ´ ì£¼
Ġê ½
ëĨ į
Ġplay ed
Ġoff ered
Ġres ist
Ġíķ´ ê²°
Ġdefin ition
Ġdi am
and er
z a
in ate
ul s
ĠëĶĶ ìŀĲìĿ¸
Ġê°Ģì§Ģ ê³ł
Ġ ãĢ
Ġrepres ents
ì° ¸
Ġn or
Ġconsist ent
Ġcollect ed
ĠServ ice
ëĶ ©
Ġë Ń
ĠIs l
Ġfact s
ĠM ount
Ġc ast
Ġdec ided
ĠP ort
ì½ ľ
Ġë°Ķ ëŀįëĭĪëĭ¤
ĠE lect
Ġh op
ĠìĪ Ļ
Ġp ump
M ore
n ic
Ġê· ¹
R I
ĠTh rough
Ġst orm
Ġtrans ition
ĠT reat
Ġgovern ments
4 8
Ġ3 1
Ġcl oud
Ġless ons
Ġ5 00
Ġcont em
Ġmor ning
stit ution
Ġab use
ĠëĮĢ íķĻ
Ġadv oc
ĠI P
Ġint ake
ough ly
ro ad
Ġper man
Ġc oin
M ost
Ġmaxim um
Ġìŀĳ ìĹħ
v is
Ġshow ing
T e
ëĶĶ ìĸ´
gen cy
Ġl ik
Ġchar acters
Ġins ights
ĠCour t
Ġcrop s
ĠO ut
íĺ ģ
Ġpain t
Ġì¦ ī
Ġdecre ase
âĢĻ .
N o
Ġcontroll ed
Ġkind s
Ġrecord ed
Ġsubject s
ox ide
ĠB as
ìĭľ ìŀ¥
Ġworld wide
Ġth in
ĠìķĦ ëŀĺ
Ġp ush
Ġsqu are
Ġmonit or
ic ian
Ġconc lud
Ġprofess or
Ġ Ã
Ġprep are
Ġd ro
Ġtou ch
Ġinj uries
Ġpric es
ĠD ise
Ġb ow
Ġhab its
ĠWh ite
ì§Ģ ìĹŃ
ro ke
Ġnat urally
íĬ¸ ë¥¼
Ġsec ret
ĠìĿ ½
U s
ëł Į
ri a
os en
ist an
ĠCent ral
Ġele v
Ġauthor ity
Ġtra ffic
Ġì¶Ķ ì§Ħ
ĩ ´
ĠD ef
Ġon to
ĠìĨĮ ë¹Ħ
all ed
ĠInst ead
ĠD irect
oss ible
ak er
Ġìłľ ìŀĳ
Ġm er
ëł¥ ìĿ´
Ġext ract
Ġen able
in ent
ĠIs land
Ġmot ion
op er
Ġê³µ ê°Ħ
Ġt aught
Ġsk ill
Ġj u
ĠìĦ± ê³µ
Ġsh ip
ol ute
ë¥´ ëĬĶ
ëŀ «
Ġre ached
Ġn it
ĠìĦ± ìŀ¥
Ġë² Ķ
ĠT oday
Ġsubst ant
Ġfound ation
g al
Ġê ¿
um ps
m p
Ġëĵ± ìĿ´
Ġbud get
Ġart ificial
Ġwh om
Ġtra in
Ġexp ensive
ĠP aul
ìłĲ ìĿĦ
ĠN AS
Ġcor resp
Ġhar vest
F rom
w ell
Ġhand le
Ġë¶Ħ ìķ¼
vent ional
Ġclose ly
ìĽĢ ìĿĦ
Ġres il
in ations
g l
Ġprop osed
ĠEng ine
Ġëı Ī
Ġcreat es
Ġë³´ íĺ¸
b ing
er als
uild ing
Ġê¸° ê°Ħ
D C
Ġagricult ure
ìĿ¸ ì§Ģ
Ġprevent ion
Ġë¨ ¼
ĠëĤ ®
Ã ¡
is her
Ġrapid ly
Ġlead er
in n
le ments
Ġd oll
Ġë Ł
íķĺ ê±°ëĤĺ
Ġslight ly
' ll
ag o
om pl
Ġlarge ly
íħĲ ì¸ł
Ġad equ
ĠìĿ¸íĦ° ëĦ·
omet imes
f aces
Ġrel ax
Ġf elt
ic ed
Ġp ages
Ġexpl ains
Ġform at
ĠìķĬ ìĬµëĭĪëĭ¤
ĠM ac
Ġst ages
ĠAc ad
ìķ Ķ
Ġch ann
ê³ ¨
im al
ĠC ath
íķĺ ìĺĢ
ĠSp ace
Ġframew ork
íı¬ ì¸ł
5 5
Ġk n
Ġpr int
ĠëĤ ľ
h t
Ġw ire
in ating
ìĹ° êµ¬
Ġfor t
Ġvirt ual
Ġë°ľ ìłĦ
Ġn ations
ã ĥ
Ġdou ble
ar row
ind er
ê¸° ë¡ľ
Ġcult iv
i ated
Ġex change
Ġne ut
Ġinstru ment
Ġd ial
r ations
Ġìłķ ë§Ĳ
C T
Ġimm un
Ġconcent ration
o o
ĠL ife
as tern
ì¹ĺ ëĬĶ
N ew
Ġsupport ing
Ġgrow n
Ġ3 00
Ġleaders hip
Ġbehavi our
Ġinform ed
ĠíĻ Ī
ul in
Ġst one
Ġjust ice
ìļ´ ëį°
ĠìļĶ êµ¬
ì ¤
ĠíĬ¹ ë³Ħ
Ġì¤ĳ ìĭ¬
Ġst em
Ġwall s
Ġg um
oun ced
ëĵľ ë¥¼
augh ter
Ġmed ium
Ġê°ĢëĬ¥ íķľ
Ġtyp ical
Ġcustom ers
Ġhabit at
8 8
Ġcertain ly
ĠìĤ¬ íķŃ
E n
Ġr ural
Ġcy ber
Ġcut ting
Ġd ent
Ġcon clusion
ĠGe orge
c hers
ol ars
Ġfil es
Ġext ent
Ġresid ents
Ġì½Ķ ë¡ľëĤĺ
Ġsuff ering
% )
ĠB oth
ĠD ist
Ġs en
ĠMed ical
Ġtest ed
Ġscen ar
ĠìĥĿ íĻľ
ĠH IV
Ġst ock
Ġen ab
Ġëĭ µ
ĠC are
ber g
ĠP ower
Ġfor ced
Ġra ised
Ġbi ological
ð Ł
ce l
rol og
Ġcons cious
ars h
Ġf asc
Ġsignific ance
Ġs end
ĠU p
ail s
Ġrem ote
Ġaff ord
un k
íĦ ´
Ġinter view
íĽ Ī
Ġcircum st
H O
Ġgl ob
Ġother wise
ĠMex ico
r ors
Ġst ret
Ġra ise
Ġexist ence
ìĿ¸ ìĿĦ
Ġb rief
Ġfl at
ash ion
Ġvis ible
Ġrequ est
Ġf abric
I nd
A I
Ġinst ruction
ìĸ ¼
ìĸ´ ëĤĺ
Ġinnov ation
ĠA rab
Ġmeas ured
Ġsubst ance
ìĿ´ ë²Ī
f all
= =
ĠìĪĺ ì¤Ģ
Ġtra um
Ġset s
ĠëĤĺ ëĬĶ
ëıĦ ë¡ľ
Ġ4 5
it z
Ġë¬´ ëĭ¨
Ġg ather
Ġst ation
ĠìķĬ ìķĺ
Ġfeed back
ìĦľ ìļ¸
Ġsou thern
Ġcons ists
al ysis
ĠMed icine
C S
ìłľ ë¥¼
h i
if ies
Ġn orthern
Ġf iber
as p
ĠS al
Ġw aters
Ġconsum ers
ìĺ¤ ëĬĶ
ë¬¼ ìĿĦ
ac ific
ĠI T
Ġb ill
Ġrecogn ized
ĠD esign
ro c
Ġreg ul
A b
w ith
Ġp ig
is p
ĠK now
om ach
Ġ Î
ri end
Ġbehavi ors
Ġn urs
Ġf irm
pp ing
Ġfin ally
st ood
ad o
Ġìķ Ķ
ê¸° ê´Ģ
Ġfund ing
Ġco ffee
ìĬ ¬
ĠìŀĲ ìĦ¸
ver ty
íĦ ¸
Ġrec ip
ag ers
Ġê°ľ ìĦł
Ġwild life
p at
Ġle aving
ĠB ook
ĠCont rol
Ġë¬¼ ë¡ł
C an
Ġs an
Ġpo verty
ut ive
Ġs in
Ġsett ings
Ġm ere
Ġcor por
Ġsh ift
os a
u ps
Ġìŀĳ ìĦ±
Ġì¤ĳìļĶ íķľ
as ure
ìĿ¸ ê°Ģ
ĠìĿ´ ìłľ
Ġp and
ic ks
Ġer a
Ġmach ines
Ġo d
ĠH ol
m aking
ific ations
ĠìĽ ¹
Ġcour ses
i very
ìĬ ¨
Ġì±ħ ìŀĦ
Ġconf idence
ĠF re
ĠR ober
ĠêµŃ ìłľ
Ġs now
in ant
ĠSt r
ĠëĤ´ ê°Ģ
Ġset tle
in du
Ġrel iable
idd en
l ong
ĠO ld
ìĿĮ ìĿĦ
ĠEx pl
íĿ ¥
Ġìŀĳ íĴĪ
I P
Ġsur pris
wh ich
Ġswe et
® ¤
z y
Ġk il
Ġì» ¨
Ġne uro
Ġmill ions
ĠTex as
Ġcap able
ĠPro v
Ġth or
ĠJew s
ĠB C
ĠìĻ ľ
ĠëĨ ĵ
nd om
ĳ ¸
Ġbreat hing
Ġminim um
ì¹ Ļ
Ġcommun icate
S c
ĠíĴ Ī
ë³´ ê³ł
Ġsh aring
iot ics
Ġexplain ed
Ġunder lying
ĠìĹ° ê²°
ëł¸ ëĭ¤
íĺ Ģ
ĠíļĮ ìĽĲ
ag ue
Ġpart ies
ĠìŀĪëĭ¤ ê³ł
ĠFound ation
ìĦľ ë¹ĦìĬ¤
ic ted
Ġê²½ ê¸°
ëıĦ ê°Ģ
Ġinteract ions
Ġí ĮĢ
Ġsupp lement
ĠNew s
ìĤ ¼
Ġaud ience
Ġíĺ ¼
Ġfollow s
í ľ´
Ġaccess ible
it ors
ĠT em
ìľĦ ë¥¼
Ġredu ces
ĠB et
ĠSt and
Ġbro ther
ìłĦ íŀĪ
Ġë ¿Ĳ
Ġsupp orts
ĠE U
Ġ *
Ġinteg r
Ġa qu
ĠBrit ain
Ġst ored
Ġë³Ģ íĻĶ
l a
ĠD isc
Ġb le
Ġread ers
ĠMus lim
ĠSec ond
Ġsp l
Ġinter vention
st ream
Ġëĵ± ë¡Ŀ
U nder
Ġgir ls
Ġdivid ed
Ġguid ance
as er
t age
Ġsurv ival
ì§Ģ ìĽĲ
ëĵ ¯
ĠAn other
ĠìŀĲ ìĹ°
Ġconn ections
Ġê°Ĳ ìĤ¬
Ġpre m
ĠíĶ¼ íķ´
Ġag es
Ġl inks
Ġìķ ħ
Ġexpl an
Ġsub sequ
ĠRuss ia
Ġsm ooth
I ON
ex p
ĠJ er
ëĮĢ ì¶ľ
N D
Ġmy th
Ġacc ompl
ĠI r
Ġìłķë³´ ë¥¼
Ġcult ures
w in
Ä ģ
Ġsy ndrome
D e
Ġass istance
Ġp il
ìĬ¤ ëĬĶ
Ġíĥ Ħ
Ġstrugg le
Ġìĸ´ ë¦°
Ģë¡ľ ë²Į
ĠB ible
Ġrest rict
ĠR ich
Ġac celer
Ġprinc iple
angu age
ìĸ´ ìĦľ
ĠM art
ĠEx p
Ġoccur red
ĠNAS A
Ġpro port
ĠL atin
] .
Ġcollabor ation
Ġadvant ages
Ġlet ters
ìĿ´ ìĹĲ
ot he
Ġ200 4
ìĪĺ ë¥¼
Ġcom ment
Ġwor s
os c
y th
Ġst ick
Ġsol ve
Ġsuff er
Ġsp aces
D uring
av a
Ġra w
Ġë ĥ
Ġhor se
ar i
ere nt
Ġì¡° ê¸Ī
ĠW omen
Ġstar ts
Ġprodu cing
Ġinf ected
ri an
Ġhapp ened
Ġcare fully
vent ions
D r
Ġla un
ì¦ ĺ
ĠìĹŃ íķł
el lect
Ġtransport ation
ĠìĿ´ìķ¼ ê¸°
ĠComm ission
r id
Ġd u
ìķ Į
Ġno ise
Ġtrans p
Ġcar s
Ġp aid
9 5
Ġseek ing
Ġstud ied
Ġult imately
Ġremain ed
íĥ ķ
Ġdoc uments
Ġelect ronic
Ġëª °
4 6
ic ious
Ġdisc rim
es ity
Ġfl oor
ë¥´ ê²Į
Ġtrans act
Ġin ject
ĠH en
ìĤ° ìĹħ
Ġto ler
ĠB er
Ġman aging
Ġdiscuss ed
Ġexerc ises
Ġconcer ned
ter ing
Ġresp ir
Ġview s
Ġd ream
Ġê²Ģ ìĥī
Ġon going
Ġsuggest ed
Ġf le
d ent
ëĮĢ ë¥¼
ĠP ract
ĠRuss ian
Ġf ill
ĠC ivil
ĠW ell
um ber
c a
Ġasse mb
ì§Ģ ê°Ģ
Ġhundred s
Ġprot ocol
b and
Ġtalk ing
Ġp ray
Ġachie ved
am ing
ë§ Īëĭ¤
ĠEx per
Ġdeath s
us iness
ĠF am
ĠìŀĲ ë£Į
Ġcur ren
oles ter
ĠE conom
Ġinc hes
ì ¤Ħ
ĠìĿ´ ëłĩê²Į
Ġê¸° ì¡´
Ġ199 0
ĠS en
ĠL ike
Ġc ats
Ġd ut
Ġmoist ure
d den
4 7
Ġdom estic
ĠG et
last name
Ġra ndom
as ive
ĠCl in
Ġinteract ion
Ġprevent ing
y e
Ġclean ing
Ġimplement ation
ĠìĿ´ ê²ĥ
Ġacc ounts
w hat
Ġded icated
Ġsat ell
Ġs ick
Ġd rain
Ġport ion
D P
l ook
ĠD el
Ġshe l
Ġhapp y
ìľĦìĽĲ íļĮ
l ers
ĠíķĻ êµĲ
ĠC am
Ġselect ed
Ġimm ig
Ġgreat est
ar ter
ĠM il
os al
O ver
app ing
Ġrespons es
ĠP ost
Ġd ust
Ġgener ated
Ġa er
Ġdis app
Ġspe aking
Ġb and
Ġtru ly
Ġr ub
Ġdisc overy
Ġs ed
Ġtrans mission
ĠìķĦ ë¬´
íı Ń
ĠQ ue
ĠVir gin
Ġt ro
Ġmass ive
Ġde eper
ĠìĺĪ ìķ½
Ġpol ice
ĠB ay
du le
Ġsecond ary
Ġb ones
ĠA P
ëıĦ ìĿĺ
st ate
Ġlab el
ĠStud ies
m ic
or al
Ġt al
ch ain
ìĪĺ ê°Ģ
Ġposs ess
Ġobtain ed
Ġph r
ĠEm p
Ġpres ident
Ġle af
Ġmechan isms
v ity
Ġw est
ĠìĿ´ ë£¨
l ar
ĠAt l
olester ol
Ġplay ers
ĠëĮĢ ë¶Ģë¶Ħ
Ġclaim s
B l
ĠíĿ ¬
y les
Ġë¯ ¿
Ġt un
ê·¸ ëŁ¬
Ġse lection
ĠP sych
Ġcomput ers
Ġpurch ase
t hen
Ġì¶ľ ìŀ¥
Ġlook ed
Ġëħ¸ ëł¥
ĠìĻ Ģ
Ġintrodu ction
ĠIn f
Ġsign als
Ġpromot ing
G o
ĠM iss
he nt
ìĿĺ ë¥¼
m l
Ġaccur acy
Ġë¯¸ ëŀĺ
Ġst omach
Ġcontain ing
i ability
Ġë°© ìĭĿ
ĠL ou
ĠKe ep
ĠL and
ate ver
Ġê¸° ë°ĺ
Ġimprove ment
Ġsu dden
sp ect
. âĢĻ
Ġap art
Ġimmedi ate
Ġdec line
cer tain
ìĻ Ķ
íĹ Ī
ĠìĿ¸ ê°Ħ
ìĬ¤ íĦ°
Ġb rown
Ġìĥ ī
ec k
Ġact s
Ġk m
ra ction
Ġ200 3
ìĿ´ ê°Ģ
ëį ķ
ĠìĹŃ ìĭľ
Ġgra nd
ĠSe a
m m
ur d
al se
n y
p re
Ġam b
Ġwe ap
ìĽ ĥ
Ġins urance
Ġdatab ase
Ġíķ µ
ĠM ain
Ġg ut
Ġs ides
Ġst ars
Ġre tain
iz er
hy l
Ġper ce
ĠS uch
Ġast ron
Ġcou ple
Ġrecogn ition
ìĥģ ìĿ´
Ġprogram ming
Ġê´Ģ íķľ
Ġvulner able
Ġmar ine
ĠD iff
ĠìĬ ¬
Ġrenew able
Ġê°ķ íĻĶ
st ruct
Ġv s
ëıĻ ìĿĦ
IN G
7 7
ĠB udd
Ġë¹Ħ êµĲ
ĠIn formation
Ġeng aging
Ġcand id
ic it
Ġres ol
ĠR ights
Ġform al
Ġus age
Ġê°Ģ ìļ´ëį°
ra cy
Ġac ids
4 9
6 6
a el
Ġinsect s
ĠìŀĪëĬĶ ëį°
Ġarchitect ure
ĠEnvironment al
ĠS k
or gan
ê¸Ī ìĿĦ
ens us
ìľ ¤
Ġsuccess fully
Ġar my
Ġìĸ´ ëĬĲ
n et
Ġcircumst ances
Ġìĭľ íĹĺ
c est
ĠëıĦ ìĭľ
ê°Ģ ëĬ¥
Ġte a
Ġìļ°ë¦¬ ëĬĶ
f ield
Ġloc ations
cul es
D S
Ġì¡´ ìŀ¬
Ġsustain ability
Ġdisc ipl
' ve
ëıĻ ìķĪ
ĠS ou
Ġwind ow
Ġcall s
m ary
ĠB re
Ġstudy ing
Ġgener ations
Ġacc omp
ĠComm on
Ġm ild
ìĹĪ ëįĺ
Ġens ures
G en
ĠìķĬ ìĿĦ
Ġc atch
Ġëª¨ ëį¸
Ġë°© ìĨ¡
Ġcustom er
ĠF lor
Ġë³´ ë©´
Ġdoct ors
ëĭ¤ ê°Ģ
ìĭľ ìĦ¤
Ġdist ingu
Ġh unt
ra g
ê¸° ìĪł
Ġwalk ing
ipp ing
Ġë° Ģ
l i
Ġa th
íı ¼
ĠìķĮ ê³ł
ĠM iddle
ê°Ĳ ìĿĦ
ĠS am
íı Ĳ
Ġt ried
Ġpsych ological
Ġansw ers
R ead
Ġpers ist
Ġìľ ¤
ĠìĿ¸ íķ´
ĠTw o
Ġs ell
ĠF e
ĠíĴ Ģ
Ġm ood
pr ise
hem ical
ĠA tt
Ġê·¸ ìĿĺ
Ġwor se
il ed
Ġì¹ľ êµ¬
v an
Ġc rim
ĠìĤ¬ëŀĮ ìĿ´
Ġreg ional
Ġdifficult y
Ġcomp osition
ĠN or
ëĮĢ íķľ
Ġst ated
Ġstand s
Ġentire ly
Ġreve aled
b ra
ĠTh omas
Ġfig ures
ust ain
ĠM ass
Ġinnov ative
Ġ Ð
Ġimp ossible
ĠV is
w ing
Ġt aste
Ġìĸ¼ ë§Ī
os ph
20 19
Ġre form
ĠìĨ ¡
ê· Ģ
ĠSt e
Ġcorresp ond
Ġw ife
ëĭĪ ìĬ¤
Ġab und
Ġim per
Ġra il
Ġt iny
íĤ ¨
n ormal
ĠM em
ëĥ ¥
Ġbeaut y
ë°° íı¬
Ġun s
. ;
ĠL ake
ì§Ģ ëıĦ
ĠP acific
ìĿĢ íĸī
ĠG ood
ë²Ī íĺ¸
Ġofficial s
Ġw ave
r ants
or row
Ġgu arant
ĠGl obal
Ġëħ Ħ
k a
Ġdown load
E P
ov iet
w est
Ġconc rete
Ġabs olute
Ġp ure
Ġac know
Ġê·¸ ëħĢ
ìĬ¤ ë¡ľ
ìĿ´ ëĵľ
Ġforest s
act s
ĠN ature
Ġs od
w ord
Ġë¸Į ëŀľëĵľ
Ġinstruct ions
Ġíķ´ ìĻ¸
Ġmit ig
Ġcalc ium
Ġun like
ĠL eg
ĠíĺĦ ëĮĢ
ëĵ¤ ëıĦ
ir us
ìĿ¼ ìĿĦ
ëªħ ìĿ´
ìĭľ íĹĺ
am ins
Ġê²½ ìŁģ
Ġë³Ģ ê²½
ìłķ ë¶Ģ
Ġdel ivery
Ġb iod
Ġchild hood
Ġer ror
Ġsurv ive
Ġrec on
ì¦ Į
Ġë§Ĳ ìĶ
Ġro of
Ġdirect or
Ġed ge
Ġdesign s
ĠJ ud
Ġro les
Ġunder stood
Ġserv es
Ġeffect iveness
Ġmor al
I nt
ans ion
or ter
Ġst able
sp ec
ĠG roup
it ivity
ink ing
Ġsubst ances
Ġneigh b
Ġfeed ing
Ġe ast
8 5
íĶĦ íĬ¸
ëªħ ìĿĺ
ë°Ķ ìĿ´
ĠS at
ëĤĺ ìļĶ
Ġevery day
C ont
ĠAd d
Ġëª© íĳľ
ĠìŀĪ ì§Ģë§Į
Ġhyd rogen
Ġgreat ly
Ġf if
ĠëĬ ¥
ìĤ¬ ìĻĢ
O ther
L E
od ing
ĠS ol
Ġmechan ism
ìĪĺ ëĬĶ
ëĵľ ë¦½ëĭĪëĭ¤
ëĶĶ ìĺ¤
íĻĺ ê²½
ĠìĹħ ë¬´
ãħ İ
Ġì§ĢëĤľ íķ´
ffect ive
Ġprev al
Ġë°ľ ê²¬
ocr atic
Ġposs ibility
Ġman aged
íĭ Ģ
Ġf illed
Ġìłķ ì¹ĺ
Ġcol our
Ġfoss il
le ts
ë ¿Ĳ
Ġê°ľ ìµľ
Ġacc um
am ics
Ġrem ark
Ġfunction al
ol f
Ġmin erals
Ġw aves
b ran
Ġexperim ents
Ġsee ing
Ġext ended
A meric
Ġcl osed
Ġìī½ ê²Į
Ġë¶ģ íķľ
Ġn erve
Ġëĸ ¨ìĸ´
Ġconsum er
Ġdec ide
R e
Ġingred ients
ĠìŀĲ ìľł
Ġve ter
Ġapp arent
Ġarg ument
ìļ ķ
---- ----
Ġmult i
Ġdet ection
Ġê³µ ëıĻ
Ġw estern
r us
Ġagree ment
Ġprodu ces
L et
Ġto w
Ġbelief s
Y our
ĠìĤ¬ ê±´
ĠC ult
Ġthreat s
Ġcirc uit
ìĻ ķ
ì¼ ĵ
Ġpers ons
L A
ĠìĦľë¹ĦìĬ¤ ë¥¼
ĠA S
ìłĦ ìĹĲ
Ġtit le
Ġpr ison
Ġfl ight
ìŀĲ ë¡ľ
Ġtre nds
ig ital
id ity
Ġcon ven
Ġnorm ally
i ology
ĠL ab
ĠN av
Ġind ex
Ġcapt ure
ëĨ ĵ
m as
rit ing
Ġw itness
Ġpl ate
Ġm oon
ĠD et
Ġcomp ounds
íĬ ¼
ĠAn y
Ġappe ared
ì§Ģ ë§ī
ct ive
Ġbreat h
Ġst ability
le vel
Ġadop ted
) ||
ĠíĻ ©
Ġp ull
Ġgl uc
Ġn arrow
Ġdraw ing
Ġm ac
Ġëĳ ĺ
us ing
at o
Ġadminist ration
Ġl ots
ìĥģ ìĿĺ
Ġd ensity
íĶ ½
og ue
ag ues
ìĨĮ ëħĦ
E O
Ġt ank
ĠìŀĲ ì²´
Ġpand emic
H D
Ġcomfort able
Ġg all
ê°ľ ìĽĶ
íĴ į
ĠS l
Ġaim s
l ines
Ġour selves
Ġreact ions
ĠM r
% ,
íĤ ¹
Ġíķĺ ë£¨
íķĺ ìĭŃìĭľìĺ¤
Ġê·¸ ëłĩ
Ġm ent
Ġindic ates
ëªħ ìĿĦ
Ġlist en
Ġinv ent
Ġl ies
Ġoper ate
Ġslow ly
20 17
Ġfew er
Ġparticip ate
Ġrep air
ëĬĶ ëĭ¤
Ġm old
Ġìĺ¤ íĽĦ
ìĭľ ë©´
Ġk new
ĠB at
g ans
Ġclos er
ot o
Ġëĭ¹ ìĭľ
rain ing
um es
Ġair craft
Ġw ants
ëĤĺ ëĿ¼
Ġtra ined
Ġ200 1
Ġvessel s
Ġa head
Ġrat io
Ġcon ventional
Ġreturn ed
Ġdescrib es
if orm
ĠAr my
Ġrepe ated
Ġdo or
Ġp up
it ative
Ġv oc
Ġevalu ation
Ġphot os
Ġê¸ ´
x id
an c
Ġb ond
ë¡ľ ëĵľ
Ġin ner
Ġopin ion
Ġre ly
Ġê²Į ìĭľ
ĠìĿ´ ëıĻ
ê ´
Ġê·¸ëŀĺ ìĦľ
ĠC y
Ġcont amin
Ġag encies
Ġpret ty
Ġint ellect
ĠìłĦ ëŀµ
Ġì° ©
Ġlim its
Ġf av
Ġ200 2
20 18
ĠW ild
riend ly
Ġauthor ities
Ġch olesterol
es ter
on a
Ġsu c
dition al
rop ical
p et
ĠìĬ¤ ë§ĪíĬ¸
Ġë²Ī ì§¸
im er
w ar
Ġm useum
Ġfix ed
ĠAb out
ĠíĦ °
Ġconsid ering
Ġì¶ľ ìĭľ
Ġbig gest
ad a
Ġn an
Ġmole cules
ĠA p
ĠS oviet
Ġopen ing
St ud
ĠM ont
Ġser ver
ìĨĮ ë¥¼
Ġm amm
Ġhous ing
ê³Ħ ë¥¼
ĠCath olic
Ġun iverse
Ġë°° ìļ°
Ġlay ers
ëĤ ¸
Ġexcess ive
Ġbro ken
ĠìķĦ ì§ģ
Ġwarm ing
ĠìĦł ìłķ
ì§Ģ ëĤľ
Ġb io
Ľ °
Ġhe aling
Ġtw ice
N ot
ĠS um
Ġê³ł ëł¤
Ġë³´ ëĤ´
Ġê²ĥ ëıĦ
Ġc row
Ġsold iers
ä ¸
az ing
Ġgra d
ĠJ ose
Ġplatform s
Ġne ck
ìŀ¥ ìĹĲìĦľ
Ġemb ra
íĸĪ ê³ł
Ġpo et
ab ul
Ġr hy
Ġf ashion
Ġìľ ¡
Ġp ool
ìĥģ íĴĪ
r in
Ġy ield
h av
u nder
8 6
ĠëĦ £
Ġë¨¼ ìłĢ
ëį° ìĿ´íĬ¸
Ġg un
Ġsk y
ĠT ime
ad d
Ġposs ibly
Ġê¸Ī ìľµ
Ġa x
ĠSc ient
Ġgreen house
is k
Ġìĭľ ë¯¼
P e
S e
ĠìĶ ¨
Ġ ~
L ear
Ġmount ain
ĠëĨ Ģ
Ġmark ed
Ġë ŀ
ĠDise ase
rit is
ĠìĤ¬ëŀĮ ëĵ¤ìĿ´
Ġâĸ ²
Ġremain ing
oura ge
ĠìĿ´ ëĬĶ
ĠW hether
Ġsh op
Ġcap abilities
7 6
ĠíĶĮ ëłĪìĿ´
ĵ ¨
or ous
S ince
Ġl ibrary
qu ality
el ess
b orn
ĠProf essor
Ġmin ing
Ġë¹Ħ ìļ©
ìŀĲ ëĵ¤ìĿ´
st s
Ġelect ron
al ian
Ġíģ¬ ê²Į
Ġíĳľ íĺĦ
h and
ĠëĿ¼ ìĿ´
a it
Ġch apter
ĠíĻķ ëĮĢ
rib ed
Ġme al
u ke
Ġperman ent
Ġsch olars
Ġíķĺ ì§Ģ
Ġhous es
ìĦł ìĿĦ
Ġan cest
ĠN ations
u a
8 9
ìĻ Ķëĭ¤
Ã Ń
Ġfrequ ent
Ġen ables
ëĲ Ĳ
Ġë§ĲìĶ Ģ
ìĹ Ħ
ot al
ìĦľ ë¥¼
Ġpict ures
ang ed
ìĤ¬ ì§Ħ
Ġíı Ĳ
Ġfl o
Ġin hib
Ġful f
Ġch ick
Ġsm oking
ĠL ong
Ġmix ed
Ġlist ed
Ġì£¼ ë¬¸
ĠìĪĺ íĸī
Ġelect ro
ìĤ¬ ìĹĲ
m es
l iam
ĠìľĦ íĹĺ
st one
I M
ct ic
ĠìĿĮ ìĭĿ
Ġoptim al
R C
ì ĵ
h ma
Ġíķ´ ìķ¼
Ġhold s
ot a
we ight
íķĺ ìĺĢëĭ¤
g ent
Ġopen ed
Ġinc red
Ġa f
Ġdec ade
Ġimpl ications
ĠA lex
Ġteam s
Ġg ap
ro oms
Ĭ ìĿĢ
ê¹Į ìļĶ
Ġprovid er
Ġdes ire
Ġinstit ution
ĠíĹ ¤
Ġprepar ation
Ġë§Į ëĤĺ
Ġlov ed
Ġcommit ment
â ľ
ìĿ´ ë¥¼
Ġequ ival
Ġsh if
Ġdep os
ìł Ŀ
ĠëıĦ ìĽĢìĿ´
Ġìļ ¸
Ġsw im
ir t
Ġaccept ed
n o
Ġch ief
Ġtell s
íķĺ ìĭ¤
b ody
Ġê³µ ê¸ī
ĠìĨ Ķ
ĠSm ith
ĠTh ose
Ġbe ar
Ġun able
on al
ĠB ank
ë¡ľ ê·¸
Ġch osen
Ġëĵ ¯
Ġ ic
ĠF orm
Ġeth ical
Ġder ived
I A
ĠQu est
Ġatt end
ìĭľ ê¸°
Ġëľ »
k es
ĠìĦ¤ ìłķ
Ġrel ief
Ġun less
Ġê³µ ìľł
ĠFran c
ĠOff ice
Ġdeb t
ĠK en
ĠíķŃ ê³µ
ì ¿ł
ĠíĽĦ ë³´
R ec
Ġorigin ally
Ġmark ets
g ien
ĠìłĦ êµŃ
it amin
Ġar ms
Ġc os
ĠA cc
Ġmar riage
Ġfund s
Ġdist rict
Ġart ists
Ġdyn amic
ëł µ
ĠG old
Ġcry pt
ĠSt ep
Ġexpress ed
Ġadequ ate
ĠCar ol
Ġemploy ment
Ġf u
ìļ° ë¦¬
O nce
hold ers
Ġinter f
Ġde ploy
Ġê¿ Ī
B N
rib e
Ġcl ar
so ft
ê¸° ê°Ħ
P C
Ġproduct ivity
in et
ĠT er
ĠHist or
Ġvolunt e
ĠT ake
esp read
Ġ3 6
Ġshe ll
ì£ Ħ
ìĿ¸ ìĿĢ
ëŁ¬ ìļ´
Ġsp ending
Ġz ero
g u
Ġun known
ĸ ìĹĲ
z en
ĠRe view
Ġorgan ized
Ġbal anced
ĠâĢ ¢
Ġlearn ers
ĠPar is
ë¨¸ ëĭĪ
ĠìķĪ ëĤ´
ph one
Ġw ish
ĠM o
ëŀ Ļ
Ġëĭ¤ ìļ´
Ġbr ings
ĠAustral ian
lud ing
ĠìĺĪ ìĥģ
ĠRober t
Ġprom pt
Ġ198 0
v ille
Ġfocus es
og a
Ġmed ic
ful ness
ìĶ ©
Ġê ´
Ġdemonstr ate
Ġì» ´
ê²Į ìŀĦ
ar ia
B T
Ġyoung er
ê ¾¸
itud es
Ġre ven
and a
Ġ7 5
Ġacc ident
t op
Ġcompet ition
Ġsur faces
íĸĪëĭ¤ ê³ł
Ġdes ired
Ġê°Ģ ìŀħ
Ġrecommend ations
ìłľ ë¡ľ
Ġfarm ing
st on
ĠComp any
ĠP ers
ĠìĤ´ ìķĦ
Ġìłķ íĻķ
ìĹħ ì²´
ĠT HE
Ġinstru ments
Ġr id
ìłľ ê°Ģ
ear chers
c ons
g ers
liam ent
oc racy
Ġdis rupt
ê¸° ìĿĺ
d r
z ed
Ġir rit
ĠíĶ¼ ë¶Ģ
ĠMore over
ì¼ ĢìĿ´
ĠA ccess
ĠT or
Ġíĥ Ī
ĠAd v
ast ro
Ġ20 23
ĠCanad ian
ĠFlor ida
ĠE xt
ìŀĲ ìĹĲê²Į
Ġexpl o
d oor
Ġwor ry
O C
ìĬ Ī
Ġab ilities
ĠUS A
Ġevalu ate
Ġinteg rated
Ġopp osite
Ġs ight
Ġtiss ues
Ġdam aged
Ġmechan ical
in i
h ist
Ġf ly
Ġsent ence
ac u
Ġvol tage
ĠìłĦ ìĹĲ
20 20
Ġíĺ ¹
Ġsuppl ies
Ġg al
ess ions
Ġprovid ers
Ġf ract
ê ¼
ĠS ym
ĠO F
Ġê·ľ ëª¨
Ġreg ist
Ġê ¶ģ
h op
sc ale
ìķĦ ìļĶ
Ġris ing
Ġê¸ Ģë¡ľë²Į
f ortunately
ì½ ĺ
Ġw ww
Ġob esity
Ġmagn etic
íĻ į
Ġvill age
Ġconstant ly
Ġcam era
ëŀ« íı¼
ë¦¬ ì§Ģ
he alth
p oint
ĠëķĮë¬¸ ìĿ´ëĭ¤
^ ^
ĠY et
ĠH am
Ġê°ķ ì¡°
Ġins ulin
Ġ3 2
ĠB ro
ìĸµ ìĽĲ
Ġpercent age
Ġì¹´ ì§Ģëħ¸
Ġì²ĺ ë¦¬
Ġasse ts
th at
ĠWind ows
ir ation
ov ascular
ëĮĢ íĳľ
Ġst ake
in ter
Ġê¹ ¨
ĠëĮĢ ë¹Ħ
ì¶ ĺ
Ġlabor atory
Ġpr on
Ġman if
force ment
Ġf ell
Ġdiagn osed
Ġë°Ķ ìĿ´
ber t
ìłĦ ìĿĦ
Ġstand ing
ìľ¼ ëĤĺ
Ġìĺ¤ ëĬĶ
Ġwill ing
ĠC at
Ġr ig
Ġcompar ison
ĠB ur
Ġinteg ration
ĠCon stitution
Ġre ject
Ġnecess arily
Ġrespir atory
ĠìĦ ¼
Ġsc an
Ġindepend ence
Ġcrit ic
et her
io xid
ir cle
Ġsche dule
ìŀ¥ ìĿĺ
ĠìĤ¬ìļ© íķł
ĠChe ck
Ġaut hent
Ġexperien cing
Ġtre nd
Ġidentify ing
Ġph arm
Ġmat ch
Ġpart ner
Ġleg s
ìŀĲ ìĻĢ
Ġb read
n ect
ĠìĹ¬ ê¸°
Ġhe ating
Ġsun light
f ish
Ġpan els
Ġsequ ence
Ġshap es
en a
h an
Ġìŀĳ ìĿĢ
ĠFurther more
R A
ëŁ¬ ìĬ¤
ic ide
ë¡ľ ë¶ĢíĦ°
Ġ18 6
re ed
M y
C omm
ĠíĮ Ķ
ĠChar les
Ġkid ney
ĠC a
Ġexam ine
Ġt ight
ear ing
Ġcook ing
Ġwid espread
Ġte en
r ons
rodu ction
Ġte x
Ġìłģ ê·¹
ĠìĹ Ķ
Ġeng agement
Ġwhere as
4 2
ĠC reat
Ġrepl aced
or a
ìĦ± ê³¼
ĠH ome
ĠS et
edi at
Ġe ld
ĠOn ly
Ġ197 0
Ġc art
b urg
Ġpain ting
Ġinfluen ced
S S
Ġfail ed
in ity
Ġë§Į íģ¼
Ġres olution
Ġdi oxide
Ġfac ing
ĠCl imate
hes is
Ġbra nd
ĠëĪĦ êµ¬
z il
Ġd in
ĠN atural
Ġparticip ation
in ction
Ġeth nic
ĠR ad
igh ter
ren e
Ġland s
ìĿ¸ ëĭ¤
ĠP an
Ġë Ľ°
Ġres erv
ĠM a
Ġì§Ī ë¬¸
Ġdist ur
í ĵ¨
ag ram
ut s
ĠL abor
Ġcompl ications
th rop
Ġneigh bor
ĠO x
Ġdel ay
oc y
ĠO pen
st ruction
ĠV ict
est ed
M L
Ġìķ ±
Ġdeb ate
Ġobject ive
¢ °
t ic
ot ed
in ally
Ġlat ter
Ġco vers
ĠD an
Ġb ot
Ġint ense
4 3
ĠHen ry
ĠSec urity
Ġread er
Ġt all
Ġë¹Ħ ë¡¯
oc ation
ë§ İ
ap ed
Ġman ip
ut er
ìķ ķ
Ġanaly ze
Ġdef ine
Ġth y
ad ing
ĠF ederal
ĠD iv
as ters
O U
Ġtrial s
it t
ĠìłĢ ìŀĳê¶Į
ors es
Ġprin ting
ãħ ł
ĠStud y
ìĥĿ íĻľ
ĠVirgin ia
íķ´ ë³´
Ġfor get
Ġind eed
Ġf alse
Ġk ne
ë ¢°
Ġvit amins
Ġso le
ir ds
Ġadminist r
ĠìĻ ķ
Ġbr idge
ig ue
Ġwrit er
Ġinstall ed
ë³µ ì§Ģ
Ġun iversity
ĠLou is
Ġinvol ving
Ġ15 0
ut rition
Ġst roke
Ġsur ve
í Ĥ¬
Ġbl ocks
erson al
ell a
Ġun us
Ġìĺģíĸ¥ ìĿĦ
Ġprotect ing
f it
ëĦĪ ì§Ģ
ĠSt at
Ġpl enty
Ġmetab ol
k i
Ġz one
F irst
Ġtrad itions
ĠL ibrary
Ġbut ter
Ġsm oke
Ð µ
Ġphilos ophy
Ġ6 5
Ġear n
ic an
Ġgluc ose
Ġm and
ĠìĽ Į
Ġtrans c
ìłķ ìĿ´
Ġent ry
ĠS ing
Ġturn s
Ġcl othing
ĠE ss
Ġre ward
Ġêµ¬ ì¡°
Ġnutri ent
ĠComm it
Ġcare ful
Ġconvers ation
ëł ´
Ġìķŀ ìľ¼ë¡ľ
com ing
Ġë ķ
Ġìĭ¤ ìĭľ
Ġor gans
Ġc av
Ġcolle agues
Ġr ice
Ġfirst name
Ġíķĺ ë©´
Ġhor iz
er ior
Ġen ds
ĠìłĦ ë§Ŀ
Ġìłľ íķľ
Ġcor n
Ġ )
Ġte le
th ritis
Ġtechn ological
ĠR ob
iot ic
Ġb ath
ê³¼ ìĿĺ
Ġm os
4 1
Ġdoub t
air y
Ġcal ories
Ġtra ct
Ġcl ust
ĠL G
Ġê¼ Ń
Ġme als
ĠC ap
Ġì£¼ ë¯¼
ĠëĬĲëĤ Į
Ġhe ro
ĠRep ort
Ġcateg ories
Ġd ys
t ra
Ġput ting
Ġh olid
Ġrepresent ed
Ġmem bran
ĠEar ly
Ġconsum e
Ġtur ning
Ġìļ´ ëıĻ
Ġorgan isms
ĠìĿ¼ ìĿ´
ĠCh o
Ġvar iable
ħ ëĭĪëĭ¤
Ġsens ors
ĠIm p
Ġcommit ted
Ġdemonstr ated
ĠR ome
Ġcreat ivity
Ġexp ansion
ľ ĺ
Ġre cept
Ġmeasure ment
ĠH aw
Ġì¡° ì§ģ
Ġcontrol s
Ġag ency
ëĲĺ ìĹĪ
íĶĦ ë¡ľ
Ġìķ ķ
7 9
Q u
it a
Ġmod e
Ġì§ĳ ì¤ĳ
ĠI N
Ġmat ters
Ġsuc ceed
Ġin hab
Ġfight ing
Ġbr ush
Ġfe ver
Ġstim ul
Ġìŀ¥ ìķł
ê°ľ ìĿĺ
Ġf urn
ì¶ľìŀ¥ ìĥµ
Ġf er
Ġdem ands
ë¨ ¹
ĠO cean
Ġcent ers
c ar
Ġimplement ed
ĠC re
ì¹ ł
Ġstrong er
Ġë´ ī
Ġp ed
Ġê´ĳ ê³ł
A pp
Ġro w
ë²¤ íĬ¸
Ã ¼
Ġenc oun
Ġë¶Ģ ìĤ°
it ter
Ġë°Ľ ê³ł
ì¹ Ń
re land
ic ing
ëĮĢ ìĿĺ
? ?
ìłķ íķľ
Ġíĺ ģ
Ġg one
ìļĶ ìĿ¼
Ġtreat ing
Ġê°ľìĿ¸ ìłķë³´
ìĽ ł
Ġë ¥
Ġstruct ural
Ġfac ed
St ep
Ġemploy ed
Ġob lig
I G
Ġc m
ĠAd minist
Ġê±° ìĿĺ
ĠC P
Ġbat teries
el i
Ġíĺ Ī
f riendly
ĠH ave
ĠH all
Ġì§Ģ ë°©
Ġh us
ite ly
ediat ric
Ġnear by
ì§Ģ íĦ¸
ìĬ¤ íĨł
Ġvisit ors
a ud
ê° ĳ
ĠìĿĺ íķ´
omm od
Ġpos itions
% .
Ġpresent ation
Ġarr ange
Ġcr ime
Ġnerv ous
r ite
ëĲĺ ìĹĪëĭ¤
Ġc up
ĠInd ust
Ġc ash
Ġb anks
Ġref uge
Ġgradu ally
ĠìĹ¬ëŁ¬ ë¶Ħ
Ġfil ter
â ĺ
Ġaddress ing
r ine
Ġë¬¸ ìĿĺ
Ġst rain
íĺ ¹
ìĽ ¨ìĸ´
Ġrem ed
s is
abul ary
us al
ìķĪ ìĿĦ
ê·¸ ëŀĺ
s uch
ĠP M
Ġb order
ĠìĿ´ ìĹĲ
ĠRev olution
Ġn ine
ëĭ Ŀ
ì¢ Į
Ġp air
ĠìĿ´ ëĤł
Ġshe et
Ġexpert ise
Ġdesc ription
S u
ish ment
Ġê° Ŀ
Ġad vert
ĠI ll
Ġer rors
Ġex ists
íĶ Ī
Ġmess ages
íĺ Ī
Ġalgorith ms
Ġrece iving
Ġstreng then
ĠìĿĮ ìķħ
ĠìĹħ ì²´
h us
. |
Ġsub s
ĠCol or
Ġsal es
Ġsc ore
Ġdiet ary
ĠG ard
ĠìĿĺ ë£Į
ĠCol umb
Ġc ards
ual ity
ĠFr ank
ĠìłĦë¬¸ ê°Ģ
Ġremov al
Ġl ights
Ġh un
Ġatt ached
Ġmet ers
I L
os ion
ĠìŀĲ ê¸°
ëĭĺ ìĿĺ
Ġun certain
Ġpolit ics
ever al
Ġbl o
ell ed
Ġexpl oration
Ġobject ives
Ġocc asion
ĠíĮ ¬
ion e
re qu
ĠCan cer
op eration
ĠM ars
ê°ľ ë°ľ
ĠF ree
Ġhorm one
ol a
Ġcharacter ized
Ġover w
Ġpro ve
Ġst rict
ĠPl ant
Ġfavor ite
Ġcomb at
ĠA C
ĠServ ices
pt ions
Ġknow s
ë°Ķ ìĿ¼
ì§Ħ ëĭ¤
ĠF ace
Ġìĸ´ ëĶĶ
ĠSt reet
Ġrecy cling
on ed
ou ts
Ġíĺķ íĥľ
Ġlaun ched
ĠIt aly
Ġterrit ory
Ġresult ed
ĠE th
Ġpar alle
Ġcontem porary
ë¡ľ ëĬĶ
ur rent
ct ure
Ġì£¼ ìŀ¥
Ġê¸° ìĸµ
ĠëĶ° ë¥¸
ĠE nd
Ġinter ventions
row ing
Ġover come
C omp
ĠUnder standing
Ġsw itch
ê±° ë¦¬
ì» ´
Ġê ¾¸
Ġout come
Ġwa it
ĠS ign
Ġthan ks
Ġher itage
Ġeng aged
il ation
Ġpriv acy
Ġinteract ive
Ġequival ent
ë¬¸ ìłľ
Ġ4 00
Ġì½ĺ íħĲì¸ł
Ġê³µ ë¶Ģ
ĠìĿ¸ ì¦Ŀ
Ġe pid
Ġfram e
al a
Ġë³´ íĹĺ
Ġexpl oring
Ġmeasure ments
he red
Ġì§Ģ ëĤĺ
Ġpow ers
Ġcorrect ly
Ġh ole
Ġì¡° ìĤ¬
id ential
ĠR esp
Ġknow ing
F igure
ak ed
ĠSaf ety
Ġout bre
5 9
all s
Ġì ¿ł
Ġsh ut
ĠI reland
Ġdang er
st ract
is dom
E ven
Ġ19 60
ĠÂ ©
b ut
ste in
íĮĮ íĬ¸
Ġobserv ations
ìĬ¤ ê°Ģ
ĠL anguage
5 6
Ġprinc ip
l ights
wh ile
ĠD espite
Ġíĸī ë³µ
Ġê²° ìłľ
8 7
Ġstr ing
w o
Ġr u
Ġsp ort
ĠìĺĪìłķ ìĿ´ëĭ¤
ĠM S
it an
on ia
is ters
Ġconstit ution
Ġê³Ħ ìķ½
Ġcrit eria
ĠS S
Ġwas n
Ġvirus es
us ive
ìĿ¸ íĬ¸
Ġprov en
Ġde aling
ĠìļĶ ì²Ń
am ination
Ġs ections
Ġfocus ing
ĠíĶĮ ëŀ«íı¼
ĠM ad
ëĿ¼ ë§Ī
ë¥´ ê³ł
ĠSou thern
Ġcry st
ĠEmp ire
ìĿ¼ ë¶ĢíĦ°
ìħĺ ìĿĦ
bo hyd
ìĤ¬ íķŃ
Ġê°Ĳ ëıħ
Ġaffect ing
ĠDo es
Ġv ibr
ìĬ¤ ìĿĺ
ĠìłĦ ëĭ¬
Ġêµ¬ ì¶ķ
c omm
Ġpo ison
ìķĦ ìĿ´
ĠP eter
Ġnew sp
op ic
Ġëħ¸ ëıĻ
Ġlist ening
ĠB efore
à ¥
Ġm aps
Ġresil ience
e ut
ĠN orthern
ut ch
ym ph
er b
Ġvide os
Ġsc ene
Ġath let
ro vers
ìī ¬
ĠC amp
Ġadd s
ĠJose ph
Ġserv ing
b les
Ġadd iction
ĠN ative
Ġâĸ ³
Ġmiss ing
Ġg ram
Ġhold ing
ìĭ ±
Ġbab ies
Ġbur ning
C D
Ġgain ed
Ġdifficult ies
Ġwh atever
ĠìĬ¤ íĬ¸
ĠìĦł ìĪĺ
Ġphot ograph
qu it
Ġfound ed
ar n
Ġcool ing
ĠìŀĪ ê²Į
Ġdestroy ed
Ġgre w
Ġsupp lements
Ġpres ents
ot ton
ĠAcad emy
Ġpan el
Ġpregn ant
ĠìĦľ ë¡ľ
ov en
Ġcomp rom
' ,
M A
íļĮ ê°Ģ
Ġbound aries
r d
P re
ĠJ e
ĠìĿ µ
n am
íĹ Į
Ġvari ables
Ġcomput ing
Ġask ing
Ġreg ulation
Ġdistrib uted
Ġë³´ ëĭ¤
Ġìļ°ë¦¬ ê°Ģ
Ġcomp are
Ġdep artment
Ġfac ility
Ġìķ ¡
ĠSc ot
Ġtarget s
ins on
Ġch rom
b ur
Ġprotect ive
Ã ³
M ed
Ġ ille
ro at
Ġown er
char ge
ì§Ģ ìĹĲ
Ġdiscrim ination
ëĮĢ íķĻ
Ġëĵ± ìĹĲ
Ġint est
ir ty
Ġí į¼
Ġbring ing
ëł ī
ĠìŀĲ ë¦¬
Ġphenomen on
ord ers
Ġelimin ate
ìľ¼ë¡ľ ìį¨
Ġant ioxid
ëł¤ ê³ł
et ics
ì¶ľìŀ¥ ìķĪë§Ī
Ġlegisl ation
Ġhy gien
Ġintellect ual
Ġìĸ¸ ìłľ
Ġíĭ °
ëª °
Ġexam ination
E very
ĠM ag
ĠW ood
Ġhyp othes
Ġf old
Ġtex ts
Ġmicro b
Ġthous and
ĠP ub
Ġcop per
ĠAg ricult
ĠB usiness
Ġrel ation
Ġt ut
ĠGu ide
ëĺĲ íķľ
Ġbre ed
Ġvar ieties
Ġun w
íķĺëĬĶ ëį°
he rent
Ġn ose
Ġ199 9
ĠW here
O L
Ġfra g
Ġìŀħ ëĭĪëĭ¤
Ġgr id
Ġcomp ost
Ġunder t
ë¡ľ ìĦľ
Ġê´Ģ ê´ĳ
ĩ Į
Ġë¬¸ìłľ ê°Ģ
Ġìĺ¬ ëĿ¼
Ġdom ain
Ġflex ibility
h ow
Ġm ice
Ġestim ates
ìłģ ìĿ´
Ġf est
Ġdo i
Ġì ĩ¼
ĠíĶĦë¡ľ ìłĿ
íķĺ ëıĦë¡Ŀ
Ġf ro
Ġprocess ed
Ġassoci ation
B A
ĠíļĮ ìĤ¬
Ġv ote
ëħ ķ
Ġmanufacture rs
Ġshar p
ĠìĽ Ģ
ĠSt art
O f
Ġfunction ing
Ġt ub
Ġd aughter
Ġm m
Ġcompl icated
êµŃ ìĿĺ
Ġê·¸ ëłĩê²Į
íķľëĭ¤ ê³ł
S ee
ì´ Į
ĠAn n
Ġmarket ing
Ġworks he
P T
Ġprof ound
Ġtri p
Ġcho osing
Ġch ances
Ġm ic
Ġplant ing
Ġminim ize
Ġlight ing
Ġther mal
se y
us hed
Ġa ward
ìłľ íĴĪ
ĠAv oid
Ġs ession
ĠBra zil
ĠìķĦ ë¦Ħ
Ð ¾
c alled
og ether
Ġinf ect
ëĲĺ ë©°
Ġì¶© ë¶Ħ
Ġhaz ard
ĠìŀĲëıĻ ì°¨
ĠìķĬ ìķĦ
ĠSc iences
ab il
pl ant
ìĹĲìĦľ ìĿĺ
Ġappro ved
Ġeduc ators
Ġiss ued
íķľëĭ¤ ëĬĶ
Ġacc ommod
Ġrec over
ib l
ru ption
Ġrun s
ĠìĤ¬ ê³ł
F i
am ine
Ġcateg ory
Ġë¶Ģ ëĭ´
e en
Ġliter acy
Ġiniti atives
ĠìĿĺ ê²¬
Ġflow er
Ġìĭł ê³ł
ĠNet work
Ġneg ot
Ġne ur
ct or
i h
ëĭ ¥
Ġab normal
Ġoverw hel
Ġrem ind
Ġdec or
Ġecosystem s
Ġra cial
Ġtraum a
g s
Ġarr ived
ĠëĤĺ ëĿ¼
Ġpar as
ort ion
Ġaut on
Ġsubstant ial
Ġtro ops
ĠY ear
Ġn est
Ġìĭľ íĸī
ì² Ļ
íĨ ¡
Ġanal ys
Ġrout e
Ġë°Ľ ìĿĢ
Ġê°Ģ ìł¸
ĠìĿ¸ ìłķ
ĠBo ard
Ġb low
ĠSp ain
ì ĩ
ë¦¬ ìĿĺ
Ġcontain ed
ĠVal ley
ĠB ig
Ġìĭľê°Ħ ìĿĦ
Ġp ra
htt p
ìŀ¥ ìĹĲ
ìĽĮ íģ¬
ê ¿
ìĿ´ íģ¬
Ġë¹ ¨
Ġbre eding
Ġhistor ic
Ġphys ics
ĠW ord
ĠëŁ ¬
ëĮĢ íķĻêµĲ
Ġë§Ī ì§Ģë§ī
ixt ure
Ġíķľ ë²Ī
Ġë¶ Ļ
Ġcardi ovascular
Ġíİ¸ ìĿĺ
Ġefficient ly
Ġart ist
ëĤ¬ ëĭ¤
Ġê¸° íĥĢ
ĠB ab
Ġengine ers
Ġcom ments
Ġìĸ¼ êµ´
D on
a ired
ĠìķĬ ìķĺëĭ¤
Ġfun g
he ast
ì¶Ķ ì²ľ
Ġavail ability
ĠR oyal
f ts
Ġp apers
Ġsac r
ant a
Ġbl ind
oc c
Ġr ivers
ĠN on
Ġhyd ro
ĠCommun ity
Ġor ient
Ġmin eral
ĠLear n
ĠA ge
u gh
Ġwebs ites
Ġexc iting
Ġë§Į ëĵł
ic ago
Ġìĥģ ëĭ´
Ġê³ł ë¯¼
it als
ì¹´ ì§Ģëħ¸
Ġrob ust
C ons
p an
Ġhe m
Ġsh ot
ëĿ¼ ìļ°
Ġsp ok
ive red
ĠS il
Ġspect rum
Ġspecial ized
Ġwith d
Ġconsider ation
Ġd ur
Ã ¶
Ġapp oint
ĠëĮĢìĥģ ìľ¼ë¡ľ
Ġìłķ ìĥģ
erv ing
T oday
â Ī
Ġìĭľê°Ħ ìĿ´
Ġjoin ed
Ġë§ ¡
Ġì£¼ ë³Ģ
ĠSpec ial
Ġhard ware
ìĿ¼ ê¹Įì§Ģ
Ġt ap
Ġflex ible
Ġo v
Ð °
ĠìłĦ ìŀĲ
Ġcent re
Ġreal ize
Ġad vent
ĠCh ange
Ġsu s
ë§Į ëĤ¨
Ġaut ism
Ġdra wn
Ġtrou ble
Ġë¶Ģ ì¡±
ost ic
Ġag ents
Ġë§ŀ ì¶
Ġ18 9
ĠL ED
Ġregard less
Ġr ank
ìĺ ¥
Ġhand ling
Ġvictim s
Ġsh ips
ĠT imes
ìĬ¤ ëŁ½
ap se
ĠCommit tee
ëª »
íķĺ ìĭł
c m
ë¶Ģ ëĬĶ
Ġìĥģ ìĬ¹
Ġconf ig
Ġcontrib uting
an ing
i ological
ë ®¤
Ġsh ock
ëĲĺ ìĹĪìĬµëĭĪëĭ¤
ĠíĮĮ ìĿ¼
Ġcl ient
Ġj ump
es ides
op les
ĠKing dom
ĠëĶ°ëĿ¼ ìĦľ
Ġhapp ening
20 16
Ġìµľê³ł ìĿĺ
ĠS ometimes
Ġco verage
ë¡Ń ê²Į
s he
Ġthem e
Ġdef ense
ĠJoh ns
Ġprior it
Ġest imate
M P
H A
Ġpe ak
Ġdo se
Ġìłķ ìĭł
az on
Ġst reet
Ġs ke
Ġìĥģ ëĭ¹
ĠL ook
Ġfl our
Ġstrateg ic
ìĦ¸ ê³Ħ
Ġbran ches
ĠP olic
ëĭ¤ ìļ´
ĠO h
he imer
Ġevol ved
Ġencoura ged
us c
Ġtur b
íĬ ľ
Ġs ought
og s
ad der
Ġìµľ ìĭł
íİ ´
Ġt ube
Ġform ula
Ġfor g
Ġe ase
ult y
ĠE qu
Ġobs erve
C P
Ġsens itivity
are n
Ġt ons
U N
k r
ê±° ëŀĺ
Ġìłľê³µ íķ©ëĭĪëĭ¤
Ġcoast al
m ers
Ġr ing
Ġdigest ive
ë¹ ł
Ġsupp osed
Ġs izes
ĠW orks
Ġnarr ative
ìķ ŀ
Ġê°Ģ ì§Ħ
ĠíĺĦ ìĭ¤
Ġl iber
Ġar ts
Ġext end
ĠìĤ¼ ìĦ±
Ġdest ruction
p es
Ġìłľ ì£¼
pr int
Ġwind ows
ere n
Ġf ats
ay ing
Ġins ight
ĠìŀĪìĸ´ ìĦľ
Ġcl ients
Ġeas tern
ĠE astern
ct u
it ual
es is
ĠìĬ¤ íı¬ì¸ł
Ġcomp ens
ĠëĤĺ ìĺ¤
it ure
Ġsus cept
Ġh oney
ìŀ Īëĭ¤
ê¶Į ìĿĦ
p rodu
Ġprof it
Ġplay er
ĠSc ott
Ġche st
Ġdep art
Ġdef ect
Ġbiod iversity
Ġbarri ers
Ġsatis f
Ġfat igue
Ġíİ ¼
ĠF ollow
Ġìłľ ê°Ģ
ĠG al
Ġfat ty
Ġcomp ound
Ġëħ ¹
Ġdr iven
Ġexpect ations
Ġthe ories
ha ust
T P
ĠM ill
ist ical
Ġsecond s
Ġvacc ines
oc ial
Ġch lor
ìłĦ ìŀĲ
B ecause
Ġint ensity
acc o
O r
T V
Ġdepend ent
Ġin equ
Ġthe ore
Ġemerg ing
Ġend ed
m edi
ëĮĢ ìĹĲ
Ġst re
ĠIn s
opy right
b ox
Ġh idden
Ġact ively
ĠAs ian
Ġdis aster
ĠíĻķ ë³´
ê°Ģ ë¥¼
Ġac ute
ĠìĹ´ ë¦°
Ġë°° ìĨ¡
Ġcrim inal
ĠìķĪ ìłķ
Ġs essions
Under standing
ê»ĺ ìĦľ
Ġê² ¨
em ia
íĵ¨ íĦ°
Ġwork place
s m
ĠìĹŃ ìĤ¬
Ġfall s
ìĹ ĺ
re ated
Ġch art
G et
Ġâ Ĩ
Ġìĺ µ
ë¬¼ ìĿ´
ĠDe v
Ġang le
ĠëĲĺ ê³ł
ic ity
Ġst yles
Ġdecre ased
Ġquant um
Ġexplan ation
w orld
Ġmov es
ĠFam ily
ĠSim ilar
Ġsafe ly
ak istan
yth on
Ġfl ag
ĠíĿ Ķ
Ġmeaning ful
Ġìľł ëªħ
ìłķ ì±ħ
ì¹ĺ ê°Ģ
Ġaim ed
Ġ199 8
Ġphot o
Ġê³µ ìĭĿ
Ġhon or
Ġw ound
Ġpro of
en ess
ot es
Ġper ception
Ġbe ings
Ġfacilit ate
Ġë°Ľ ìĿĦ
ef its
Ġh orses
Ġad verse
Ġê°Ģ ê¹Į
br idge
Ġenab ling
Ġê¸° ê´Ģ
Ġcol umn
Ġautom atically
Ġst ead
Ġëĵ £
Ġint ent
Ġarch ae
Ġrep ut
Ġb rows
Ġmar ried
â ĳ
Americ an
8 4
ë§Į íģ¼
Ġcomp osed
Ġstrong ly
Ġhealth ier
Ġcor ner
ĠP rop
ĠìķĦ ì£¼
ĠKore a
Ġrepresent ation
Ġdel ivered
Ġimplement ing
Ġesc ape
f rom
Ġê²° êµŃ
Ġì°¸ ìĦĿ
Ġsil ver
L e
Ġìłľê³µ íķĺëĬĶ
Ġt ick
Ġindic ated
Ġscreen ing
Ġë£ ¨
ĠIt alian
Ġp H
Ġsatell ite
op es
Ġheav ily
ĠTh ough
Ġmort ality
ast y
ult ane
ĠVict or
Ġann ounced
Ġh oles
Ġprom inent
Ġstat istics
it tle
ĠH oly
Ġíģ´ ë¦Ń
Ġnutrition al
Ġph osph
ìĪĺ ìĿĺ
Ġent ertain
Ġany where
ìĿ´ ê¸°
A re
Ġg ro
Ġì°¸ ê³ł
ĠTe ac
7 1
ĠL ow
Ġê² ¬
ĠEngine ering
I R
ĠíĿ Ĳ
ĠìĪĺ ìĿµ
Ġsubsequ ent
Ġbig ger
ê³ ¤
ĠíĮĲ ëĭ¨
Ġìĸ´ ëłµ
res ent
Ġl aser
Ġweak ness
Ġ3 3
Ġpass age
Ġlimit ations
ëħĦ ìĹĲ
Ġ Â·
ĠM ult
Ġident ification
ĠL ead
Ġgu ard
Ġra b
Ġpro s
A m
Ġë° ¤
? "
ìĸ´ ë¥¼
c her
Ġìļ ķ
ol esc
Ġwar ning
ë¦ ¿
Ġrob ot
Ġpass ing
ur ric
el esc
Ġ id
Ġapp s
Ġdri ver
ìĽĲ ìĹĲ
Ġst ores
ĠMich ael
eg a
Ġag reed
Ġparam eters
Ġro ads
Ġequ ally
Ġinit ially
Ġcarry ing
F A
Ġam azing
br id
Ġconstruct ed
ĠU V
Ġar ray
Ġnit rogen
Ġbe es
Ġfem ales
are nts
Ġcor rel
¬ ìĺģ
Ġdef e
ĠìĤ´ íİ´
Ġrhy th
Ġenh ancing
Ġmeas uring
Ġproport ion
Ġit em
ëıĦ ëĬĶ
Ġdiv ision
Ġìĺģ ìĥģ
Ġmar ks
Ġre aching
Ġì°¨ ëŁī
Ġdoll ars
Ġgrow s
ë°© ë²ķ
ĠíĬ¹ ì§ķ
Ġla unch
ia h
Ġw ine
ìĭľ ê³ł
ĠL ist
Ġë³´ ëĬĶ
¤ ëĭ¤
ĠCent re
Ġrel ie
ìĹĨ ëĬĶ
Ġp in
Ġsm ell
Ġdeep ly
ĠIm pro
º ¼
Pe ople
Ġim aging
te en
Ġvol can
or ph
Ġtw enty
B efore
g ov
it ting
Ġê°Ĳ ìĨĮ
Ġd ates
Ġem pt
Ġm ales
sec urity
Ġcont rovers
Ġrespect ively
Ġmaintain ed
k m
at ial
Ġvoc abulary
Ġunivers al
Ġtrig ger
Ġdis abilities
Ġex clus
Ġê° ĳ
Ġpl us
fl amm
Ġreport ing
ì» ¬
R eg
ê¸° ìŀĲ
ad vant
ë§ Ľ
Ġsur ge
d f
Ġp ounds
Ġabs ence
Ġëģ Į
Ġthere by
Ġj oy
ri er
es h
ë² ¨
ad y
Ġbi om
othe rapy
Ĩ į
ill a
Ġal ter
Ġsp in
ĠChrist mas
ĠCarol ina
Ġthr ive
az ine
Ġout door
ĠëĮĢ ìĿĳ
Ġmere ly
on ym
ep ing
H S
5 8
Ġsc hed
Ġìłľ ì¡°
ĠGe org
Ġn one
ĠA gency
Ġt ack
Ġast hma
Ġtarget ed
ĠL o
Ġfor th
Ġro cks
ìĸ´ ê°Ģ
Ġsen ior
ĠI dent
Ġin n
Ġinsp ired
Ġimag ine
Ġab and
ĠM ach
ĠìĿ´ ìłĦ
Ġinterp re
ĠIS BN
Ġpur su
ĠFore st
Ġbacter ial
ĠCons ider
Ġessential ly
Ġr an
ĠI D
ĠP enn
ìĿ´ ëŀĢ
ure au
Ġcontain er
ìķĺ ìĬµëĭĪëĭ¤
Ġsens or
Ġantib iotics
Ġmole cular
Ġë¶Ħ ìľĦ
Ġn ob
Ġê³µ ê²©
ĠìĿ´ë£¨ ìĸ´
Ġstate ments
Ġrad ical
Ġcon vey
ê² ¼
Ġdecl ared
ĠìŀĪ ê¸°
Ġê²½ ìĺģ
Ġch am
ress ing
ìĸ´ ëĤľ
pl ing
Ġremov ing
ĠE c
7 3
ĠP et
u h
al ities
Ġcapt ured
Ġíĳľ ìĭľ
Ġremark able
Ġele ction
Ġfish ing
Ġimprove ments
Ġgra ins
Ġcomp ris
Ġfu els
Ġê½ ĥ
ĠPro cess
Ġreve al
an o
ĠìķĦ ëĭĪëĭ¤
ol ving
ĠL im
ont al
C A
lish ing
ĠW i
ĠWith out
ĠV iet
Ġkeep s
Ġconfirm ed
Ġê°Ļ ìĬµëĭĪëĭ¤
ë§Į ìĿĺ
Ġattem pts
ĠìłĦ íĻĶ
ã Ĩį
Ġin her
Ġnavig ate
Ġparalle l
ĠìĹ° ëĿ½
ĠFin ally
ĠF und
Ġaud io
Ġì¡° ê±´
ĠP ot
ëıĻ ìĤ°
Ġbi ology
) âĢĻ
Ġsav ings
Ġcreat ures
y al
Ġout er
Ġp estic
Ġë§Į ì¡±
Ġdri vers
Ġintrodu ce
íķĻ ìĥĿ
ĠB rown
ĠE st
Ġìłľ ìĭľ
ĠCh icago
Ġadv is
et ary
Ġachie ving
Ġgr ant
ëĭ¨ ì²´
ĠSupp ort
ĠT ype
Ġfl av
ĠìĽĢ ì§ģ
ĠZ eal
Ġblock chain
Ġìī ¬
ĠCol l
ëĬĶ ì§Ģ
Ġë¯¼ ì£¼
ìħ ľ
z heimer
Ġtem ple
Ġs hed
ec ess
Įĵ ê¸Ģ
ìłĲ ìĿ´
Ġc oc
Ġmod erate
ìĽ ¨
Ġìº ł
Ġíĺ ľ
ë§İ ìĿĢ
ĠìĿ¼ ìĿĦ
Ġfasc inating
Ġunus ual
ir al
Ġinterpret ation
lev ision
Ġìĭ ¸
ĠH osp
7 2
ad ed
ĠëıĻ ìĭľìĹĲ
Ġapp lying
Ġíķµ ìĭ¬
ìĭł ë¬¸
Ġcar bohyd
Ġc ort
ë³´ ëĬĶ
ro t
Ġm ir
ĠM er
ĠL ight
Ġê°Ļ ëĭ¤
Ġìŀ Ķ
ĠìĦ Ŀ
Ġ4 8
Ġsc r
ĠIr ish
Ġintegr ity
as ant
a very
ĠìĺĪ ë°©
Ġdevelop ers
Ġcoun sel
ĠF ire
íķľ íİ¸
E E
ĠíķŃ ìĥģ
Ġplan ned
ne ys
Ġweap ons
Ġrare ly
ĠT re
Ġcompet itive
5 3
Ġpres erve
ìĦ± ìĹĲ
Ġent hus
o ir
Ġhard er
oun ce
Ġìĸ´ë¦° ìĿ´
Ġmet als
Ġmus ical
Ġê°ĢëĬ¥ íķ©ëĭĪëĭ¤
o T
ĠRes ources
Ġconsum ed
r ance
tain ing
et ime
Ġinvestig ation
ple te
Ġpublic ation
ec on
O M
Ġwhe el
Ġìŀ¬ ë°°íı¬
en er
ĠP op
Ġcomplex ity
Ġupd ated
Ġloss es
ry pt
ĠA R
iv a
ĠìĹŃíķł ìĿĦ
Ġind igenous
Ġëĭ¨ ê³Ħ
ĠíĻĪ íİĺìĿ´ì§Ģ
g ical
Ġhorm ones
Ġc ircle
un icip
r ating
ĠM ethod
ĠSystem s
elf are
r ary
ĠA st
Ġê·¸ ë¦¼
ra ys
Ġboy s
Ġent ered
ĠPart y
Ġaddress ed
Ġkil omet
ig an
20 15
Ġpass ion
ê°Ģ ê°Ģ
k ins
ìĹĪ ê³ł
rou s
Ġëª¨ìĬµ ìĿĦ
Ġex ceed
Ġê²½ ì°°
ra ine
ëĮĢ ê°Ģ
ol i
ĠS up
an i
al i
Ġbehavior al
Ġsit ting
ĠëĤ´ ëł¤
ĠFace book
ĠF ort
Ġas p
the less
ëįĶ ëĿ¼ëıĦ
Ġmay be
ĠZeal and
pt om
Ġsw it
Ġtax es
Ġqu iet
Ġne ither
Ġemot ion
Ġdet ected
T H
ĠëĮĢ ì¶ľ
íļĮ ëĬĶ
iction ary
Ġaccur ately
D espite
i ary
ative ly
ĠD igital
ĠìĿ´ ë²¤íĬ¸
Ġwrit ers
Ġperson ality
Ġfin ished
ëłĪ ìĬ¤
Ġep is
Ġman ual
ĠìĿ´ìĥģ ìĿĺ
ĠAm ong
Ġmin ute
ĠProt ection
um s
P er
O P
ĠRich ard
ĠP akistan
ment ia
Ġam pl
ĠOrgan ization
o ids
Ġcontrib utions
ëĶ °
Ġìµľ ì´Ī
Ġec ological
in f
Ġr oughly
ĠìĹħ ëį°ìĿ´íĬ¸
Ġìµľ ìĨĮ
êµ¬ ìļĶ
Ġ1 000
Ġemphas is
ag raph
Ġpl a
Ġdisc om
Ġd uration
ĠSu per
Ġhygien e
ĠìĽ ĥ
Ġhus band
ĠM oon
Ġcan n
ì½ľ ê±¸
Ġê² ©
Ġvari ations
Ġr itual
ì´ ī
Ġcomm ission
ĠìĨĮ ìŀ¬
ĠYou ng
Ġbroad er
ĠWh o
ì§ Ŀ
ĠAdminist ration
ì ¿
ĠM el
êµ¬ ë¥¼
Ġpro hib
Ġex haust
íĭ ±
Ġpur s
C o
6 4
Ġsome what
ìĺģ ìĥģ
ra v
Ġar rest
ë¯¼ êµŃ
ìĹħ ìĿĦ
Ġsc ar
ĠDirect or
it arian
Ġearth qu
w ords
Ġmathemat ics
Ġc ul
Ġd rought
Us ing
6 9
Ġl ens
Ġneighbor hood
as y
Ġemp ower
Ġregul atory
Ġc ab
em a
t les
Ġcontrib uted
ĠíĻľ ìĦ±
! âĢĿ
ìĨĮ ê°ľ
Ġcor on
Ġw isdom
Ġsl avery
ĠN az
íŀ Į
Ġdiscuss ions
ain ed
her ic
ri z
ĠëĲĺ ìĹĪëĭ¤
íļĮ ìĤ¬
Ġë°Ķ ëĿ¼
ĠOn line
ĠAtl antic
e enth
Ġm g
Ġ5 5
7 4
Ġinter face
ĠA ND
Ġconcer ning
Ġdef end
Ġsub t
ëĿ¼ ìļ´
Ġnew ly
Ġf ed
Ġdeterm ining
Ġfriend ly
Ġaccomp an
Ġbran ch
os h
ê°Ģ ê²©
ë¶Ģ ë¥¼
ĠR om
ê°ľ ìĿ¸
ĠMicro soft
ìŀĲ ëĵ¤ìĿĺ
ĠSw ed
Ġad m
ì¼Ģ íĮħ
8 1
ĠO per
ĠII I
ĠìĤ¬ìļ© íķĺëĬĶ
Ġus ual
Ġdefic iency
Ġperform ing
Ġë³´ ê¸°
Ġl ib
u rolog
Ġag ed
Ġad j
ustain able
cl ass
Ġcompl iance
Ġform ing
Ġë¬¸ìłľ ë¥¼
Ġhuman ity
Ġt ropical
í ĩ´
ĠëĶĶ ì§ĢíĦ¸
Ġcontrib ution
Ġd ance
Ġflow s
a o
t rans
Ġun iform
et ing
Ġsign ed
ĠìĹ ¼
ap es
Ġw ider
Ġminim al
Ġìĺ¤ ìłĦ
Ġsc ript
íķĺ ëĤĺ
Ġsim ultane
ë§ ¨
Ġìłľ ê±°
E ar
ĠëĤĺ ìĺ¨
Ġp ets
ck ing
ìĿ´ ìŀĲ
Ġla id
Ġtransl ation
all ow
er ies
aw s
ĠPl ay
ĠL ess
Ġì§Ģ ìłģ
Ġìĭ¶ ìĿĢ
Ġs am
ĠMod ern
Ġneut ral
ĠInc re
he a
F T
Ġfair ly
ĠëĮĢíķ´ ìĦľ
Ġloc k
ru it
g reg
Ġmicro sc
Ġfl avor
Ġj oints
Ġfour th
Ġê¸°ëĬ¥ ìĿĦ
b ar
om er
Ġcollect ive
ì¹´ ëĵľ
ĠíĨµ íķ©
ĠKe y
Ġprogram me
ur a
ìĺ¤ ëĬĺ
ĠL ar
Ġexam ined
al m
qu ir
ut en
8 3
Ġvar iation
Ġp y
ëĤ´ ìļ©
5 4
ìĸ´ ìķ¼
Ġdiscom fort
Ġì§Ģ ê¸ī
Ġlung s
Ġdis ability
Ġ199 7
se ll
Ġphys ically
Ġcere mon
ëĵ± ë¡Ŀ
Ġê°ģ ê°ģ
ht ml
ëŁ Ń
ĠT ry
ĠAss ess
Ġ19 50
re y
ĠE ffect
ëĵľ ìĭľ
B M
ë¦¬ ì¦Ī
ìķĪ ìłĦ
ĠM D
eut ic
5 2
Ġg ases
ĠìłĦ ìĭľ
Ġquant ity
Ġl ake
Ġex ception
l ock
Ġgra in
ëª ¬
Ġì²´ íĹĺ
Ġexperim ental
Ġìĭľ ì¦Į
Ġsuper ior
ow ered
Ġprin ted
Ġiniti ative
Ġë³´ ìľł
ĠAl zheimer
Ġper m
ìŀĦ ìĿĦ
Ġox id
ìľ¼ ëĭĪ
Ġíıī ê·ł
Ġmos quit
Ġm ixture
Ġjud ge
ag on
Ġconsider able
Ġc as
Ġë°© íĸ¥
Ġg ent
ir ms
Ġcre w
Ġpro ceed
ìłķ ìĹĲ
Ġpay ment
Ġì ı
ìĹ° íķ©
ëŁ ´
Ġopp osed
Ġfe els
ist ant
ĠIn vest
it ory
ĠìĪ ¨
et te
Ġì° į
Ġsou l
ì» ¨
Ġseem ed
ĠíĬ¹ ìłķ
ĠA M
Ġphys ician
ĠW ik
ëĵľ ë¦¬
Ġdiam eter
Ġobserv ation
Ġf inger
Ġì°¸ ê°Ģ
ĠF ind
Ġag ing
Ġê¸° ëĭ¤
or ic
ĠìķĦ ì¹¨
íķ¨ ìĿĦ
Ġíĸī ìĤ¬
5 1
Ġtem porary
ber ry
Ġob st
N C
Ġë§Ĳ ìĿĦ
Ġl ie
Ġoccur ring
ĠMart in
ur ren
Ġchann el
ĠìĦł ë³´
u gg
ĠU r
Ġm eth
ìļ´ ëıĻ
S he
ëĵ¤ ìĹĲ
ĠP DF
ĠAn alysis
Ġev il
ĠIsl am
ĠAs k
Ġì´ ī
E d
ĠëıĦ ìŀħ
ial s
ild ren
ot ype
Ġcal m
3 00
Ġur ine
ail ed
ĠDist rict
ëĬĶëį° ìļĶ
ĠV er
Ġëį ¤íĶĦ
ĠAut hor
Ġíİĺ ìĿ´ì§Ģ
Ġhabit ats
Ġtra its
Ġposs ibilities
Ġcon j
ĠPr inc
Ġscient ist
Ġsc ope
Ġemerg ed
Ġo m
Ġc aught
Ġìĺ¤ ëŀĺ
Ġb ag
ë¹Ħ ë¥¼
Ġdec ay
Ġass ume
ĠìĦ ¬
ĠíĿ ¥
ĠP lease
Ġeld er
Ġreg ulate
ĠìĻ¸ êµŃ
Ġìłľ ëĮĢë¡ľ
ost er
Ġr anging
L S
Ġor bit
an es
Ġsum mary
Ġinst ant
ĠíĨµ íķľ
Ġst uff
Ġfar ms
Ġcover ing
itc hen
ì§Ģ ì§Ģ
Ġprior ity
Ġëª¨ ë°ĶìĿ¼
20 14
ĠD en
Ġìŀħ ëł¥
Ġapp eal
Ġis lands
Ġì¼ ĢìĿ´
ê·¸ ë£¹
Ġcelebr ate
ĠìĪľ ê°Ħ
Ġfall ing
Ġprec ision
ĠR ock
Ġinstall ation
Ġun p
un ning
Ġd imens
ì ©
ĠU k
EN T
ìĿ´ ìħĺ
Ġd airy
ìĿ¸ íĦ°
Ġsp ots
Ġag ent
Ġfac es
Ġmod ified
Ġtransact ions
per or
ĠU t
ĠN ever
Ġoffic ers
ĠRead ing
ëıĦ ìĭľ
ìĵ °
ëħĦ ê°Ħ
Ġrest ric
Ġhe nce
Ġimpro ves
Ġs aving
Ġsp ray
Ġinf ant
Ġst ations
ogen ic
C ol
Ġisol ated
Ġgal ax
ĠìļĶ ê¸Ī
Ġpl ot
Ġìľł ëŁ½
Ġpopular ity
ĠE p
Ġher b
Ġì¹ ¼
Ġsect ors
Ġc ure
Ġt ables
ĠRem ember
8 2
Ġinflu ences
Ġì» ¬
ĠìłĦ ê¸°
Ġenh anced
ĠB ill
eg u
Al so
ĠPre vention
Ġdeg rad
Ġen emy
Ġìļ°ë¦¬ ìĿĺ
Ġbut ton
Ġincorpor ate
im m
com pass
n ight
Ġê³µ ìĹ°
ĠM en
ê ½
ur ated
ë¹ Ī
Ġassign ed
ri p
ĠêµĲ ìĪĺ
es ium
Ġì ±
ĠC D
ov es
inc luding
Ġille gal
ĠìłĦ íĨµ
Ġarg ue
Ġê¹ Į
ail able
C om
ë§ ¥
Ġt ension
ĠëŃ Ĳ
5 7
Ġro se
ĠTreat ment
Ġmathemat ical
ĠB ack
ì§Ģ ìĿĺ
Ġê°Ħ ëĭ¨
ìĭ ¸
Ġì¢ħ ë¥ĺ
ìĿ´ ë²Ħ
íĬ¹ íŀĪ
ĠAm azon
Ġc otton
ript ions
R em
Ġshap ed
~ ~
° ëĭ¤
Ġëĵľ ëŁ¬
ĠReg ular
Ġì¤ĳ ìķĻ
Ġs oph
Ġphr ase
ĠT op
O D
at ile
our se
roll ed
W here
ê·¸ ë¦¬ê³ł
Ġclaim ed
Ġabsor b
ĠìĤ¬ ë¡Ģ
ĠInd igenous
T ra
iz ers
Ġ %
ĠD ar
ĠD ou
Ġ3 9
Ġìŀ¬ ë¯¸
Ġprov ed
ìĿ´ ì§Ģë§Į
Ġë¶Ģ ëª¨
Ġpow der
ĠMod el
Ġfind s
Ġìļ° ìĪĺ
Ġsuff ered
ograph ical
d ef
Ġtransform ation
le te
ĠH ill
ĠH T
pl ay
Ġíĺģ ìĭł
ass ion
Ġexhib it
20 21
Y es
Ġy e
Ġê³¼ ê±°
Ġwor st
ist ed
ë£Į ë¥¼
ul pt
Ġst ones
Ġpromot es
Â ®
m od
Ġê·¸ ëĮĢë¡ľ
Ġë© Ģ
ĠìĿ¸ ì²ľ
Ġê·¸ëŁ° ëį°
Ġatt ach
h ar
Ġir rig
ĠíĶĦ ë¦¬
Ġcount y
ap or
se mb
Ġsever ity
ree k
Ġprefer red
ast ics
ĠAng el
Ġì§ģ ìĽĲ
ê°Ļ ìĿĢ
íķĻ ê³¼
Ġl ip
Ġ3 4
ĠìĿ´ ë
ìķĦ ìĦľ
Ġresearc her
Ġmotiv ation
Ġen orm
ip e
ĠF act
. (
íĨµ ìĭł
Ġbe ans
Ġant icip
Ġpo em
Ġìĸ¼ë§Ī ëĤĺ
Ġre ct
Ġpsych ology
Ġcirc ulation
Ġë§Į ëĵľëĬĶ
ĠìľĦ ìĽĲ
Ġìŀ¥ ìĨĮ
Ab out
Ġhigh lights
Ġmig ration
ĠL y
Ġp it
Ġprepar ing
ĠM ot
Ġwe aring
ĠH and
C ar
Ġ3 7
Ġcolon ial
Ar t
Ġìłľ ìĻ¸
Ġver tical
Ġearl iest
ĠC ell
Ġencoura ges
ic y
S im
Ġëĭ¨ ìĪľ
ê¸Ī ìľµ
ìĥģ ìĹĲ
Ġcurren cy
Ġar ise
ĠN eed
Ġthem es
Ġdent ist
ĠìłĢ íĿ¬
Ġtown s
Ġf ur
Ġcelebr ated
ĠBl ue
ĠIn it
Ġint ric
Ġt ong
S m
Ġ199 6
ĠStr ateg
re al
ìłķ ìĿĢ
Ġwhe at
Ġvers ions
U se
ob ile
Ġpre y
ĠGra nd
Ġë°©ë²ķ ìĿĦ
Ġchem istry
isc o
re m
Ġprom ise
ì¶ľìŀ¥ ë§ĪìĤ¬ì§Ģ
ou red
Ġ1 20
Ġpe oples
ĠSt ar
Ġun n
ĠQuest ions
C H
ë¶Ī ìĸ´
ploy ment
íĬ¸ ìĽĮíģ¬
Ġrest ore
Ġequ ality
Ġcontrib utes
ĠV itamin
ou nder
ĠìĿ¸ ê¸°
ĠCur rent
Ġt on
Ġprincip al
Ġbl ess
Ġview ed
Ġë¹ Ī
Ġman ager
ìŀĲ ëĵ¤ìĿĢ
Ġfin ance
Ġemploy ee
Ġë¹ Ľ
Ġë°ĺ ìĿĳ
Ġwa iting
Ġra c
ĠíĶĦë¡ľìłĿ íĬ¸
Ġt or
ĠPolic y
Ġstake holders
ìĭĿ ìĿ´
âľ ĵ
rep rene
Ġìłĳ ê·¼
Ġco at
Ġprop ag
Ġwors hip
Ġp ace
ie val
ĠìŀĲ ì£¼
Ġencoura ging
Ġë¹ Į
Ġê² ª
cy cl
ìĸ´ ëıĦ
Ġsoc ieties
ìķĦ ê°Ģ
ang er
Ġë§ ¥
Ġt rick
Ġhunt ing
ĠëĮĢ ìĭł
Ġa est
Ġplan e
d isc
Ġalong side
Ġmanif est
Ġdr inks
ê ¶ģ
Ġed itor
Ġsatis fact
Ġh ol
Ġcalcul ated
Ġc ord
rain ed
ian a
t ics
k et
ĠLe vel
ĠC ost
Ġco operation
iv est
Ġl es
ed u
Ġíĺĳ ëł¥
Ġra ising
fore st
ĠHel p
Ġcl othes
f eed
un a
ĠL in
Ġout l
Ġold est
Ġdem ocracy
Ġê²½ìļ° ìĹĲëĬĶ
ip her
ê¸° ìĤ¬
at hered
Ġdifferent ly
Ġdut y
â Ļ
Ġind oor
z ym
Ġbre aking
P art
ĠJ ul
ĠìķĬëĬĶ ëĭ¤
Ġfost er
ìłĦ ë¬¸
Ġl osing
R ef
ëĤ´ ëĬĶ
bo oks
Ġent ering
ĠHe art
Ġì£¼ ì°¨
ĠG r
ĠëĮĢ êµ¬
er ts
Ġbreak s
v a
Ġachieve ment
Ġge omet
Ġsub stit
Ġdevelop ments
re ens
Ġl ymph
Ġtrack ing
ĠC ode
Ġëĵ± ìŀ¥
Ġsymbol s
ã İ
Ġdefin itely
Ġpain ful
ĠSup reme
Ġsu g
Ġê²° íĺ¼
ĠM ah
Ġëĥ ī
Ġdyn amics
ĠëĲ Ĳëĭ¤
ëĲĺ ë©´
Ġëī´ ìĬ¤
ĠArt icle
Ġd il
ĠM ath
Ġbarri er
ĠëĤ´ìļ© ìĿĦ
Ġìĥģ ëĮĢ
ĠìłķëıĦ ë¡ľ
ĠMin ister
ĠP en
ĠëĤ´ ë¶Ģ
A A
Ġcan cers
Ġpup ils
Ġíķĺ ë©°
Ġexpand ed
Ġhead s
Ġê³¼ íķĻ
Ġpract ition
ìĬ¤ ëŁ¬ìļ´
Ġoil s
Ġdra g
Ġg iant
ort ed
Ġillness es
ask a
Ġmar g
ê²ł ëĭ¤ëĬĶ
Ġíķ´ ìĦľ
Ġêµ¬ ìŀħ
ĠI ran
th rough
Ġì½ ľ
Ġhousehold s
Ġ199 5
ĠìĻĦ ë²½
Ġgr anted
ĠìĻĦ ë£Į
ĠScot land
Ġsc ores
ĠS olar
Ġperce ived
ĠCont in
Ġt act
ic ular
Ġse at
Ġaltern atives
Ġavoid ing
Ġtrans mit
ud e
Ġsod ium
ĠíĻį ë³´
ap h
ĠëĤĺ ëĪ
Ġcall ing
Ġter ror
ë¦¬ ì¹´
ìĻĢ ìĿĺ
ĠD C
Ġt ens
Ġv an
ocol ate
e fficient
Ġê³µ ê³µ
Ġpol ar
Ġcharacter istic
P R
Ġëĭ¤ìĿĮ ê³¼
ir th
Ġdiff er
ost on
Ġconclud ed
ĠSec ret
v ol
Ġsur gical
Ġal ph
Ġf o
Ġaccount ing
ìľ¼ë¡ľ ìĦľ
Ġmetabol ism
Ġíĥ Ĳ
ìĹ¬ íĸī
ĠD om
Ġsh oot
re ction
Ġte levision
ab eth
ĠRo ad
ac ent
Ġtum or
Ġìĸ´ëł¤ ìļ´
Ġíķł ìĿ¸
Ġprof ile
Ġn ice
s or
ĠOx ford
ì¹´ ìĺ¤
v ard
Ġoper ational
er ally
Ġpack aging
Ġadop tion
6 7
l u
ĠìĿ´ ëģ
Ġre verse
ass ium
Ġpro spect
Ġacqu ired
E A
ĠìłĦ íĸĪëĭ¤
Ġrequ iring
Ġreplace ment
Ġinc ident
U R
Ġê·¸ ë£¹
Ġì¢ Į
Ġh ack
f ast
Ġmind s
Ġad olesc
ĠìłĦ íĻĺ
Ġë³´ ìŀ¥
Ġclass ified
ig are
F urther
E F
Ġeng ines
eng er
íķĺ ìŀĲ
ĠV en
Ġcontroll ing
ìĿ´ëĿ¼ ë©°
Ġë§¤ ì¶ľ
Ġì»´ íĵ¨íĦ°
Ġperspect ives
ri ze
Ġw al
pl ed
Ġste am
Ġíĺ¹ ìĿĢ
ìľĦ ìĹĲ
ĠD es
ìĬµ ëĭĪê¹Į
uck y
Ġaddress es
ìĨ Ķ
Ġwatch ing
Ġconflic ts
ange red
ĠUn fortunately
Ġì£¼ ëĬĶ
Ġë°Ķ ëŀĮ
Ġ vel
Ġinhab it
' m
Ġë¶Ī ë²ķ
ĠW all
Ġê°Ĳ ìĹ¼
Ġ9 5
Ġfit ness
Ġb omb
ĠD own
Ġacc idents
Ġdev ast
ìĭľ ì¼ľ
ag en
Ġì§Ģ ìłķ
Ġ å
Ġê°ģ ì¢ħ
Ġê·¸ ëĥ¥
Ġ3 8
Ġcon vert
Ġorig ins
Ġdis advant
arch y
Ġcon qu
Ġbu ying
ĠC ross
Ġed ition
ĠìĬ¤ ìĬ¤ë¡ľ
Ġunivers ities
ĠìľĦíķ´ ìĦľëĬĶ
Ġëĭ´ ëĭ¹
20 13
Ġê´Ģê³Ħ ìŀĲëĬĶ
s it
om ous
ê´Ģ ê³Ħ
Ġowners hip
Ġp ests
ĠPro per
ĠP ur
Ġscenar io
ri x
Ġìĭ¤ íĸī
P r
Ġble eding
Ġmount ains
ãĢ ı
Ġinvestig ate
ĠL iter
ĠC ard
Ġf ing
ĠF igure
hav ior
ĠO S
Ġmother s
Ġpu zz
Ġvar ies
at al
Ġrequire ment
ìĩ Ħ
20 11
Ġt ip
am ps
Ġacknow led
ĠìĽĲ íķĺëĬĶ
Ġreven ue
ĠK ar
ig er
Ġp ill
Ġequ ipped
ìľ¼ë¡ľ ëĬĶ
fl u
Ġth read
ĠìĤ¬íļĮ ìłģ
ĠS ar
Ġt one
ivest ock
Ġconcent rations
Ġìļ° ìĦł
L C
ric s
Ġd im
ìĽĲ ìĹĲìĦľ
ĠChrist ians
Ġë² Ĺ
ĠR ight
ris on
ic ating
Ġ ?
E ach
Ġgard ens
ĠJ ac
ĠëĬĲ ëģ¼
I F
6 3
row th
ĠJohns on
ap ing
Ġal ive
ĠP o
Ġbi as
20 12
Ġë§ Ŀ
S ec
ĠìĿ Ħ
ĵ Ĵ
ëį ¤íĶĦ
Ġê¶ģ ê¸Ī
Ġconscious ness
ad ow
Ġsp inal
ĠV ar
Ġscenar ios
Ġìĸ¸ ë¡ł
ëŁī ìĿĦ
Ġd ense
Ġinc ent
Ġline ar
ë¬¸ ìĿĦ
ĠìĻ Ķ
c led
Ġmed itation
ĠK h
Ġglob e
ëľ »
ë° ĸìĹĲ
ĠHosp ital
Ġcl ock
ë®¤ ëĭĪ
Ġëĵ± ìľ¼ë¡ľ
Ġpe er
Ġsens ory
Ġwe igh
c re
Ġpay ing
Ġto b
Ġcat tle
ìĭł ì²Ń
u ity
ì¹´ ëĿ¼
Ġpresc ribed
í ĳ¸
as hes
ìº Ĳ
it ical
Ġadop t
op l
Ġinvest ments
ĠS und
ĠìĿ¸ íķľ
Ġì´ ¬ìĺģ
Ġgir l
Ġmy st
ĠB al
ĠT im
Ġelect ed
m ia
ment ed
6 8
d ep
Ġf ires
Ġqual ities
ĠCo ast
Ġìĸ ĺ
ĠìĤ¬ëŀĮ ìĿĢ
ì¦Ī ëĭĪìĬ¤
íķĺ ëĭ¤ê³ł
Ġveget ation
ĠH or
ëĭĺ ìĿ´
ĠTh ree
ĠìĿ´ ëĤ´
Ġear s
Ġassess ments
Ġc ough
ang le
Ġëĭ¤ìļ´ ë¡ľëĵľ
E ng
Ġsol ving
Ġsw elling
Ġlog ic
ic on
ìłķ ìĿĺ
Ġreflect s
ĠSp irit
ë¯¼ ì£¼
Ġholid ay
is ations
Ġ ..
ol n
Ġhum idity
ĠE S
Ġdirect ed
ur ning
Ġvir al
Ġhapp iness
Ġinter ior
ĠT able
Ġë°ĺ ëĵľìĭľ
ëĵľ ë¡ľ
Ġallerg ies
Ġê±´ ìĦ¤
Ġnut s
Ġagg ressive
Ġqu arter
ĠColumb ia
Ġë³´ ìĿ¸ëĭ¤
íĺ¸ íħĶ
ëł¤ ë©´
ëģ Ķ
Ġíĸī ëıĻ
Ġëĭ¬ ëŁ¬
Ġveget able
a wn
Ġreason able
Ġì°¨ ì§Ģ
ĠPal est
Ġadapt ed
im p
ĠT ool
Ġf lying
] ,
Ġìµľ ì¢ħ
ĠHe ad
ĠB uilding
ë³´ íĺ¸
Ġwrit es
Ġatt itude
ĠF our
spec ific
Ġal umin
Wh o
y er
bor ne
ĠF uture
Ġh all
âĸ ²
Ġìļ° ëł¤
íĸĪ ì§Ģë§Į
Ġmembran e
E G
agn etic
Ġmedic ines
Ġutil ized
ì¹ĺ ê³ł
Ġspecial ist
arm ing
ĠìĪĻ ë°ķ
Ġg ly
Ġì²Ń ëħĦ
ì ĩ¼
Ġresist ant
pt ic
Ġsent ences
Ġr ational
Ġë§Ī ìĤ¬ì§Ģ
Ġë¶Ģ íĥģ
av irus
Ġexp enses
Ġëª© ìłģ
íĭ ´
Ġtob acco
Ġdeb ris
Ġassemb ly
Ġs ad
Ġsh orter
est ion
Ġwonder ful
Ġsu it
as ma
H ist
ĠS and
Ġrest oration
ĠìĦ¤ ê³Ħ
Ġinvolve ment
ìĤ° ìĿĦ
ur is
ĠI V
Ġmist akes
Ġconf erence
íĺĦ ìŀ¬
Ġprev ents
Ġev ident
ĠE r
Ġpro x
ì° ®
Ġëį ķ
Ġê± ±
iz z
u is
Ġto mat
ac les
P D
Ġne ural
Ġsepar ated
Ġde mentia
ĠW ay
ric ts
ĠíĽ Ī
ë¬¼ ìĿĺ
ip edia
i ations
ĠD iet
ìĬ ´
íķĺ ëįĺ
Ġpar agraph
ìĬ ·
Ġp ose
ĠP ain
U T
Ġrespons ibilities
Ġìłķ ìĿĺ
Ġëı ¼
ãĢ į
ĠL ast
Ġregard ed
Ġsc ulpt
ĠIsl amic
Ġimp air
Ġë§¤ ìĿ¼
ĠB u
Ġëĭ¬ ë¦¬
Ġdi arr
Ġrestrict ions
cept ions
Q L
ĠO bs
Ġdirect ions
Ġê¸° ëħĲ
Ġchar ged
Ġwithd raw
Ġm ur
ëıĦ ìĹĲ
or rect
ĠIm port
Ġìĭł ë¢°
ĠI ss
ĠìĹĨ ìĹĪëĭ¤
Ġbelie ves
Ġcommun ications
ou l
Ġb onds
Ġemb ed
Ġalgorith m
ë¬¸ ìĿĺ
am i
Ġencoun ter
ĠëıĻ ìĿ¼
ĠV e
st ration
ĠQue en
eli hood
Ġaut o
st ru
Ġë°Ķ íĥķ
bre w
Ġtem por
ĠíķĻ ìĬµ
Ġdis h
ĠìĹ¬ ìŀĲ
ĠCons ervation
ì¦Ŀ ìĿĦ
ar ium
ìļ° ìĬ¤
Ġíŀĺ ëĵ¤
Ġíĺľ íĥĿ
Ġint ention
ĠìĿ´ìķ¼ ê¸°ë¥¼
A ut
Ġexec utive
epend ent
Ġë°Ľ ëĬĶ
cent ury
Ġclass ic
ĠIm m
M an
Ġpar ad
Ġju ice
Ġchick en
Ġthy roid
Ġopin ions
Ġord ered
Ġun ion
Ġpref erences
Ġf ellow
Ġbe e
Ġm ask
Ġord ers
Ġrest aur
Ã ¤
Ġlif etime
aw are
ê·¸ëŁ¬ ëĤĺ
Ġsl aves
id al
ë©Ķ ìĿ¼
Ġì¡° ìĦ±
en cing
m ade
th od
Ġocc as
Ġman agers
iz abeth
ĠB ul
Ġhaz ards
ĠD utch
ĠUn like
ëĥ Īëĭ¤
ran ean
Ġguarant ee
Ø §
ens ed
Ġord inary
se ction
ìģ ľ
ĠApp lic
Ġcontain ers
Ġconf ident
____ ____
ĠInd ians
Ġo ste
Ġê°Ŀ ìĭ¤
Ġëĵľ ëĿ¼ë§Ī
ë¶ Ļ
f e
ĠB ang
Ġvar ied
Ġth roat
Ġp el
Ġlo ose
ĠM aterial
íĻľ ëıĻ
Ġsl ave
Ġreturn s
ìµľ ê·¼
i op
Ġestablish ment
Ġab stract
ë§ ¹
Ġinvest ors
F C
Ġspok en
ĠN ote
Ġsuscept ible
Ġlab our
ment ation
ĠìłĢ ëĬĶ
Ġconsum ing
w an
Ġext ension
Ġbur den
Ġê°ĸ ê³ł
et t
Ġspl it
Ġcalcul ate
Ð ¸
ĠF ather
ê±° ìļ´
ĠìĪĺ ìĥģ
Ġëĵ¤ìĸ´ ê°Ģ
Ġdom inant
ĠëĦĺ ìĸ´
ìĶ ¬
Ġestablish ing
íĪ¬ ìŀĲ
Ġdevelop s
ĠëĦ ĵ
Ġm ine
er ted
Ġìľł íĺķ
f unction
Ġsettle ment
N ote
ë¶Ħ ìĿ´
og ens
Ġact ing
ĠìĹ¬ ë¦Ħ
ìĦ¸ ë¥¼
20 10
ĠìĤ¬ ë¬´
b est
Ġproduct ive
Ġhosp itals
ĠíķĺëĬĶ ëį°
Ġrec re
M e
ĠAr ctic
Ġliter ary
ìłĢ ìŀĳê¶Į
Ġmob ility
ĠH indu
ê¸° ìĻĢ
Ġëħ¸ ëŀĺ
Ġafford able
Ġd ies
Ġart istic
ĠíĻĶ ë©´
ro ph
ĠH ot
Ġempt y
Ġëª¨ ë¥´
e ffective
ëĿ¼ ë©°
ĠAD HD
Ġw elfare
Ġìĭł ê²½
Ġvary ing
ì¢ ĭ
Ġsp an
aut hor
Ġm ature
f ol
Ġk illing
ĠT om
p ress
Ġ199 4
Ġl ibr
Ġor ange
Ġí ĩ´
ick ing
Ġabsor ption
O W
G l
Ġvis ited
Ġaccompan ied
Ġha ven
Lear n
Ġcl ub
Ġê°ķ ëł¥
6 1
ìłģ ìĿ´ê³ł
ĠìĺĪ ìĪł
b a
ail ing
B D
ĠT rust
ĠìĤ¬ìļ© íķĺìĹ¬
Ġexpl icit
Ġì£¼ ëª©
íĸĪ ìĿĦ
ĠRed u
Ġapprec iate
Ġf et
íĨ ¤
ĠC ast
Ġsp r
Ġstre ets
ëĭ¤ ë¥¸
il st
Ġìłķ ë¦¬
Ġê°ľ ëħĲ
Ġpen et
ëĿ¼ ë©´
Ġpro long
Ġê´Ģëł¨ ëĲľ
Ġpre ced
htt ps
ëı Ī
ĠFor ce
Ġt elling
Ġplan ets
Ġeven ing
ĠB oston
oc urren
Ġ à¤
Ġv en
Ġëľ ¨
Ġtherap eutic
ëĭ ·
Ġcorrespond ing
k ind
Ġdram atic
Ġo l
Ġreve als
Ġlow est
Ġc ust
erc ury
Ġlik elihood
ìģ ĺ
usal em
Ġarg uments
Ġleg acy
te xt
ìħĶ ìĦľ
ĠìľĦíķ´ ìĦľ
Ġsaf egu
Ġstop ped
ar ters
Ġres on
Ġat tain
Ġatt itudes
ĠÂ £
Ġutil ize
Ġclass ical
ĠìĹ¬ ìłĦíŀĪ
inc oln
Ġrep et
Ġtra ce
L ast
ak a
ĠPhys ical
ì£¼ ìĭľ
Ġisol ation
ne um
Ġadv ances
erm an
ĠF il
ĠL ee
Ġathlet es
ĠT raining
Ġconsist ently
Ġover view
Ġlast ing
ĠMich igan
M C
Ġí ĳ¸
ĠL i
Ġen compass
ĠF ar
im a
Ġê³ §
K e
ëħĦ ë¶ĢíĦ°
ĠíĿ¬ ë§Ŀ
Ġ2 50
ë° į
Ġres c
ard ing
ĠSur vey
ĠPract ice
ĠìĿĺ ìĽĲ
J ust
ê°Ħ ìĿĺ
Ġgra vity
ly mp
J oh
pl ate
Ġtra ding
Ġgu ess
íĬ Ģ
ĠOr ig
ìłĢ ëĬĶ
Ġ4 2
Ġíļ¨ ìľ¨
van ia
e em
Ġper mission
¿ Į
Ġground s
He alth
v ision
Ġin herent
Ġar thritis
ĠBe ing
ĠC lick
im ents
ë¦¬ ë¡ľ
Ġgrad es
Ġëª» íķľ
ĠìĬ Ī
um er
íĶĮ ëłĪìĿ´
ĠSm all
ê» ´
Ġëĭ¬ ëĿ¼
à ¸
ur ches
Ġind irect
am il
L ike
Ġenorm ous
Ġì¤ĳ ìĹĲ
ĠB est
íĻĶ ëĲľ
ĠR am
Ġt ab
Ġìłľ ì¶ľ
ë¿Ĳ ë§Į
ë¦° ëĭ¤
Ġfin ish
Ġtrans mitted
ìĺĢ ìĬµëĭĪëĭ¤
if ier
ĠëıĦ ì°©
Ġdi ets
ĠEconom ic
Ġv ig
r h
ĠìĦ¤ ë¦½
Ġì¹´ ëĵľ
Ġpreval ence
ĠS ir
ĠN ov
ë¶Ģ ê°Ģ
Ġì²Ń ìĨĮëħĦ
Ġbur ied
ĠPro duct
Ġê²½ìļ° ê°Ģ
Ġres erved
T able
L L
Ã ¢
Ġpe ers
Ġp ointed
Ġcy cles
Ġcontin uing
ì¡° ê±´
be an
ëħķ íķĺìĦ¸ìļĶ
ĠëĳĲ ê³ł
Ġpoet ry
Ġìŀ ĥ
ian ces
Ġb orrow
íķĺ ëĭ¤ëĬĶ
¾ Į
Ġs ulf
Ġ6 00
ìŀ¥ ê³¼
Ġp est
ĠOh io
Ġro yal
Ġdi pl
Ġbo at
ch o
Ġl ists
end ment
Ġê¸° íļį
â Ĩ
ì§Ģ ë¡ľ
ìĺģ íĻĶ
iv ities
Ġdis m
íĸĪ ìľ¼ë©°
Ġsong s
ĠD rug
Ġconven ient
Ġcorpor ate
ĠHe brew
Ġdiscipl ine
h ire
ë¡ ¤
ĠìŀĪìĸ´ ìļĶ
Ġperson nel
R S
A G
Ġest ate
Ġëķ ħ
Ġoffic er
Ġthreat ened
ģ ëĭĪëĭ¤
Ġsav ed
ì£¼ íĥĿ
ĠìĨĮ íĶĦíĬ¸
ce ans
ĠH im
ĠëĲĺ ì§Ģ
Ġt ends
Ġê¸° ìĤ¬
ĠìĦł ê±°
Ġk itchen
ìĪĺ ë¡Ŀ
Ġadvance ments
Ġwas h
ì£¼ ê³ł
ĠìłĦ ìŀ¬
Ġìĺģ ìĹħ
Ġvers us
Ġchann els
Ġstrugg ling
Ġinst ances
Ġmetab olic
ĠT H
Ġc ow
Ġìĭł ê·ľ
y ou
Ġan ger
Ġenh ances
Ġre aches
Ġpl ain
ë°© ìĨ¡
Ġì¢ĭ ìĬµëĭĪëĭ¤
Ġsleep ing
Ġì£¼ íĥĿ
Ġz ones
Ġm unicip
u an
chn ology
er as
ĠìłľíĴĪ ìĿĦ
om al
Ġdimens ions
Ġwould n
Ġequ ation
Ġbu ff
ì¤ĳ ìĹĲ
ĠëĤĺ ê°Ģ
Ġnot iced
Ġsche me
ì°¨ ë¥¼
ĠD ue
ff e
Ġíĥ ĢìĿ´
sy l
ìĦ± ìĿĢ
Ġincl usive
Ġë¹Ħ ìĬ·
Ġmov ie
Ġíķ´ ëıĦ
in ery
ĠìĪ ł
Ġdiv ine
af e
Ġíķĺ ìĹ¬
ob e
Ġconvers ion
f irst
Ġpartners hip
ìŀĲ ëıĻ
ĠC T
Ġperfect ly
í ľĺ
Ġcour ts
ë´ Ĳ
w orth
ìĤ¬ ëŀĮ
Ġdes ert
Ġpost s
Ġut ility
Ġpil ot
end ar
ê°ľ ë¥¼
ĠìłĢ ëł´
Ġopp osition
Ġsynt hetic
zym es
Ġsimultane ously
Ġcont amination
ĠAg ain
ë¹ Ľ
ĠPh ot
ĠìŀĪëĭ¤ ë©´
ĠìĦ± ê³¼
iv ate
ĠM ind
ol s
Ġst abil
Ġvis its
e or
ish op
Ġdiagn ostic
Ġê°Ģ ëĬĶ
ê´ ´
ol er
ĠíĹ Į
ĠìķĦ ë²Ħ
istic ated
Ġrepresent ing
Ġinf ants
Ġarg ued
on ents
8 00
Ġì§Ģ ëıĦ
íĮĲ ë§¤
ĠInt eg
ä º
ĠHaw ai
ĠìĬ¤íĥĢ ìĿ¼
ĠK ids
Ġcons ent
ìĿ´ ìĹĪ
ê´Ģ ìĿĦ
ĠO l
Ġfost ering
ĠGeorg ia
Ġë³´ ìķĪ
== ==
rou d
Ġg aps
b its
Ġcell ular
Ġì»¤ íĶ¼
ĠSp ring
at oes
ĠW al
Ġassoci ate
Ġtext ure
n ected
ĠìŀĲ ê²©
â Ħ
ot ypes
Ġê·¸ê²ĥ ìĿĢ
ĠJe ff
6 2
exp ected
orm s
itc oin
Ġstri ke
ĠInt ellig
o a
ĠG DP
Ġíķĺ ê¸°
ĠJer usalem
Ġer u
ĠìļĶ ìĨĮ
ĠìĿ´ë ¤Ħ
Ġprom ising
s en
w er
Ġë°ĺ ìĺģ
ì£¼ ìĦ¸ìļĶ
du ction
Ġcon clus
Ġincorpor ating
ĠìŀĪ ëįĺ
Ġanaly zed
Th rough
Ġkne e
Ġg if
Ġtong ue
ë³´ ëĭ¤ëĬĶ
ĠìłĢ ìŀ¥
ê°Ģ ìļĶ
Ġconver ted
b ell
ĠJust ice
Ġelse where
. ).
C E
Ġtre m
Ġin h
Ġread ily
k g
Ġown ed
ut ical
íķĺê¸° ëıĦ
ĠìľĦ íķĺìĹ¬
ìĦ¸ ëĮĢ
R el
Ġsp ark
ê´Ģ ìĿĢ
ĠDiff erent
ĠP rom
ìłĦ ìŀ¬
Ġprob ability
Ġëª© ìĨĮ
Ġê¹ Ĭ
Ġë§Ī ìĿĦ
Ġì£¼ ìĭĿ
ĠMed ia
ê³Ħ íļį
ĠS elf
ĠM aster
ê½ ĥ
olog ically
Ġplant ed
Ġtrib es
Ġ19 30
Ġresid ential
ĠE mer
Ġp ione
ĠR h
Ġte ch
Ġíĸī ìłķ
ro x
ou ds
ĠP ython
Ġann ually
ĠApp le
Ġover l
Ġpr one
Ġsp atial
oper ative
Ġì° ¬
Ġconvers ations
Ġd ating
aren cy
ĠìĿ´ íķĺ
Ġsym ptom
Ġinv asive
ì§Ģ ê¸Ī
ê°Ģ ìĿĺ
Ġassign ment
u its
Ġì¡° ìĦł
ĠT O
Ġref lection
health y
ĠëķĮ ëĬĶ
Ġê°ĢëĬ¥ ìĦ±ìĿ´
hem istry
ìĸ´ ë¡ľ
Ġìŀĺ ëª»
n ia
ar io
ĠBat tle
econ omic
íļĮ ìĹĲìĦľ
ĠI ce
ĠHar vard
Ġreprodu ctive
Ġn om
o ons
Ġcert ific
ìĭľíĤ¤ ëĬĶ
Ġdat as
Ġsac red
Ġdo ors
ìķ½ ìĿĦ
Ġch ap
Ġleg it
Ġë§Ĳ ìĿ´
Ġcomple ment
flamm atory
il itation
Ġë©Ķ ëī´
Ġenjoy ed
Ġsh ares
av ed
Ġhy brid
ë¦Ń íĦ°
Ġc odes
ain ts
oc ated
ov ing
Ġl ivestock
ĠPar liament
ĠìĪĺ ì§ĳ
Ġrec ording
Ġt ough
k l
ĠH aving
ë°° ìĨ¡
Ġê¸Ī ìķ¡
Ġcl ay
Ġb are
ì§ Ĳ
Ġsaf er
b our
Ġpersonal ized
Ġabund ant
ĠìŀĲìĭł ìĿ´
ĠìĬ µ
ê²½ ê¸°
Ġa ids
Ġmod ule
Ġattract ive
Ġro oms
Ġlo an
ĠChristian ity
Ġsoil s
Ġdesign ing
less ly
Ġquant ities
Ġì¡ ¸
ìľĦ íķľ
hys ical
gra de
Ġë§Ī ì¼ĢíĮħ
Ġreflect ed
u ber
Ġac res
B I
Ġì²´ íģ¬
íĻ Ģ
Ġspec ified
ĠC r
Ġìļ°ë¦¬ ëĤĺëĿ¼
Ġch air
ĠìĬ¤ íĨł
Ġconsider ations
ĠëĤĺ ìĻĢ
Ġserious ly
Ġë°° ê²½
o z
ĠC S
Ġcirc ular
Ġs ale
Ġrel iability
ì² ¨
ĠO lymp
Ġinteg ral
Ġopt ical
ë³ĳ ìĽĲ
ëĵ± íķĻêµĲ
Ġcolon ies
Ġìĺµ ìħĺ
ĠAgricult ure
ĠëĲĺ ë©´
Ġìĺģ ìĹŃ
ĠM ental
íķĺìĭľ ë©´
Ġex em
P s
Ġto ys
b ow
ĠA ction
Ġf ought
Ġ4 9
Ġcomb ine
sh aped
ĠPhil ipp
Ġw ise
M ay
ĠD esc
Ġsc al
Ġen forcement
Ġmy self
ĠCh apter
ber ries
ì£ ½
ìĶ¨ ëĬĶ
Ġst er
ĠìĹĨ ìĸ´
man n
Ġjud gment
Ġcont ents
Ġcons erv
ìĦ Ń
Ġh at
ĠìľĦì¹ĺ íķľ
ĠStand ard
ĠN ext
p ower
Ġdist ricts
Ġreput ation
ĠìĦ¼ íĦ°
syl vania
Ġoutbre ak
ìŀĲ ë¦¬
Ġìĸ¸ ê¸ī
Ġal ike
Ġwork er
Ġdistur b
ĠColor ado
Ġcra ft
Ġl on
Ġreal ized
un c
reg ular
Ġaccompl ish
ë²Ī ì§¸
ĠìĿ¸ ìĭĿ
Ġcre am
ist ing
ater al
ess ional
Ġìĭł ìļ©
Ġam ino
ĠêµĲ íĨµ
el ing
ph ones
Ġret ail
Ġult imate
ĠìķĦ íĮĮíĬ¸
Ġìĭľ ì²Ń
ĠR est
ĠC ert
Ġpriv ile
Ġking dom
Ġneg lect
4 00
Ġval ve
ecess ary
Ġirrig ation
Ġì¦Ĳ ê¸¸
Ġê³Ħíļį ìĿ´ëĭ¤
Ġsp ine
op her
ĠíĮĮ ìķħ
ĠImp act
Ġprotocol s
ìĬ¤ ì½Ķ
Ġíĥ Ŀ
ĠA z
êµ¬ íķĺê³ł
Ġal le
ê³¼ íķĻ
c in
Ġmeet ings
ĠEl izabeth
Ġmanufacture r
Ġbe at
ĠíķĦ ìĪĺ
Ġswim ming
Ġinfl ation
ĠInd ones
ĠBo oks
st ep
id ers
Ġfl ash
Ġhon est
Ġë¶Ħ ëªħ
Ġíķľ ëĭ¤ëĬĶ
íı ´
Ġcap s
Ġg ate
ìŀ¥ ìķł
Ġì¤ĳìĭ¬ ìľ¼ë¡ľ
Ġemb ry
use t
elesc ope
Ġacc ord
i ating
ĠìĦł ë¬¼
ĠP u
og y
ĠWh ich
iter ranean
ĠCam bridge
Ġspread ing
iet al
Ġcur ve
ìŀĲ ìĹĲ
íķ´ ëıĦ
Ġsoc io
M I
M od
ĠH ence
c ut
oc ity
ĠëĬ Ķ
Ġgen ome
Ġsoph isticated
Ġregist ered
Ġgent le
ĠTem ple
ĠW il
Ġh al
ide o
ĠN utrition
ĠL incoln
Ġappoint ment
íĽĦ ê¸°
Ġen erg
ê°Ĳ ìĿ´
Ġf isher
Ġun expected
ĠM ove
ĠBl ood
r at
ĠëĲĺ ìĹĪ
ë¹ Į
Ġë§ĪìĿĮ ìĿĦ
ad el
ëĭ¨ ìĿĦ
. '
Ġent reprene
ĠW riting
ug s
Ġanaly zing
Ġadapt ation
as m
Ġpros per
Ġtour ism
Ġhypothes is
Ġal lev
F inally
ĠO tt
Ġh am
Ġph ones
Ġvis iting
Ġneur ons
Ġd imin
Ġë¹Ħ íķ´
Ġg est
W S
Ġne urolog
ìĿ¸ ì¦Ŀ
Ġec o
Ġíı ´
or ig
Ġ199 2
ĠEn c
b el
Ġconf usion
Ġtherap ies
S ource
Ġë§ ģ
Ġf ant
Ġshow c
Ġë© ĭ
Ġh o
Ġ20 24
Ġevery where
Ġexp ed
Ġins pect
Ġre hab
ĠG ar
Ġpred ators
Ġë³´ ëĭĪ
Ġat oms
Ġg athered
Ġst ere
Ġb ags
N e
Ġw at
Ġg ift
Ġwe aken
Ġnurs ing
Ġìłľ ìķĪ
ace utical
ĠS aint
Ġc able
iv ation
íķĺê³ł ìŀĲ
zy me
Ġlog ical
j i
ĠìĤ¬ëŀĮ ëĵ¤ìĿĢ
Ġmitig ate
acu um
Ġapp ointed
Ġbas ically
Ġ ion
Ġ4 4
Ġviol ent
Ġë´ Ĳ
if ice
Ġì§Ģ ì§Ģ
Ġch ocolate
Ġnot able
Ġconnect ing
Ġunder ground
Ġd ict
in als
Ġpack age
oy s
ĠPl ace
le ar
Ġvirt ually
Ġë ĩĮ
ìĥģ ìĿĢ
ĠF DA
Ġdist ract
g a
ĠíļĮ ë³µ
Ġëĭ¨ ì²´
ê·¸ ëŁ°
Ġche ap
íļĮ ìĹĲ
ĠL ittle
Ġê´Ģìĭ¬ ìĿĦ
ĠMin istry
ĠìķĦ ë§Ī
Ġthor ough
Ġdisplay ed
ĠíķĺëĤĺ ìĿĺ
ter ior
Ġund ers
ĠV iew
ut her
uset ts
it us
ĠS P
Ġpoll ut
Ġ19 20
en ced
Ġref erences
d ate
Ġent it
ach usetts
Ġstat istical
ë¯¸ êµŃ
Ġr anges
Ġìĺģ êµŃ
ĠC op
The n
Ġupd ates
Ġê°ľ ìĿĺ
Ġgradu ate
m ble
Ġìĭ¤ìłľ ë¡ľ
s k
ìŀĲ ê¸°
Ġpip e
ĠìĤ Ń
Ġte ens
ìł ł
Ġëĭ Ī
íķĺìĭľ ëĬĶ
Ġ199 1
ĠI oT
Ġsusp ect
ar ks
Ġappl ies
Ġcomp at
Ġdef ault
ĠëĦ¤ íĬ¸ìĽĮíģ¬
ĠìĤ¬ ëĿ¼
ãħİ ãħİ
Ġther m
ur se
ĠëįĶ ë¶Īìĸ´
Ġsum mar
Ġpass word
ĠëĤĺ ëĪĦ
Ġë¬´ëĭ¨ ìłĦìŀ¬
Ġíĺ Ĳ
ĠíĺĦ ìŀ¥
ĠDiv ision
Ġmem ories
Ġexpand ing
ìĿ¼ ë³´
D R
ĠìĿ´ ê³³
Ġtheore tical
ìĿ¸ ê³¼
ĠëĨĴ ìķĦ
) |
Ġb ite
ìļ° ëĬĶ
ìĤ¬ ìļ©
Ġdevelopment al
Ġv om
ĠOf ten
Ġfund ed
Ġstay ing
Ġrein for
Ġp od
Ġfertil izer
at i
Ġê°Ģ ì¹ĺ
red it
ë Ģ
Ġvacc ination
g reen
Ġì£¼ ìĿĺ
Ġre ign
Ġë§Į ìĹĲ
Ġas h
F ig
íķĺ ê²łëĭ¤
ĠëĮĢíķľ ë¯¼êµŃ
Ġcopy right
Ġvict ory
ĠíĻľëıĻ ìĿĦ
Ġprov ince
v in
Ġstra w
cycl op
Ġch ose
Ġê·¸ ëĵ¤ìĿĢ
Ġref rig
Ġallerg ic
ê²ł ì§Ģë§Į
ric ks
Ġsepar ation
Ġimag ination
ĠìĪĺ ìŀĪëĬĶ
ĠìĻĦ ìĦ±
Ġunlike ly
Ġc ub
ĠEn s
Ġê²ĥ ìĿ´ëĿ¼ê³ł
Ġper pet
Ġë¹Ħ ì¦ĪëĭĪìĬ¤
Ġess ence
Ġh arsh
Ġg ear
ĠíĴĪ ì§Ī
ĠëĬĲ ê»´
st ant
il a
Ġcan al
ìĤ¬ ìĿ´
Ġcontinuous ly
Ġsu icide
Ġben e
Ġëģ Ĭ
ëĤĺ ë¬´
Ġdesign ated
Ġthor oughly
ê·ľ ëª¨
Ġ ;
ĠëĶ ¸
Ġcould n
Ġsh r
ict ions
ìĭľ ìĬ¤íħľ
Ġl ingu
ĠPro ble
Ġver b
Ġsh oes
ĠMus ic
ĠPenn sylvania
f oot
Ñ Ĥ
S C
Ġì¶ľ ìĹ°
ic ts
ìĭ¬ ìĿĦ
ay a
ĠMuslim s
Ġpaint ings
ĠIs lands
Ġë¦¬ ë·°
ĠìłĦ ìŁģ
Ġìĸ µ
Ġsystem atic
Ġfil ters
Ġun cle
9 8
Ġë¹ł ë¥´ê²Į
ĠAr ts
ĠíķĦìļĶ ê°Ģ
ĠìĪĺ ì¶ľ
Ġë§ŀ ëĬĶ
Ġìķł íĶĮ
d d
Ġrob ots
a is
ĠD O
Ġy oga
Ġcandid ate
Ġassum ed
Ġdis charge
ik a
form ance
Ġp iv
Ġprov ision
Ġíĥ ĳ
ĠY es
ë¶Ģ ìĿĺ
ira ble
Ġd oses
ëĭ¬ ëŁ¬
Ġpr ime
ĠSimilar ly
Ġconst rain
ĠëŁ¬ ìĭľìķĦ
ol ved
Ġanalys es
ios ity
el ve
ë¡ ±
Ġs ending
ê´Ģ ìĿ´
Ġsur prise
st ers
Ġë¬ »
ĠS everal
Ġto m
b ration
Ġ199 3
Ġtra il
Ġupd ate
Ġpurch ased
ent ral
ì§ĳ ëĭĪëĭ¤
Ġspeed s
ìĿ¼ ìĹĲ
ĠSh ould
ra ham
ìĿ¼ ìĿ´
Ġcomp os
ìĦ± ìĿĺ
Ġwhen ever
Ġcandid ates
Ġse es
Ġpot assium
ian ts
ĠEd ward
Ġm ouse
P N
Ġliter ally
ed ge
Ġp airs
re f
ìĬ¤ íĮħ
ĠWild life
Ġse vent
Ġflu ctu
ĠMed iterranean
Ġre vers
R L
ĠInd eed
Ġëª¨ ìĸĳ
ay er
Ġd ried
the w
ìľ¼ë¡ľ ë¶ĢíĦ°
Ġê·¸ ê°Ģ
ĠHy d
Ġnot ion
Ġì¢ħ íķ©
ĠEx amples
ĠViet nam
Ġë³´ ëıĦ
ru b
Ġin ev
Ġw ars
T C
Ġprecise ly
Ġrain fall
Ġse gment
Ġë¶Ī íİ¸
Ġwood en
Ġheav en
Ġprec ip
ĠA ff
Ġsh ade
Ġer osion
Ġexist ed
Ġ8 5
ĠìĿ¸ ëıĦ
Ġgod s
Ġch at
ìĤ¬ ë¡ľ
ĠCh all
d i
ater nal
Ġrepresent ative
Ġdrain age
Ġput s
Ġelev ated
Ġintellig ent
ĠìĦ± ëĬ¥
Ġf an
ĠP rim
Ġ `
Ñ ģ
or us
Ġbene ath
Ġunder go
ĠâĢ Ŀ
Ġë¶Ģ ëıĻìĤ°
Ġbra ins
ĠP ass
ĠH a
ĠìĹĲ ëĦĪì§Ģ
ĠR NA
Ġíŀ Ī
ë©Ķ ëĿ¼
Ġpen al
ag an
Ġchrom os
Ġpray er
ĠD am
od ed
ĠìłĦ íĺĢ
ĠTest ament
200 9
Ġclass ification
ĠëĤ¨ ìŀĲ
Ġb ron
ĠC H
T rans
ment al
Ġattrib uted
ot ion
. [
A c
ĠKore an
Ġse al
ĠST EM
ĠëĤ ©
Ġmet ap
os itive
ĠR isk
Ġsudden ly
Ġelder ly
ĠìĿĢ íĸī
Ġtransfer red
dr iven
Ġstruct ured
Ġsc ales
Res earch
ĠìĪĺ ìļĶ
ibl ical
ans as
ĠThe rapy
Ġcut s
ĠM id
Ġê²Ģ íĨł
Ġprov in
Ġsub sc
Ġs elling
ĠëĤ Ļ
Ġdistingu ish
Ġë³´ ìĿ´ëĬĶ
Ġcommit tee
C he
ĠC ub
Ġd ress
ĠíĶĦ ëŀĳ
ĠìĤ¬ ë§Ŀ
f ront
ĠP oly
Ġra ys
Ġpestic ides
Ġpred icted
Ġfunction ality
Ġindic ators
9 6
Ġíĸ¥ ìĥģ
ĠSt an
ëĭ¤ ìĿĮ
ĠC orn
í Ģ
ĠH um
Ġì§Ī ë³ĳ
ĠìºĲ ë¦ŃíĦ°
Ġche ese
Ġre ef
Ġfib ers
Ġpay ments
Ġ20 30
ĠëĮĢ íķĺìĹ¬
ĠíĻķ ìĭ¤
ìľ¼ë¡ľ ëıĦ
Ġj uris
b ec
Ġ @
ĠC rit
Ġ( âĢľ
Ġst ems
Ġmem or
Ġgum s
iss ance
Ġengine er
Ġen cl
ë¦¬ ìĻĢ
Ġbl ank
Ġincl usion
Ġper mit
Ġshe ep
Ġtoler ance
íķ´ ìļĶ
Ġì£ Ħ
Ġvibr ant
c ule
Ġsuggest ing
Ġbeg un
9 7
ĠìķĦ ìĭľìķĦ
ĠíĬ¹ë³Ħ íķľ
Ġk g
Ġë¹ł ë¥¸
ĠìĿ´ìľł ëĬĶ
Ġinsp iration
Ġsp oke
ent er
ĠB ased
Ġìķ ī
Ġpartic le
Ġsc iences
ĠMass achusetts
atch ing
Ġê´ ľ
Ġrepe at
ë¦¬ ìĸ´
ous es
Ġw ings
Ġcolon y
ë¹ Ļ
Ġnewsp aper
ëĭ ī
Ġê°Ģ ìłķ
ë§ ŀ
Ġun em
Ġcarbohyd rates
Ġbot tle
M ar
Ġparticip ating
in er
ĠG all
Ġì ª½
ru e
Ġmamm als
ra q
ĠëĮĢ ì¤ĳ
ĠGree ce
Ġse am
Ġsett led
ìłĢìŀĳê¶Į ìŀĲ
ĠPort ug
Ġst ood
ĠëĮĢ ì²´
ĠConf erence
rib ution
Ġìĺ¤ íĶĪ
20 22
Ġì§ ķ
Ġëħ¼ ìĿĺ
Ġm uc
Ġë°Ķíĥķ ìľ¼ë¡ľ
êµ¬ ê°Ģ
ë³´ ë©´
Ġbus y
Ġdest ination
ĠS leep
Ġfav our
Ġl oud
Ġphotograph s
own ers
Ġdr ives
ĠLabor atory
ill ance
Ġcollabor ative
Ġdesign ers
lect ric
Ġal ert
ì§ ĵ
Ġpass es
ĠìĨĮ íĨµ
Ġabund ance
ĠS on
Ġë©Ķ ìĭľ
Î ±
Ġì£¼ ë¡ľ
Ġë²ķ ë¥ł
Ġapp et
Ġcoord ination
ĠHer itage
F ollow
Ġenthus i
se x
ade qu
ĠìĿ¸ ìĤ¬
R ep
Ġle ak
Ġpurs ue
Ġb ills
ĠìĪĺ ìłķ
ìłĲ ìĿĢ
ĠNav y
ĠM ess
ne a
Ġincorpor ated
omet er
Ġsched ul
Ġíİ¸ ìķĪ
P lease
ip ation
Ġen zymes
reat ing
Ġinvest ing
Ġreg ime
Ġdis hes
Ġconv in
Ġr ib
ĠAlex ander
Ġo w
st ic
K ey
pro fit
Ġpres erved
ĠS qu
Ġfil ms
Ġelect rons
ĠìĿĺ ìĤ¬
U p
Ġimmig rants
rit ten
Ġcy l
erc ise
on in
200 8
Ġreview s
Ġmagn esium
Ġì£¼ ìĨĮ
Ġë°Ķ ëĢ
ĠPh D
app ed
P ub
Ġì°¾ ìĿĦ
íŀĪ ëł¤
Ġglob ally
Ġas set
ĠB rain
Ġh ier
d a
Ġreason ing
ĠìĪĺ ê°Ģ
Ġgl ac
ik ing
Ġgra ms
Res earchers
ol t
Ġìħ Ģ
Ġsatisfact ion
ĠInd ividual
Ġtail ored
Ġstream s
Ã ±
ob ic
Ġshould er
Ġcra ck
ĠìĿ¸ ìĥĿ
ES T
b age
Ġìĩ¼ íķĳ
ĠìķĪ ìĹĲ
ĠíĻķ ìŀ¥
Ġìŀ¥ ê¸°
ĠO pt
ĠìĿ´ìļ© íķł
Ġfoot print
Ġn odes
ĠëıĪ ìĿĦ
Ġìĺ¤ ë¥¸
Ġpersist ent
Ġrecy cled
Ġê·¸ ë¦¬
ĠíĽ ¨
Ġì į¨
act ion
Go ogle
eg in
ĠBet ween
ĠìĿ´ìļ© íķ´
Ġcomp assion
Ġimp ressive
ian o
Ġabsolute ly
ĠíħĮ ìĬ¤íĬ¸
íĻĶ ê°Ģ
ĠQ uality
e ven
Ġrestric ted
Ġem it
Ġbe ars
Ġdocument ed
Ġhe al
Ġt ill
Ġtox ins
Ġworkshe ets
ĠF ed
ìķ ¤
Ġê²°ê³¼ ë¥¼
ĠíļĮ ìĿĺ
ëĳĲ ê³ł
Ġdial ogue
Ġrece ives
ĠìĦł ìĥĿ
ĠB itcoin
ê²ł ëĭ¤ê³ł
Ġê³¼ìłķ ìĹĲìĦľ
Ġar med
ĠëĤĺ ë¬´
S ub
h ost
semb ly
cl aim
Ġh urt
el ly
ĠM ur
Ġthan k
Ġprodu cers
Ġcollect ing
do ors
Ġdram atically
ĠëĤĺ ìĦľ
U M
íĸĪ ëĬĶëį°
o is
ĠìĤ¬ ìłĦ
Ġso y
ush ing
ê³ł ê°Ŀ
Ġ9 9
ëĿ¼ ìĬ¤
Ġdistinct ive
Ġpro l
Ġrel ate
ìłĪ íķľ
ĠìĿ´ê²ĥ ìĿĢ
Ġselect ing
Ļ ëĭĪëĭ¤
Ġincred ibly
Ġele ph
Ġ4 3
Ġmom ents
ì¡° ìĤ¬
ĠíĸĪ ìĬµëĭĪëĭ¤
Ġë¸Ķ ë¡ľê·¸
Ġto ile
Ġins ulation
Ġorgan isations
ĠìĹĨ ìĿĦ
g ments
ëħ ģ
Ġpath ways
IS T
ĠCon nect
Ġgram mar
Ġaccept able
ab led
u ine
z er
Ġminor ity
ĠìĦ¤ëªħ íĸĪëĭ¤
ĠTh anks
Ġì Įĵ
ĠU lt
Ġamong st
Ġê±´ ì¶ķ
Ġintric ate
Ġresol ve
ĠAssess ment
Ġcann ab
ìħ Ģ
D L
Ġshap ing
ëįĶ ëĭĪ
Ġover look
ë§Į ìĿĦ
Ġdi agram
Ġw ake
Ġex ch
Ġinfect ious
Ġëªħ ìĿĺ
ìłľ ëĬĶ
Ġextra ord
Ġprog ression
Ġdist ant
er ge
íķľëĭ¤ ë©´
ĠL os
ëĤ ¼
ĠN ob
Ġl akes
Ġsh ore
res hold
Ġb orders
ĠE PA
ë° ¥
Ġwind s
f ire
2 000
ĠT yp
Ġoverwhel ming
Ġfert ility
P V
íķ¨ ìľ¼ë¡ľìį¨
Ġdem ocratic
Ġu l
Ġpres ervation
ĠìĺĪ ìĪĺ
ĠFranc isco
m ond
m ail
ĠConf ed
ĠìĨĶ ë£¨
Ġdispl ays
ĠG ulf
Ġsurve ys
Ġëį° ìĿ´íĬ¸
ĠV an
Ġgener ating
ëŁī ìĿ´
quir y
ĠC A
Ġstr ange
Ex pl
in flammatory
Ġspace craft
ri pts
on ics
ìĿ´ëĿ¼ ë©´
aw a
Ġpart ial
ìĤ¬ ëŀĳ
ĠìĪĺ ìĪł
ĠìĨĮíĶĦíĬ¸ ìĽ¨ìĸ´
ĠìĬ¤ë§ĪíĬ¸ íı°
Ġp oin
ugh t
erm at
Ġê²¨ ìļ¸
T wo
Ġsc hem
om ers
Ġqual ified
Ġas ide
ĠSund ay
ĠíĽ¨ ìĶ¬
Ġìĭľ ë¦¬ì¦Ī
ane ous
ì° Į
end a
i ro
Ġì±Ħ ëĦĲ
Ġcontin ent
Ġcontamin ated
ĠI de
Ġj ew
Ġìĺ Ĩ
, âĢĻ
ë¨¼ íĬ¸
Ġdro pped
Ġr ough
Ġexc lud
Ñ Ģ
ĠA ud
ìĿ´ ìļ©
Ġpl ates
Ġsuggest ions
ìº ł
ĠíĻķìĿ¸ íķł
ĠE V
ok ed
ĠìĨį ìĹĲìĦľ
Ġshel ter
Ġpl acing
out heast
9 3
ĠìĤ¬ìļ© ìŀĲ
ëĭĪ ìķĦ
ĠS K
Ġfra ud
Ġê°Ģ ëĵĿ
Ġpresc ription
Ġmodel ing
Ġtum ors
Ġìķŀ ìĦľ
Ġelectron ics
if er
Ġpred om
ĠCle an
P G
Ġident ical
ĠRe al
Ġc ope
ĠPer haps
ĺ ĳ
æ ľ
Ð ½
oc a
ot ing
Ġì»¤ ë®¤ëĭĪ
O s
Ġfra ction
Ġshe ets
ê³¼ ëĬĶ
Ġin ch
Ġcare g
ĠS ection
a fter
ĠS n
âĢ¦ âĢ¦
ist ent
9 2
Ġch urches
ĠíķĺëĤĺëĭĺ ìĿĺ
Ġpip es
f ly
ĠAre a
ë§Į íķľ
Ġtransform ed
íķĺê¸° ë¡ľ
C R
Ġinc idence
t ension
ë¶Ħ ìĿĦ
ì±Ħ íĮħ
ple x
ĠB a
ĠJ ava
Ġì¤ĳ ìĿ¸
Ġgovern ance
Ġsem i
ĠìĹĦ ì²Ń
Ġreal istic
Ġwas hing
ì½ ©
Ġ19 40
Ġê²ĥ ìĹĲ
ë£ ¸
Ġìĭ¤ ìĭľê°Ħ
Ġexc av
Ġì§Ģ ì¼ľ
Ġmonth ly
ĠëıĦ ìĽĢìĿĦ
Ġde er
ĠìĻĦ ìłĦíŀĪ
Ġo ceans
Ġdiv ide
inc ome
Ġindepend ently
ĠìĹĦ ë§Ī
Ġcrypt ocurren
ĠWe ek
Ġ es
ê·¸ ëĬĶ
Ġsubs id
ĠA T
Ġë ½
Ġinsp ire
Ġse iz
Ġvolunte ers
ra it
at us
ard ed
ĠFr id
Ġ6 4
H igh
ver ages
imens ional
ĠíĿ ¡
ik es
H T
Ġë¹Ħ íĮĲ
Ġconduct ing
Ġsurpris ing
Ġdigest ion
Ġcam eras
ĠL og
Ġê¸° ì´Ī
ë¶Ħ ìĹĲ
Ġì² ¨
u ct
Ġincred ible
ĠíĻľìĦ± íĻĶ
Ġn ic
Ġsu p
ĠP ut
Ġc oding
ìĤ¬ ê³ł
ĠL at
Ġpers u
Ġstret ch
ë³Ħ ë¡ľ
Ġë¹ ¼
un ar
Ġch ains
ëĵł ì§Ģ
W ater
ì²´ ë¥¼
is ition
v it
Ġcap ability
ĠL ocal
Ġon set
Ġsole ly
Ġattrib utes
Ġinv ention
Ġreal m
o om
Ġ8 00
et he
ĠL ine
ĠìĥĿê°ģ ìĿ´
Ġê¸°ìĪł ìĿĦ
Ġdrop s
ri um
Ad ditionally
íļĮ ìŀ¥
Ġcos m
ry ption
Ġrec all
ĠSym ptoms
Ġel ig
Ġimmun ity
ĠP aper
Ġìĺ ·
ìĿ¼ ë³¸
Ġreg ister
ëł ¬
ĠDan iel
p age
Ġcitiz en
ëĮĢ ëĬĶ
Ġdut ies
ĠC R
Ġë ¿Į
Ġbr id
ë¥´ ê¸°
íĸĪëĭ¤ ëĬĶ
íģ Ĳ
Ġstra ins
eng ers
ino is
ĠR en
in ance
Ġexpl ored
Ġinj ured
ĠM A
ĠIntellig ence
Ġspeak er
Ġsk illed
Ġp ink
âĸ ¶
ìĥģ ëĭ´
íĴĪ ìĿĦ
Ġbe ach
Ġì¶ľ ë°ľ
ĠC ond
Ġacqu ire
Ġë¶Ī ê°Ģ
ãĢ ĭ
Stud ents
Ġdiarr hea
ĠC orpor
Ġseason al
Ġstrength s
Ġpreval ent
Ġappro val
Ġla wn
ĠìŀĪëĬĶ ì§Ģ
ĠíĨµ ê³¼
Ġfing ers
Ġphilos oph
Ġnum er
ĠìĹ ĺ
Ġint r
íĿ ¡
Ġì¹´ íİĺ
ĠìĿ¼ ìłķ
the re
Ġenvironment ally
Ġb er
ol ine
ĠTw itter
j ud
ĠìĿ´ëģ Į
Ġarchitect ural
Ġfore cast
Ġê²½íĹĺ ìĿĦ
ĠTr ump
Ġoccup ied
ul ates
Ġflu or
ê´Ģ ëł¨
Ġfact ory
ì¹ ¼
a ver
ĠìĿ´ë¯¸ ì§Ģ
ĠI raq
al so
Ġëĭµ ë³Ģ
ë³´ ëĭĪ
Ġcele bration
Ġ4 1
Ġalumin um
ê° Ķëĭ¤
Ġê³ ¡
ĠN ame
ĠGard en
Ġevol ve
Ġemp athy
az e
gen er
ond ay
ëįĶ ëĿ¼
z one
Ġextra ction
im en
Ġindic ating
Ġb ub
Ġt ort
Ġdisp osal
ĠC DC
ĠSo ft
Ġend angered
Ġleg end
Ġì§ §
Ġsym b
ê¸° ê³ł
íķ µ
ĠF red
Ġinflamm atory
' .
ĠComp uter
ê¹ ¨
¼ ìĨĲ
ĠCon vention
ĠD yn
ĠM oses
Ġflu ids
Ġdes k
Ġl oyal
i ors
Ġed ges
ĠT own
ĠN eg
Ġend ing
Ġsurround ed
ë¬´ ë¦¬
Ġcateg or
S cient
Ġrem em
ĠêµĲ íĻĺ
Ġp neum
D ata
Ġë§ º
Ġteac hes
Ġhazard ous
Ġê²ĥ ì²ĺëŁ¼
Ġim bal
Ġrout es
ë²ķ ìĿĦ
h ops
gh an
ĠEgypt ian
Ġconsequ ence
Ġancest ors
V iew
Ġmy ster
B en
the ning
ig ious
Ġspeak ers
Ġpar ks
Ġevolution ary
Ġthe sis
Ġcr imes
Ġtot ally
ĠëĲ Ĳ
íķĺëł¤ ë©´
Ġcoll apse
ĠìĻ¸ ë¶Ģ
Ġmed ieval
ĠìļĶ ì¦ĺ
ê±´ ê°ķ
n ings
l ist
Ġë³¸ ê²©
Ġfac ial
Ġë¸Ķ ëŀĻ
Ġinequ ality
or ters
Ġg erm
Ġorgan isation
Ġsal mon
P E
Ù İ
dom inal
Ġh ip
oc ument
ëħ¸ ëıĻ
G e
ros ion
êµŃ ë¯¼
êµ¬ ìĿĺ
Ġext ends
y es
az z
Ġlot tery
Ġwid th
Comm on
ëĤ ©
Ġdang ers
ad or
Ġsurv iv
ĠìĹħ ê³Ħ
Ġp roud
Ġë°Ľ ìķĺëĭ¤
Ġdiagn ose
ìĿ´ ëĦĪ
Ġabsor bed
Ġë¶Ī êµ¬íķĺê³ł
C opyright
Ġbrows er
Ġme ets
ĠCh ief
Ġinject ion
ult ure
Ġexpress ions
Ġíĺķ ìĦ±
Ġle cture
Joh n
Ġso vere
Ġde hyd
ĠìĪĺ ìŀħ
Ġpract icing
Ġlo ans
Ġher self
epend ence
Ġadministr ative
Ġê²½ ê¸°ëıĦ
ffic iency
Ġequ ity
ak h
ĠB ureau
acks on
Ġj aw
Ġlic ense
Ġhop es
ĠS ud
str ial
Ġ4 6
ì²´ ìĿĺ
Ġwor n
Ġê²Ģ ìĤ¬
Ġw ing
Ġv ag
ĠìŀĪ ì§Ģ
Ġfif th
Ġadolesc ents
Ġautom ated
Ġì·¨ ìĨĮ
Ġmer ch
con f
ct ors
Ġcar ries
Ġinhabit ants
Ġevalu ated
ìĽ ħ
Ġëıħ ìĿ¼
Ġdel iber
Ġv ine
ĠM ic
ĠF ac
Ġantib odies
Ġelect ions
ĠN O
Ġevol ving
b ered
ì°¬ ê°Ģì§Ģ
ĠìĿ¼ ìľ¼
on ing
Ġb ought
ĠìĥĿ ìĦ±
ëį° ìĿ´
ĠC EO
Ġdist ances
Ġì ¤
H z
ĠS ustainable
Ġsupport ive
ìĬ¤ëŁ½ ê²Į
ĠBi ology
H ave
Ġas c
Ġcivil ization
ë§Ī ìĿĦ
ĠOther s
et ically
ĠAnd rew
Ġë¯¸ ë¦¬
Ġb ull
ĠS D
Ġstim ulate
Ġsed iment
Ġtend ency
ex ts
A ss
Ġweek ly
reat ment
old s
Ġdecre ases
ĠìĬ¤ íİĺ
Ġoccasion ally
ch ron
Ġcl oth
ëĬĲ ëĥĲ
Ġoptim ize
ain e
ëĭ¨ ìĿĺ
An y
Ġìķ½ ìĨį
ct s
Ġìĺģ ìĸ´
ĠC irc
íļĮ ìĽĲ
Ġall ergy
ra id
ĠR ather
Ġst ain
Ġì§Ħ ì§ľ
an as
Ġv acuum
Ġnerv es
Ġgain ing
i ative
Ġorient ation
Ġt anks
ĠìķĬ ëĭ¤
Ġcampaign s
Ġint ra
Ġmole cule
ils on
Ġan at
ĠëıĦ ìłĦ
Ġdepos its
Ġcollect ions
ìĿ¸ ê³µ
íĥĢ ìĿ´
Ġtransp arency
em or
Ġca ffe
ìĬ¤ íı¬ì¸ł
ĠP ay
Ġagg reg
ĠAn aly
ĠíĨµ ìĭł
b urn
ë¦¬ ê¸°
Ġop ens
Ġíİ¸ ë¦¬
Ġembra ce
Ġdemonstr ates
Ġìĭ¬ ê°ģ
ĠMex ican
êµ° ìļĶ
Ġeconom ies
ĠO cc
ov ed
Ġinter medi
Ġemploy ers
Ġjuris d
Ġwel come
Ġflood ing
Ġembed ded
Ġelement ary
Ġinv asion
ë¬´ ìĽĲ
6 00
ìĿ´ ìĥģ
Ġp ediatric
Ġt ang
Ġsch olar
riz ona
Ġaccept ance
Ġs ister
ê°Ģ ìŀħ
Ġuncertain ty
Ġchar ges
ĠH ard
Ġgra ce
Ġdis ag
Ġeat en
Ġtrans plant
th is
Ġcham ber
ìŀ Ķ
Ġprotect s
w a
ĠO ffic
Ġinnov ations
Ġthick ness
ĠëĶ ±
Ġìĺ¤ íŀĪëł¤
um ing
Ġimm ers
ë¦¬ ê·¸
Ġth row
Ġn oun
íĬ¹ ë³Ħ
Ġdep r
Ġtim ing
Ġfree ly
Ġêµ¬ ì²´
Ġtransp arent
w as
Ġpun ishment
Ġlab els
Ġhead aches
ag ine
ĠìĤ¬ìĭ¤ ìĿĦ
Ġantioxid ants
Ġtrig gers
Ġcl ouds
Ġmor ph
ac le
ĠHistor ical
Ġrese mb
Ġlo op
ìĨĮ ëĵĿ
Ġarr ival
ell er
ĠF ish
Ġu pl
ĠëĲĺ ìĹĪìĬµëĭĪëĭ¤
p owered
ĠComm ons
Ġre nt
Ġíİ¸ ì§ĳ
do i
we et
ĠRes earchers
Ġcost ly
ìĭ¤ ìĿĦ
Ġutil izing
Ġìĭľ ëıĦ
Ġmult ipl
du ate
Ġcont exts
M E
Ġf iction
th ood
Ġimportant ly
Ġsoc ietal
ĠìŀĲìĦ¸ íŀĪ
Ġê³ł ìļ©
ĠSchool s
ĠìķĦë¦Ħ ëĭ¤ìļ´
Ġbox es
ĠCult ure
ĠS C
Ġë¶Ģ ìłķ
ĠìłĦ ë°ĺ
sc ience
Ġexp ort
ìĿ¸íĦ° ëĦ·
ĠF arm
ĠJac ob
ìĿ´ ë©´
Ġìłľ ê¸°
Ġë´ Ħ
Ġassess ed
ĠIn nov
ì» µ
ĠëıĦ ìĻĢ
ĠC all
íĴ Ģ
ĠTh ink
ĠMe an
em ies
Ġport ray
Ġm apping
Ġtransl ated
Ġoper ated
ĠìłĦ ìļ©
Ġhome work
Ġpu pp
Ġvel ocity
Ġt ag
ĠíĻķ ìĤ°
Ġir regular
est one
Ġmut ations
Ġê·¸ ëĵ¤ìĿĺ
Ġmagn itude
Ġë°Ľ ìķĺ
ĠSt ory
Ġinteg rate
Ġdist inction
Ġb inding
Ġassist ant
Ġrhyth m
Ġh ung
Ġg amb
ãħł ãħł
Ġimm ense
Ġvill ages
Ġlibr aries
Ġr h
Ġm issions
ĠíĿ ĺ
9 4
ĠS ens
ĠG M
osp el
ig ma
ropri ate
ĠBen efits
ĠìĦ Ń
Ġë²ł íĮħ
ĠUn ivers
ĠAn cient
Ġref used
Ġk it
Ġb ark
Ġíķĺ ëĭ¤
Ġp ond
c al
Ġunn ecessary
Ġdefect s
Ġclar ity
ĠíĽĪ ëł¨
Ġg ran
Ġenab led
Ġrul ed
ĠëĮĢ íĺķ
Ġfac ulty
b ul
ĠAnt ar
Ġoff ices
k er
ĠF ield
Ġcat aly
ĠëĶ° ëľ»
ĠR ail
Ġë°ĺ ëĮĢ
in ator
ob by
ore r
Ġem erge
Ġprogress ive
Ġdis k
ĠìĺĪ ìĤ°
B ased
Ġê·¸ ë¦¬ìĬ¤
êµŃ ìłľ
Ġavoid ed
Ġp ock
ëĭ¨ ê³Ħ
ìĺĪ ìĪł
s ized
Ch ildren
Ġcal endar
ĠT ar
de velop
ass es
Ġrefuge es
Ġvom iting
ĠF low
ĠTur key
ĠClin ical
Ġc rown
ĠìĤ¬ëŀĮ ìĿĺ
ot ional
Ġout doors
Ġprec a
y nt
Ġacknow ledge
ë© ĺ
Ġadvert ising
Ġinv ented
? )
N G
adel ph
Ġë§Ī ì°¬ê°Ģì§Ģ
Ġentit led
ĠSe lect
Ġdesc end
ĠCre ate
ëĵľ ê°Ģ
Ġcy cl
Ġc ourage
Ġmach inery
Ġstead y
íĻ Ī
Ġeconom ics
Ġth reshold
Ġprop osal
Ġhoriz ontal
Ġatmosp heric
ìĸ´ ì§Ħ
Ġ198 9
Ġgather ing
ĠìĤ¬ ëĬĶ
Ġrub ber
ĠCho ose
p df
ĠBe havior
ĠTe xt
Ġpurch asing
Ġconclus ions
ic ul
Ġdisc l
Ġgen uine
Ġg au
Ġsynt hesis
P L
Ġshop ping
ĠCl ub
d ess
Ġbul lying
ol ph
ĠN G
Ġprolong ed
ìĿ´ ëĤł
íĹ ¤
ĠL ew
str ate
Ġì²´ ê²°
Ġíŀĺ ìĿĦ
V D
Ġphenomen a
Ġman usc
ê²½ ì°°
Ġê±± ìłķ
Ġì¡° íķ©
Ġ ×
ĠSecret ary
Ġëĭ¤ ë§Į
Ġë¹Ħ ë°Ģ
ĠP oint
Ġë¶Ī ê°ĢëĬ¥
Ġëĭ «
âĢĿ )
Ġíľ´ ëĮĢ
Ġbe et
Ġexec ution
íĮ Ķ
ĠíĶĦë¡ľê·¸ëŀ¨ ìĿĦ
ĠìĨĮ ìľł
Ġh ide
ĠFrid ay
Ġl ith
ĠìĿ¼ ìĥģ
Ġen zyme
ĠìŀĲìĦ¸ íķľ
A B
Ġsub mit
sequ ently
ìłĲ ìĹĲìĦľ
Ġcomp aring
reg on
Ġaband oned
ĠM ajor
u v
Ġy es
F S
ĠëĮĢ ìłĦ
Ġn urt
ĠCent ury
Ġbe ll
íĬ¸ ë¡ľ
ê°Ģ ì¡±
Ġstri king
best os
Ġpot atoes
Ġìłľê³µ íķĺê³ł
Ġcop ies
Ġë¬´ë£Į ë¡ľ
Ġexpl ores
ĠìĪĺ ë§İìĿĢ
ĠAl tern
el a
y d
Ġwire less
d ated
um bers
ĠL ater
ëħĦ ëĮĢ
com p
Ġê°ľ ìłķ
Ġalg ae
ĠE ll
Ġê¸Ģ ìĿĦ
Ġìµľ ìłĢ
ĠìĨĮ ìĨį
Ġm im
as al
Ġê¸° ìĹ¬
¯ ¤
ĠF air
Ġcomple tion
' d
E V
Ġar c
Ġout line
Ġp ou
Ġëª» íķĺê³ł
Ġautom ation
Ġentertain ment
Ġfem in
ĠIll inois
Ġíĸ¥ íĽĦ
art en
200 7
om atic
Ġappet ite
ë´ ĩ
ĠH ig
Ġhar ness
Ġcert ification
Ġver te
Ġfurn iture
Ġpsych iat
Ġdis par
ĠSt ation
ĠëłĪ ìĿ´
Ġd ow
Ġher bs
ìłģ ìĿĦ
Ġexhib ition
ut ri
ig ation
C al
Ġint ensive
Ġê¾¸ ì¤Ģ
Ġ4 7
Ġìłģ íķ©
Ġp or
ĠD ie
Ġf irms
Ġburn ed
Ġíķĺ ìĿ´
ë§Į ìĿ´
Ġsub tle
ĠSh ort
j a
Ġp ine
Ġapparent ly
Ġorgan ism
Ġke ys
for ward
Ġphys icians
ĠW ales
ov id
Ġr ide
Ġlim iting
Ġple asure
ĠWork ing
Ġshould n
Ġê²Ģ ì°°
ĠC apt
AT ION
Ġaccess ibility
ĠN orm
Ġcalcul ations
Ġf illing
ot ive
ĠëĤ´ìļ© ìĿĢ
Ġg astro
Ġ æ
Ġpart ially
il er
Ġë² ½
! )
Ġdocument ation
Ġìĭ ±
Ġre nder
ist ically
Ġfat al
ow ers
iss ipp
k al
ĠC ook
D ef
Ġland ing
Ġb uck
Ġh oly
rib le
vel ength
Ġcontract s
9 1
Ġë ļ
ĠH it
Ġf r
itz er
ëħĦ ëıĦ
Ġmind fulness
Ġë²Ħ ìłĦ
Ġmarg inal
Ġoffic ially
ĠO p
íıī ê°Ģ
Ġspecial ists
Ġpain ted
iv als
Ġclass rooms
Ġs ons
Ġrel ating
Ġê³ł ê¸ī
Ġc ater
Ġeduc ate
íķ´ì£¼ ìĦ¸ìļĶ
Ġconfig uration
um ns
ìĭ¬ íŀĪ
ig m
ìĭł ìĿĦ
rop ol
i ac
ic ting
ëĤ´ ê°Ģ
ĠNet her
Ġìĺ ®
ĠE nt
Ġìŀħ ìŀ¥
Ġpla que
ê° Ĵ
ĠíĻĶ ìŀ¥
ĠTra de
Ġpath ogens
feed ing
Ġbl adder
esp an
Ġtut orial
ìĭł ìĿĺ
Ġdescrib ing
Ġtack le
rict ion
Ġì¸¡ ë©´
ro ts
v ation
Ġìĭľ ìłĪ
Ġ rom
Ġexam s
Ġì°© ìļ©
Ġlandsc apes
ĠMon th
Ġcomm od
Ġd ying
ê´Ģ ê´ĳ
P ost
Ġëıħ ë¦½
Ġattempt ed
ĠëıĻ ë¬¼
ĠSm art
ĠLin ux
ĠSt ill
ĠStand ards
adelph ia
Ġì°½ ìĹħ
it ar
Ġê±° ë¦¬
Ġg ains
Ã ¨
ĠN ic
ĠEn ter
ĠAb raham
Ġê¸° íļĮë¥¼
b acks
ĠS anta
ëŀ Ĳ
ĠR ab
Ġtravel ing
ĠI C
Ġz inc
âĺ ħ
Ġworks hop
ê°Ļ ìĿ´
ĠìĺĪ ì¸¡
ĠWik ipedia
Ġl act
ĠìŀĲ ëŀĳ
ĠO nt
ĠíĺĦ ì§Ģ
et erm
Ġnorm s
ĠCommun ication
l ings
Ġë³´ íĨµ
âĹ ĭ
Ġexc ited
ĠMar ine
Ġpl asma
Ġs le
Ġreview ed
ĠBer lin
ëĭ Į
ĠK ent
Ġcheck ing
R NA
Ġear ned
Ġc ran
íķ Ģ
Ġconsist ing
ìłľ ìĿĺ
olog ic
Ġíķĺ ëĿ½
Ġgu ides
Ġë Įĵê¸Ģ
Ġearthqu ake
ëĵľ ìĿĺ
in ates
Ġsome where
Ġp ale
ro se
Ġê²ĮìŀĦ ìĿĦ
Ġcam ps
ìłĦ íĻĶ
Ġper f
Ġbelong ing
Ġfore ver
Ġdef ines
Ġalt ered
ree ment
Ġhighlight ed
ĠW alk
Ġcomp act
i y
Ġê±° ì³Ĳ
ĠTeac hers
Ġê´ľ ì°®
ĠëĤĺ ìĿĺ
Ġê°ķ ëĤ¨
Ġdam aging
Ġëĭ¤ ê°Ģ
A v
M D
Ġse asons
êµĲ íĨµ
Ġin adequ
Ġwell ness
ub le
Ġëį §
ĠTur k
ëĭ· ì»´
ìĿ į
Ġbe am
v y
ĠP ath
Ġsh ield
Ġrelie ve
Ġingred ient
Su pp
ĠInt erest
ì½Ķ ë¡ľëĤĺ
-------- --------
íħ į
Ġan throp
ĠA rizona
ĠN ep
ab out
ìĦ ¯
ë´ ¤
os aur
Ġdiscuss ing
Ġíķĺ ë©´ìĦľ
Ġë§ģ íģ¬
Ġë¯¸ ëĶĶìĸ´
Ġbow el
Ġsam pling
Ġc her
ëĪ Ī
Ġë°ĺ ë³µ
Ġrac ism
ĠëĬ ¦
E X
are r
Ġcor al
Ġret urning
Ġel abor
ìĹĪ ëĬĶëį°
ogn ition
ĠN at
s olving
Ġbu gs
Ġent rance
Ġc ited
Ġm es
íĺĳ íļĮ
Ġmeth ane
Ġdis asters
Ġlif t
Ġw age
w estern
Ġëĭ¹ìĭł ìĿ´
Ġt ired
L ook
it ic
B oth
ĠT ree
Ġprevent ed
Ġpollut ants
ĠìĿ¸íĦ° ë·°
b ury
ĠFollow ing
Ġì§Ħ ì¶ľ
end ers
av en
Ġg aming
Ġgra y
ëĭ¹ íķľ
Ġbas ics
Ġhun ger
Ġreserv oir
Ġst iff
Ġeffic acy
Ġaward ed
Ġaf raid
ps y
Ġca ve
Ġsim ulation
in ts
Ġrecomm ends
Ġmin ister
ĠH ab
Ġpl astics
Ġcamp us
Ġdefin itions
EC T
Ġdegrad ation
Ġì¡° ìłķ
th al
ĠAs sembly
Ġê·¼ ë¬´
ĠMark et
ëľ ¨
ĠëıĻ ìĿĺ
ien cies
ĠìĹĨ ê³ł
Ġemp ire
ĠM P
Ġc igare
ĠìĤ¬ìĹħ ìĿĦ
urric ane
íĮ ©
Ġë¥ ¼
ĠN ig
D ep
ĠW HO
form ed
as ures
Â ©
ause a
og ram
Ġê´Ģìĭ¬ ìĿ´
Ġ5 2
Ġgen etics
ëŁ¼ íĶĦ
Ġdist ress
íķĺìĺĢ ìĬµëĭĪëĭ¤
ib ration
Ġem ission
Ġë¬´ ìĬ¨
ĠMount ain
ĠëĪĪ ìĹĲ
ĠF ull
ĠìĿĺ íķľ
C lick
s ub
Ġwell being
Ġbro ke
Ġdel icate
ĠJ ackson
Ġent ities
Ġmist ake
Ġcomb ust
Ġë¶Ī ìķĪ
Ù Ħ
os ity
Ġëį ĺ
Ġchar ging
ĠB ern
Ġë³´ ê´Ģ
Sp ec
ëħ ¼
ĠB h
Ġpractition ers
Ġphr ases
ĠP L
Ġmotiv ated
Ġsustain ed
ĠìķĦëĭ ĻëĭĪëĭ¤
ipl inary
ë°Ľ ëĬĶ
Ġmir ror
Ġkilomet ers
Ġì¤ĳ ëĭ¨
ĠíĨµíķ´ ìĦľ
Ġantib iotic
Į į
Ġmet er
Ġwork force
Ġrelax ation
ĠAs h
ëĭĪ íĦ°
Ġëģ ¼
ĠF ig
ĠSch olar
g rad
Ġtradition ally
Ġax is
Ġì§Ħ ëĭ¨
Ġobst acles
ĠíĮĮ íĬ¸
ry ing
Ġarr ive
Ġsearch ing
un ing
akes pe
ac erb
Ġend e
ĠMach ine
Ġê²Įìĭľ ë¬¼
Ġíķĺ ëĬĺ
ĠCol on
ĠStud ent
Ġfa ult
ë³´ ìĦ¸ìļĶ
ĠO N
Ġshall ow
issipp i
Ġgard ening
ĠWith in
200 5
ĠS ource
ĠìĪĺ ëĬĶ
ë§Į ìĹĲ
ë°Ľ ìĿĢ
Ġin ver
ĠAl aska
ìķĦ ìķ¼
Ġc erv
Ġcur ious
M ake
as hed
ĠìłĢ ëħģ
Ġìĵ ¸
ĠìĿ¼ë°ĺ ìłģìľ¼ë¡ľ
T ake
ì¤ĳ ìķĻ
Ġb ind
ĠM ap
ĠThe ory
Ġê°Ģ ìĬ´
Ġgold en
ĠëĮĢë¶Ģë¶Ħ ìĿĺ
Ġfe ather
ĠìĪĺ ìĺģ
Ġmut ual
âĦ ¢
Further more
ĠìĤ¶ ìĿĦ
A V
Ġwin ning
U C
ĠëĤ® ìĿĢ
Ġë°Ķ ëĭ¤
Ġconcent rated
fl ies
ĠS av
ìµľ ìĭł
comm un
ĠS us
ì¤ĳ êµŃ
Ġro d
Ġcorrel ation
Ġìĺ ¥
ìĿ´ ìķ¼
Ġfe es
Ġun ity
ge red
Ġins u
ĠãĢ İ
ĠAngel es
p y
Ġì¤ĳ ìĨĮ
Ġìĭľ ê°ģ
Ġí Ģ
ìķĪ ëħķíķĺìĦ¸ìļĶ
Î ½
Ġsurv ived
is ons
Ġextraord inary
akespe are
pro of
Ġpath s
Ġë¶Ħ ë¥ĺ
Ġtransact ion
Ġìł ĬìĿĢ
Ġcaffe ine
Ġwater ing
ĠMed ic
N ational
or ie
Ġí Ĩ
Ġtow er
ì¤ įëĭĪëĭ¤
ëĭµ ëĭĪëĭ¤
ëĭĺ ê»ĺ
Ġb in
êµĲ íļĮ
Ġinflu ential
ìľĦ ë¡ľ
Ġëĭ¹ìĭł ìĿĺ
Ġoper ators
Ġê³¼ ìłķìĿĦ
Ġvo ices
Ġmal aria
Ġso ap
Ġbo ards
in ch
Ġcoin s
or ient
Ġir re
ĠAl ways
ĠìĥĿê°ģ ìĿĦ
ĠìĿ´ ìĤ¬
ĠìŀĪ ìĹĪìĬµëĭĪëĭ¤
Ġt ied
Ġbound ary
ìľĦ ì¹ĺ
ìĽĲ ìľ¼ë¡ľ
Ġmen stru
Ġy ields
ĠCl oud
ê³¼ ìłķ
Ġbe aring
ìľĦ ê°Ģ
ĠT alk
G B
Ġmag azine
Ġë§Įëĵ¤ ê¸°
Ġadjust ments
Ġs au
Ġê°ķì¡° íĸĪëĭ¤
Ġpat ent
A nt
ĠScient ific
ot ten
AR S
ì¼ĢìĿ´ ìħĺ
Ġì§Ģ ìĭĿ
ew ater
ĠHealth y
ĠM other
Ġapplic able
ĠPe ace
Ġìĭľ ëĮĢ
Ġëĭ¹ ìĹ°
ìĿ´ëĿ¼ ëıĦ
ëł Ģ
Ġê²ĥ ê³¼
ìŀ¥ ìľ¼ë¡ľ
Ġsp ons
ĠìķĦ ëıĻ
Ġëĭ¤ ë¥´
ĠN S
Ġcont rad
AR T
ìħ¨ ìĬµëĭĪëĭ¤
Ġsh ipping
y ard
ra nd
ol ves
ì¤Ģ ëĭ¤
yl on
Ġser vers
ĠìŀĲ ëħĢ
å ¤
ĩ ìĤ´
Ġsubsequ ently
Ġpr ide
ë³¸ ë¶Ģ
Ġloc ally
Ġ Ï
Ġess ays
Ġê³ł ìĸĳ
ĠO regon
ë°ĺ ê¸°
Ġë°©ìĭĿ ìľ¼ë¡ľ
Ġfil t
Ġdet erior
Ġdisp ers
th ur
in ition
in ar
ĠëĤ¨ ìķĦ
Ġdec omp
Ġinter con
Ġstress ed
ĠEx cel
ĠT urn
Ġfulf ill
ĠëĮĢ íĻĶ
ĠV R
G S
ĠSen ate
Ġsp ir
Ġìµľ ìłģ
ìĸ´ ëĵľ
Ġdi ver
ëĳ ĺ
ìĬ¤ ìĹĲ
Ġassoci ations
ĠC reek
Ġautom atic
ĠF er
ìľĦ ëĬĶ
ë¶Ģ ìĤ°
ĠL ib
Ġrefrig er
Ġmin i
Ġhol istic
Ġconsist ency
G u
ë¦¬ ìĺ¤
Ġguid ed
Ġíķľ ëĭ¤ê³ł
ëĵ¤ ë¡ľ
Ġaff airs
Ġsurround ings
ĠF ram
Ġt ape
Ġshif ts
ĠK n
ëĲĺ ë©´ìĦľ
Ġnurs es
Ġrot ation
ĠAdv anced
ĠìĦ ¹
ĠìĤ¬ëŀĮ ìĿĦ
ĠëĤĺ ìĺ¤ëĬĶ
Ġex acerb
ĠG P
ê³µ ìĤ¬
ì¡° ìĦł
Ġv ice
Ġeduc ated
Ġintrodu cing
ast ing
ì½ ¤
Ġëªħ ìĺĪ
Ġimpact ed
âĢ »
ì§Ī ìĿĦ
ĠL iber
Ġpart ly
Ġcomm ands
at ories
Ġë¶Ģ ëĵľ
ĠH an
Ġëĭ¬ ìĦ±
ĠR ole
Ġfeature d
Ġbuild s
ĠíĽĦ ìĹĲ
Ġë° ĸ
Ġê³ł íĨµ
ĠUk raine
Ġìĥ ¤
Ġê¸ į
Ġle an
Ġadminist ered
ĠNether lands
Ġwel ding
ĠC old
Ġdeterm ines
Ġatt ended
íĬľ ë¸Į
ë Ń
Ġapprec iation
ĠìľĦ ìĹĲ
ĠN a
ĠL uc
E m
Ġìĭ¤ íĮ¨
ĠD aily
ĠìķĬ ìľ¼ë©´
ìŀĲëıĻ ì°¨
Ġf rog
Ġrepresent atives
uls ion
Ġexam ining
Ġoccur rence
Ġv iable
ëıĦ ìĻĢ
Ġvent ilation
Rem ember
Ġclust er
âĹ ı
qu es
ìĺ µ
Ġìĺ¤ ëŀľ
Ġprec ious
Ġret ention
Ġsw allow
ê¸Ī ìĿ´
ëŀ Ĳëĭ¤
Ġw ages
ë¦¼ íĶ½
Ġinc orrect
iz ational
ĠCar ib
ĠRe qu
Ġsp erm
ìĿ´ ìĻĢ
Ġconf used
W orld
com fort
Ġë§İ ëĭ¤
par ts
Ġvol umes
ĠF A
ĠDe ep
Ġart if
ra red
Ġn urse
ëĿ¼ ìĦľ
ĠíĽĦ ê¸°
ĠM uch
Ġê¹ Ķ
ĠD id
Ġpres erving
us hes
ĠCont act
Ġnecess ity
Ġtrem end
Ġphot ography
tt es
ì²´ íģ¬
W ill
ì§Ģ ìļĶ
Ġph ases
Ġpush ing
Ġì¤ĳ ìĹĲìĦľ
Ġimpl ies
Ġsurve illance
ê¸° ì¤Ģ
ĠTe aching
Ġìĭ¤ íĹĺ
Ġcol ored
ì į
Ġcook ed
Ġcert ified
Ġrecept ors
ê±´ ìĦ¤
Ġsacr ifice
ĠìķĶ íĺ¸
Pro f
Ġpiv otal
ĠB ol
o il
ĠS em
ĠH em
ë£ ¡
Ġl apt
Ġì´Ī ê¸°
Ġmus h
ce eds
ab etic
Ġmon ument
ĠPhil adelphia
cyclop edia
Ġdead ly
ut or
Ġcomb ining
ìĹħ ê³Ħ
Ġterrit ories
Ġnegative ly
ĠElect ric
Ġpharm aceutical
ìĸ´ ëĬĶ
Ġfe as
200 6
Ġbrother s
Ġassess ing
f are
igh th
ĠëĬ¥ ëł¥
rel s
Ġent ity
ĠìĦľ ë²Ħ
Ġ âĢĻ
Ġf les
ĠC ore
ĠGu ard
Ġeth ics
d is
Ġtub es
ĠP ersonal
Ġë²Ħ íĬ¼
Ġì¡¸ ìĹħ
Ġpal m
Ġmult ip
Ġp ushed
Ġ ðŁ
ê°Ģ ê³ł
Ġadj acent
Ġen rich
Ġy ard
ìĿĺ íļĮ
ëĵ Ń
Ġsequ ences
Ġf ounder
em ail
Ġbl end
Ġê·¼ ë¡ľ
Ġphys iological
ĠC it
ĠFin ancial
nt il
ron es
Ġsens es
ĠAv ailable
Ġì§Ģ íĤ¤
re ts
ĠOb ama
Ġë§ŀì¶ ¤
ĠìľĦ ë°ĺ
ë£ ©
Ġrepl acing
íķĺ ëĿ¼
ìĿ´ ë¸Ķ
Ġ194 5
Ġfro zen
onym ous
íĭ° ë¸Į
Ġve ctor
Ġmaxim ize
II I
Ġ0 2
Ġrevolution ary
ĠëĮĢíĳľ ëĬĶ
sp ring
Ġcompens ation
ĠS ab
Ġstru ck
Ġì¶©ë¶Ħ íŀĪ
en h
Ð¾ Ð
ĠJ un
Ġstop s
Ġfall en
ìĹĲ ë§Į
Ġext inction
ĠìŀĪìľ¼ ë¯Ģë¡ľ
ĠìłĲ ìĿĦ
ĠìĤŃ ìłľ
ĠM and
Ġìľł íĨµ
Ġpoor ly
Ġg land
ìĭĿ íĴĪ
ĠëĮĢíķ´ ìĦľëĬĶ
Ġíıī íĻĶ
Ġab ol
D isc
Ġìŀ Ĭ
ì§Ģ ìĻĢ
A g
í Ī
ĠB ody
ĠìłĪ ëĮĢ
d imensional
Ġdevast ating
Ġbreat he
p m
Ġaqu atic
ĠCult ural
Ġs our
Ġsee ks
ë°ľ ìłĦ
Ġinc idents
Ġwa velength
Ġorgan ize
ìĺĪ ìļĶ
T A
Ġmark ers
Ġì¡° íļĮ
Ġinvestig ated
Ġê°Ģ ë¥´
Ġworks hops
Ġê· ł
ëª¨ ëĵł
T ube
ì¹ĺ ë£Į
v als
ìĿ´ íķĺ
ĠíĹĪ ìļ©
Ġt ear
ou ri
ĠAd am
ê³ł ë¥¼
ĠO il
ĠìĦ¸ ìĥģ
Ġê´ĳ ì£¼
Ġh orn
Ġìĺģ ìĸĳ
Ġconsult ation
íķ´ ì§Ħ
Ġíı¬ ìĿ¸íĬ¸
ĠìĽ ¨
the y
ĠìŀĪ ìľ¼ë©´
P DF
ĠMiss issippi
Ġinfluen za
Ġint u
Ġëı ķ
Ġmyst ery
ple ment
Ġfest ival
orig inal
m akers
Ġgr at
est inal
Ġë§Ī ì¹ĺ
ĠN Y
Ġprov isions
y an
Ġindic ator
Ġmicro bi
ĠArch itect
ë¡ľ ë¥¼
Ġìŀĳ ê°Ģ
ĠIndones ia
r un
ĠP age
Ġì£¼ ê³ł
ê²½ ìĺģ
ë ķ
Ġpres chool
Ġrad i
Ġsn ake
Ġexp end
ìĬ¤ ìĻĢ
ì¦Ŀ ê¶Į
Ġpow ered
ĠìĿ´ë¦Ħ ìĿĦ
ĠìĤ¬ì§Ħ ìĿĦ
h igh
Ġì»¬ ëŁ¬
Ġì¼ Ģ
Ġìŀĳ ëıĻ
ĠU C
Ġf t
Ġs ail
ĠPol and
or ious
ìŀ¬ ìĿ¸
ĠAn imal
ëħĦ ìĿĦ
ìľ¼ ë©´ìĦľ
Ġìĭ¤ ì²ľ
Ġcomprehens ion
Ġom ega
Ġê¸° ê³Ħ
ĠN OT
Ġreprodu ction
ĠJ r
ĠScient ists
íĺĦ ëĮĢ
Ġë¹¨ ë¦¬
Ġb ike
Ġd ive
l aw
Ġì¹´ ë©ĶëĿ¼
B ack
iff erent
ĠW rite
Ġìĥģ íĺ¸
Ġê³Ħ ìĤ°
ĠëĤ¨ ìĦ±
Ġprot est
it oring
ris k
Ġpriorit ize
ì§Ģ ë°©
Ġact ors
Ġwh ilst
ë¬¸ ìĹĲ
íķ´ìķ¼ íķ©ëĭĪëĭ¤
Ġra ises
Ġcol umns
Ġtherap ist
Ġdis in
ëª© ìĿĦ
¤ ë²Ħ
w all
ê² ģ
or ney
Ġëį°ìĿ´íĦ° ë¥¼
ĠìĿĺ ë¬´
S ign
ic iency
k o
ĠGra de
Ġrel ies
ĠëĿ¼ìĿ´ ë¸Į
Ġa ster
Ġorigin ated
Ġdiscover ies
gg ed
att ered
sc reen
ou b
Ġbreak down
ĠìĺĪ ë¥¼
Ġbul k
Ġstorm s
å ħ
Ġdream s
ë¦¬ íĭ°
ĠìĹ° ìĨį
Ġtrans f
Ġdepart ments
ĠA qu
Ġc er
Ġauton omous
ĠTh ird
ëıĻ ë¬¼
êµ¬ ëĤĺ
ĠCent ers
ĠIndust rial
Ġdeterm ination
Ġpoll en
s ur
Ġì±Ħ ìļ©
Ġaccompl ished
ĠIs a
am el
Ġê·¸ê²ĥ ìĿĦ
íĶĦ ëĿ¼
Ġst uck
Ġcons ensus
d es
Ġp umps
Ġapp le
ì³ ¤ëĭ¤
ĠìĿ¸ ê³µ
ë¹Ħ ê°Ģ
ĠN C
íĦ° ë¦¬
ĠW ilson
ëł¤ ëĬĶ
ìľĦ ìĿĺ
ĠNe uro
Ġ7 2
Ġhe ter
f old
Ġassign ments
Ġpost ure
Ġíķĺ ê²Į
erg arten
Ġappl iances
ì ¯¤
ĠìĹĲ ìĸ´
t ype
ĠB ell
ìī ½
ĠOb ject
Ġdatab ases
ĠìĪĺ ìĹħ
Ġë¿Ĳ ë§Į
Ġanaly tics
ê°Ģ ê¸°
W ork
Ġì°¾ ëĬĶ
Ġlib eral
Ġcont rary
â Ķ
Ġan ten
Ġassum ptions
Ġëĳĺ ëŁ¬
ĠG re
Ġrespect ive
Ġevalu ating
Ġcritic ism
Ġarr anged
ucle ar
Ġtw elve
Ġsurpris ed
om ical
Ġlif espan
ìĭľ ë¯¼
ìĭľ íĤ¬
ĠìŀĪìĸ´ ìķ¼
Ġut er
ë¶Ģ ìĹĲ
ĠNever theless
ĠH o
ĠM onday
Ġvot ing
Ġ5 1
U L
ĠN umber
ë ļ
ĠN ation
ìĿ´ ìĿĺ
ĠìĨį ìĹĲ
ult ural
Ġâ ĳ
Ġan ch
ĠìĨĮë¹Ħ ìŀĲ
Ġprof its
thod ox
s chool
Ġì¦ī ìĭľ
Ġìłķ ê¸°
ĠëĴ ·
ĠìŀĪìľ¼ ëĭĪ
íŀ ĺ
Ġdra ft
ĠSt ress
Ġaccording ly
se ts
ç Ķ
ĠT ax
Ġ19 00
te in
Ġê°ĢëĬ¥ íķĺëĭ¤
Ġtal ks
ĠíĽ Į
ĠWilliam s
an ium
Ġasp ir
ĠëķĮë¬¸ ìŀħëĭĪëĭ¤
Ġaccomp any
Ġì¢ĭ ëĭ¤
ê° Ķ
Ġrecogn izing
an ol
Ġcontrovers ial
ë¹Ħ ìļ©
v asive
ĠMat thew
ĠInt roduction
ĠB on
v ae
Ġm ul
Ġname ly
Ġn ode
ĠBudd h
Ġun healthy
ent i
ĠOnt ario
Ġcardi ac
ë¶Ħ ìĦĿ
Ġinterview s
Ġcav ity
In tern
Ġd irt
Ġn ick
Ġland f
Ġarrange ment
Ġmat rix
on ent
Ġal arm
Ġab dominal
. :
it le
ìĿ´ ë¯¸
Ġm art
ìŀ ĸ
per t
M on
íķĺ ìĿĺ
ot yp
Ġfear s
ĠL uther
ath an
ĠìĭĿ ìĤ¬
ER S
Ġoccup ation
Ġl unch
Ġmen u
Ġdig it
ëŀĢ ëĭ¤
ĠSc ript
organ isms
ĠWi Fi
! "
em ics
ĠSk ills
Ġê° Ĵ
ìĹĲê²Į ëĬĶ
ear ly
Ġcomple ting
ĠìĨĮ ëĵĿ
res istant
Ġë§¤ ëł¥
Ġpath way
ĠAf ghan
ĠJ ack
Ġmur der
Ġe rect
ĠP ope
Ġconstitution al
ëĤ´ ê³ł
Ġpredict ions
Ġweap on
ëĤ Ļ
Ġca ution
Ġth irty
Ġpharm ac
Ġë³´ ì¦Ŀ
Th ough
ĠÂ °
Ġì¢ĭìķĦ íķĺëĬĶ
ëį ¤
ĠìłĦ íķ´
ĠìŀĲìĭł ìĿĦ
. -
Ġ ^
Ġì§ĢìĨį ìłģìľ¼ë¡ľ
a ft
Ġwar mer
Ġë³Ģ íĺ¸
Ġillust rate
Ġaccord ance
Ġch ip
Ġë¯¼ ê°Ħ
ĠT ib
ĠM aking
Ġr ats
Ġë°© ì§Ģ
Ġ ]
Ġpass ive
Ġmethod ology
ĠE vent
Ġhistor ians
Ġhear ts
Ġm ira
est eem
ĠW W
Ġcoun cil
ĠBl ock
ĠY ellow
Ġíķľ íİ¸
em ed
Ġcra fts
Ġval ley
Ġmean ings
Ġconstrain ts
he nd
Ġsc reens
ìĶ¨ ê°Ģ
e ous
ut y
Ġmanufact ured
Ġsk et
Ġcare ers
íĬ¸ ëĬĶ
ìĸ´ ëĵ¤
ëıĦ ìĦľ
y r
ĠC e
o ors
Ġl ig
ĠScott ish
Ġ 00
Ġíı¬íķ¨ íķľ
ì¹¨ íķ´
Ã §
íİ Ļ
ĠAll ah
ĠC ra
ĠJ ones
ĠSwed en
ĠS a
ĠìĿ¼ ìĸ´
Ġst atic
Ġexplain ing
ĠDi abetes
ac her
Ġëĵľ ë¦½ëĭĪëĭ¤
Ġ198 8
Ġtra cks
Ġê±´ ë¬¼
ĠãĢ Į
ar ity
ĠRom ans
Ġarg ues
Ġed iting
Ġ verse
.... ....
Ġtime ly
Ġattack ed
Ġs el
Ġsub mitted
Ġgraph ic
Ġw ra
Ġcomp ress
íħĮ íģ¬
ĠìĬ¤ íģ¬
app y
More over
Ġëĭ¤ ëĭĪ
Ġge ographical
âĢ¦ .
ĠQ ur
Ġde als
ìĿ´ ëŁ°
ri ers
W hether
ê²© ìĿĦ
Ġëĵľ ëĿ¼ìĿ´
och ond
ëĮĢ íļĮ
b ro
Ġr ou
Ġb old
Ġch a
Ġëª» íķĺëĬĶ
Ġnavig ation
Ġìľł ìĿ¼
ĠP arents
Ġv ocal
ìŀ¬ ëĭ¨
R P
Ġf ate
im als
ë³¸ ë¬¸
ĠL t
ìķĦ ìĽĥ
ĠT an
Ġper ipher
Ġë§ŀì¶ °
Ġagree ments
ĠìķĦ íĶĦ
Ġharm ony
Ġallev iate
l ux
ors hip
ap ore
ìĺ¤ íĶ¼
gen eration
Ġscen es
Î ¿
ĠTh ings
ĠJ ob
Ġpositive ly
Ġche aper
Ġìłģ ìĿ´
Ġmel an
ìĿĺ ë£Į
ĠìĭĿ íĴĪ
Ġcar ing
Ġwas t
Ġgamb ling
uss ion
Ġì°¨ ë³Ħ
r ise
Ġê° ¤
Ġë² ¤
ĠF a
Ġpredom inant
Ġbra nds
Ġinvent ory
ĠJer sey
ë ĩ
Ġmagn et
ëĲĺ ê¸°
ĠS M
ĠW ed
Wh ich
Ġë¶Ģ ê³¼
ĠZ h
per ature
Ġcirc uits
Ġb eds
Ġche cks
Ġbank ing
ĠOr der
Ġsug ars
ip h
Ġcirc les
ĠPsych ology
Ġíĭ Ģ
ĠìĿ¸ ìĥģ
ì¹ľ êµ¬
Ġreflect ing
Ġsevere ly
ine a
Ġh ang
ĠVis ual
íķŃ ê³µ
nes ota
Ġreserv es
pre ced
l am
ruct ive
Ġìĸ» ìĿĦ
Ġë°©ë²ķ ìĿĢ
Ġìĸ´ ë¨¸ëĭĪ
op athy
Ġprison ers
ĠAr m
Ġê¸°ì¤Ģ ìľ¼ë¡ľ
Ġstrugg les
Ġst ack
rom agnetic
ê ¾
ìłķ ëıĦ
ĠCarib bean
ĠC ase
Ġground water
ang el
Ġgr asp
Ġexec uted
Ġíļ į
Ġê·¸ ëıĻìķĪ
Ġunem ployment
ĠEx ec
ĠO pp
Ġdoll ar
ĠL iving
ĠCar bon
Ġrein force
Ġd ual
Ġimmig ration
Ġpro active
ic ides
ĠG iven
Ġadvoc ate
Ġas ks
ĠSh akespeare
R ed
Ġê´ ´
Ġmain stream
Ġë¹Ħë¡¯ íķľ
ĠK im
Ġinsp ection
Ġsystem ic
ĠD ictionary
Ġb its
Ġoper ates
Ġì§Ī íĻĺ
N T
Ġcyber security
B el
Ġcur iosity
ĠW atch
Ġret ire
ìĿ´ ê¸°ëıĦ
Ġign ore
f ting
ĠP V
Ġ9 78
N ext
ĠUr ban
red ict
Ġinstitution al
ĠTe am
ĠìĻĦ ìłĦ
Ġsubstit ute
Ġpub l
Ġtreat y
ĠChar l
ê º¼
Ġm ile
ì²´ ê°Ģ
Ġde ce
Ġfe at
Ġpress ures
ĠTrans port
Ġs ore
new s
Ġlo ads
t elling
Ġv ac
Ġíĺ¼ ìŀĲ
Ġê´Ģê³Ħ ë¥¼
O b
Ġrel atives
ĠíķĦìļĶ íķ©ëĭĪëĭ¤
ĠíĻĺ ë¶Ī
ay lor
ì½Ķ ë¦¬ìķĦ
o ice
Ġíĳľ ì¤Ģ
Ġì¸¡ ìłķ
Ġcas ual
st ead
Ġì§Ģ íķĺ
ãħĭãħĭ ãħĭãħĭ
Ġpublic ations
Ġrem inder
Ġsp elling
Ġbr ill
Ġstim ulation
ĠLG BT
ĠêµĲ íļĮ
Ġass ert
Ġo ught
Ġo k
ge bra
ë¥¸ ëĭ¤
ras ound
au c
Ġdisapp ear
Ġox ide
Ġíļ¨ê³¼ ë¥¼
ĠE C
L P
Ġn inet
ur p
ĠA k
wh o
su pp
ìľ¨ ìĿ´
. ),
Ġhe pat
Ġh ind
ĠP S
greg ation
at re
ro ach
ĠSp e
Ġprogram mes
Ġfung i
ĠC ut
Ġad ul
in th
Ġimper ial
io let
op t
or b
ĠPr ince
ìħĶ ìķ¼
Ġaest hetic
preced ented
Ġíİ¼ ì³Ĳ
Ġop io
Ġachieve ments
Ġ5 4
ĠìĹ´ ìĭ¬íŀĪ
ot hy
ĠInd ex
ĠMaterial s
ik i
Ġì£¼ ìĦ¸ìļĶ
Ġexp ense
Ġë©Ķ ìĿ´
ĠìĬ¤ íħĮ
ëŀ Ħ
ĠìŀĪìĹĪ ëįĺ
ĠH u
ë¦ ī
ĠR ub
Ġhyper tension
Ġen lar
Ġsk ull
ìĿ¸ ìľ¼ë¡ľ
ê²° ê³¼
á ¹
Ġvers atile
ne g
ĠUS B
Ġë¯¸êµŃ ìĿĺ
ĠHit ler
ë¦ ħëĭĪëĭ¤
ê²½ ìĿĦ
ĠNig eria
D I
Ġë¡ľ ê·¸
Ġmag ic
Ġenter prise
ê´ Ħ
Ġ7 00
Ġë¶Ģ ìĹ¬
% ),
Ġdin ner
Ġë¨¹ íĬĢ
Ġê°ķëł¥ íķľ
ĠíĨł ë¡ł
Ġcomp ression
Ġdeliver ing
h r
Ġsatell ites
Ġ5 6
Ġco ating
ĠVir t
Ġsu ited
ins ula
b at
am bo
Ġequ ations
y o
ĠM es
Ġepid emic
Ġelimin ating
Ġaccess ed
ìķĦ ìĭľìķĦ
ĠI ron
Ġhard ly
ĠëĤ¨ íİ¸
ĠL ower
ì° į
im eter
ĠJ o
as ia
Ġadv ised
Ġcolle ges
Ġcop ing
Ġë²Ķ ì£Ħ
or i
ĠD ental
ĠC hemical
form ing
in ian
ĠP oll
Ġreject ed
Ġover weight
Ġpeace ful
ĠìĿ´ ìĿµ
we ed
eng es
v ance
K now
Ġplace ment
ĠGu id
ĠKnow ledge
Ġëĭ¹ìĭł ìĿĢ
ĠìķĦìĿ´ íħľ
W ell
se ud
Ġì£¼ ìĭľê¸°
ì¤ĳ íķľ
Ġinf est
Ġkid neys
Ġemphas izes
ĠB ad
all ing
Ġëª¨ ëĭĪíĦ°
Ġê°Ģ ìĥģ
ĠPl ants
Ġimp ression
Ġde leg
ìĽĶ ë¶ĢíĦ°
ĠMove ment
Ġê± ·
ë°Ķ ë¡ľ
íķĺëł¤ ëĬĶ
Ġreg ulated
Ġì§Ģê¸Ī ê¹Įì§Ģ
ĠìĿ´ìľł ë¡ľ
Ġint rig
Ġì½Ķ ìĬ¤
ĠF ront
ĠUn it
ĠPr ime
Ġmet eor
ĠVictor ia
Ġìĵ ´
Ġê¸°ë°ĺ ìľ¼ë¡ľ
Ġbott les
Ġinput s
Ġaccum ulation
ul ent
ëĮĢ ìĥģ
íĻĶ íıĲ
l ink
ount ered
Ġëħ¸ ì¶ľ
âĸ ł
ential ly
ĠNaz i
Ġëª¨ ì§ĳ
Ġ5 3
Ġab road
Ġobvious ly
ìĭł ìĿ´
Ġê·ľ ìłķ
ass ment
ĠT enn
ac on
ge vity
Ġemerg ence
Ġch ips
ï¼ Į
Ġfra gment
ĠMary land
Lear ning
Ġë ®¤
ç ļ
Ġattract ed
Ġrehab ilitation
Ġëį§ ë¶Ļ
Ġwith stand
ĠìĹĨ ëĭ¤ëĬĶ
ë¬´ ë£Į
Ġcor rosion
Ġë¨¹ ê³ł
ĠStat istics
Ġk et
Ġìĭľìŀĳ íĸĪëĭ¤
Ġol ive
Ġpar liament
Ġresil ient
ëĮĢ ë¹Ħ
Ad d
Ġì·¨ ìĹħ
ĠDe ath
Ġêµ¬ íĺĦ
op ol
Ġye ast
Ġpost ed
ĠíķĦìļĶ íķĺëĭ¤
r ange
Ġtrib e
Ġto dd
A F
Ġfrequ encies
ĠìĥģíĻ© ìĹĲìĦľ
ĠíĥĢ ê³ł
Ġvulner ability
ê¸° ëĬ¥
n als
Ġinv ited
it ives
ph al
Ġglass es
ĠCh at
Ġdel ve
ĠAP I
Ġantioxid ant
let ter
ĠDep ression
our ing
ì£¼ ë¥¼
Ġgen us
Â· Â·
Ġview ing
â Ĥ¬
Ġattempt ing
Ġneurolog ical
ĠEm peror
ĠâĨ Ĵ
Ġdef ining
Ġê¸į ìłķ
Ġ18 00
ĠëĤĺ ë¥¼
Ġì¡° ìłĪ
ĠL ove
ìĿ´ ìĤ¬
Ġpur ple
ĠJ im
F ind
an th
ag g
Ġaccommod ate
ivers ary
ìĦ ¬
ĠEss ay
ĠR out
Ġrepeated ly
D is
Ġimpl ant
ĠDem ocratic
Ġbreak fast
ĠìŀĪ ìĿĮ
Ch rist
int estinal
ĠFranc is
ĠíĴį ë¶Ģ
Ġor n
Ġenc ountered
ĠY ears
Ġbe er
êµ¬ ì¡°
is ible
Ġm akers
Ġìļ´ ìłĦ
Ġsitu ated
Ġcar p
Ġcol ours
Ġ198 6
ag us
Ġnut rit
Ġê º¼
Ġë¹ ħ
Ġconsider ably
Ġenc ryption
ra ul
Ġìŀ¥ìķł ìĿ¸
Ġíķ´ ìĦĿ
Ġrock et
Ġmix ing
Ġsusp ected
Ġlic ensed
Ġver bal
Ġìķŀ ìĹĲ
Ġillust rated
ê³µ ë¶Ģ
ĠJ on
ĠëĤ´ìļ© ìĿĺ
Ġexclus ively
ëĨ ĢìĿ´
ur red
Ġdim ension
íİ ľ
mon ary
Ġqu e
un s
Ġremed ies
go vern
íĬ¸ ëĤ¨
ĠPhys ics
g rim
Ġcoron avirus
E l
Ġfoot ball
Ġsc rew
ag le
b one
Ġë¸Ķ ë¡Ŀ
ru p
ĠR ose
Ġcust oms
ĠDep ending
ìŀĳ ìĦ±
Ġaff il
Ġpolit icians
Ġë¶Ħ ëĵ¤ìĿ´
D i
b et
h uman
Ġdev oted
u ana
Ġh ill
S ocial
P at
ĠRel ations
Ġcount less
e z
re ll
c asts
íİ¸ ì§ĳ
Ġa rom
ra c
Ġì§Ģ ë¶Ī
Ġre nd
Ġhistor ically
Ġm ail
. ]
ĠìĿ¼ ëĭ¨
ĠLe ague
ĠM arsh
ro le
Ġbre eds
Ġneed le
Ġqu ote
Ġê·¼ ì²ĺ
Ġw ax
ur ring
ìĭľ ê°Ģ
ĠìłĪ ì°¨
Ġë§¤ ëħĦ
imm une
Ġpro state
ĠìĤ¶ ìĿĺ
Ġen act
Ġë³µ ìŀ¡
ĠU RL
Ġìľł ë¦¬
Ġbel t
Ġë°Ķ ê¾¸
ìŀĳ ìļ©
Ġflow ing
Ġimag ery
Ġd ign
Ġexcept ional
Ġstraight forward
ìĬ¤íĨł ëŀĳ
Ġover se
ìĦł ê±°
Ġmod ules
Ġfru str
Ġë°ĺ ë©´
Ġëĸł ëĤĺ
Ġat omic
hed ral
ĠProf essional
tern oon
t est
Ġanal og
ĠH as
Ġë§Ī ë¬´ë¦¬
ĠìĦ± ìĿ¸
Ġìłķë¶Ģ ìĿĺ
Ġar bit
b ral
Ġrequ ests
Ġl enses
Ġtrust ed
ĠLar ge
Ġr ic
St art
arm a
l ades
Ġle ver
Ġb ands
ES S
Ġê°Ļ ìķĦìļĶ
ĠMin nesota
Ġrefer ring
ìĿ¼ ë°ĺ
Ġfail s
Ġbackground s
as a
Ġë ĺĳ
ë¦¬ ìłģ
Ġmov ies
Ġcru st
app ropriate
ĠM ax
ĠEffect s
ĠF ocus
Ġacqu isition
Ġê·¼ ê±°
Ġdom inated
" )
ĠO m
Ġresc ue
Ġsp ell
ĠG h
ĠH on
Ġbeh alf
ĠBr idge
ĠHT ML
ĠìķĬ ëıĦë¡Ŀ
v i
ìĨĮ ìĹĲ
Ġtun nel
now ned
ur ities
Ġprevent ive
Ġmass es
g ood
et ed
Ġê°ĸ ì¶Ķ
ĠìĻĦë²½ íķľ
Ġun precedented
ë©´ ìĿĦ
Ġge ographic
ĠëĪĦêµ¬ ëĤĺ
Ġins ert
ĠPat ients
h ard
Ġang les
in ite
ë¥ Ń
Ġval ued
å ı
Ġp ap
act ivity
F e
Ġprem ature
al og
Ġexpl os
Ġê°ķ íķľ
D id
ĠêµŃë¯¼ ìĿĺ
Ġins c
Ġë¹Ħ ëĶĶìĺ¤
Ġt orn
ĠTest ing
P P
ĠD u
ëį° ìĿ´íĦ°
pl an
Ġris es
Ġë¬¸ ìĦľ
Ġquant itative
om on
Ġë§İ ìķĦ
P res
ìĭľ ë¥¼
Ġcoin c
oc ate
lt ry
ĠìĪĺ ë°ĸìĹĲ
Ġl ux
ĠO s
ì²ĺ ë¦¬
Ġbet a
ĠAcc ount
Ġs orts
Ġt ender
ĠE M
Ġsuppl ied
r ass
Ġur gent
Ġë¶Ħ ìŁģ
Ġsm ile
Ġfund ament
ĠCreat ive
Ġìŀĳ ìļ©
Ġdefe at
Ġd os
ĠB uild
Ġdur able
Ġcertific ate
ìķĪ ìĹĲ
ìĭĿ ìľ¼ë¡ľ
Ġle ct
ê±° ëĵł
Ġmind set
ĠCP U
Ġgr ants
ë¶Ħ ê¸°
Ġun comfort
ĠT ri
ìĺĢ ëįĺ
f ted
Ġpresent ing
ìĿ´ ìĿµ
Ġn ausea
Ġign ored
Ġansw ered
S ym
ìļ´ ìĺģ
amm ad
Ġbe ef
oc hemical
Ġper mitted
ation ally
ain ing
ëĳ ¥
Ġre ar
ĠB io
ak i
Ġdistingu ished
ĠH om
ĠPer iod
ang ers
200 4
Ġfe e
ned y
er ver
Ġsymb olic
ê² Ĳ
ëĮĢ êµ¬
ĠA h
Ġhe ated
Ġbas ket
Ġseem ingly
Ġgener ator
Ġent ers
ì¢ħ íķ©
qu arters
íĸī ìĿĦ
Ġìµľ ìĦłìĿĦ
ĠìłķíĻķ íķľ
n atural
ĠìĹ° ì¶ľ
ĠëıĻ ë°ĺ
ĠS ite
le ton
Ġê³¨ íĶĦ
Ġind oors
Ġl ining
Ġë°Ķ ê¿
Ġê·¸ ëŁ¼
Ġt ire
Ġrul ing
Ġperce ive
Bl ack
Ġë³´ ê±´
ĠíĮĮíĬ¸ ëĦĪ
Ġl ying
Gen eral
dep th
ë¬¸ ìĿ´
Ġh ub
Ġdel icious
Ġì¦Ĳ ê¸°
ì¡° íķ©
Ġobserv ing
bur gh
P ar
Ġr ings
ethe less
ĠC C
Ġdecre asing
Ġm ercury
ĠD un
ĠC ape
d eg
Ġpat ch
Ġìļ° ìĬ¹
Ġalign ment
ĠG PS
ath ic
Ġlay out
ĠìĥģíĻ© ìĿĦ
ĠEduc ational
ĠíĶĦëŀĳ ìĬ¤
ìľł ìĿĺ
Ġinadequ ate
ëģ Ħ
ĠRes erve
Ġepis ode
Ġan est
Ġsing ing
ĠP R
Ġ198 7
Ġrest ored
og ene
Ġrele ases
ĠH ung
Ġgraph ics
Ġcorpor ations
ìŀĲ ì¹ĺ
Ġdiscipl ines
at ility
Ġunt reated
Ġê°Ģê¹Į ìļ´
Ġtem pt
ìĹĲ ìĦł
Ġcount ing
Ġcompar able
ê·¸ëŀĺ ìĦľ
p erson
Ġce ment
ê¾ ¼
Ġê²° íķ©
Ġì»¤ë®¤ëĭĪ íĭ°
êµ¬ ë§¤
ĠìĿ´ ìĻĢ
9 00
Ġpl ug
Ġhistor ian
Ġbrid ges
ĠAn ne
omet ric
ëĳ Ķ
ĠH op
C urrent
b u
Ġfail ures
M us
ĠìĥĿ ëªħ
Ġin k
Ġver ify
ê³µ ê°Ħ
g on
Ġì¢ħ êµĲ
ë Ĵ
Ġn u
ĠT ips
Ġbut t
urs day
al o
Ġpr iest
ìĽĶ ìĹĲ
ues day
Ġcheck ed
B L
ĠYou Tube
Ġdow nt
ut ors
ro ck
nes day
ĠëĤĺíĥĢ ëĤĺ
Ġì¶© ìłĦ
Ġì§ ĵ
f ound
Ġas bestos
Ġlar vae
ĠFl u
Ġp itch
og l
Ġë²Ī ìĹŃ
ë¯ ¹
Ġl ighter
ī ìŀ¥
Sec ond
Ġë° ¥
on to
ê±´ ìĿĦ
Ġg ently
ĠArab ic
Ġvis ually
ob b
Ġl y
ĠDav is
Ġbiom ass
Ġm erg
ìĽĲ ê³¼
Ġ20 25
Ġtim ber
Ġëĭ¤ ìĿ´
ëĵ¯ ìĿ´
Ġì¶ķ êµ¬
E v
ĠMiss ouri
ãĢ Ĥ
Ġslow er
ĠEv alu
Ġy og
ĠìķĦìĿ´ ëĶĶìĸ´
oc ent
Ġë¶Ī ëŁ¬
7 00
Ġar teries
re hend
S P
ì²´ ìľ¡
ĠLew is
he at
Ġë§Į ëĤ¨
Ġen emies
erv es
ur able
ĠM rs
Ġìľłëªħ íķľ
Ġres erve
ĠíĿĲ ë¦Ħ
Ġk in
Ġê¹ ĬìĿĢ
ĠB alt
íĥ ĳ
ĠPart icip
ĠìĿ´ ë©ĶìĿ¼
ëĩ ¨
F ood
ìĨĮ ê°Ģ
ĠM arc
h our
Ġìłķë¶Ģ ê°Ģ
id th
Ġhighlight ing
ëĭĺ ìĿĢ
Ġê·¸ ëķĮ
ĠìĤ¬ëŀĮ ëĵ¤
ĠGovern or
ĠSu ccess
N et
Ġsy ll
Ġcultiv ation
ĠìķĮ ê²Į
ĠìĽĲ ì¹Ļ
t te
Ġw ires
am ily
Ġdel ight
Ġt y
ì§Ģ ê²Į
Ġë¡ ¯
Ġpick ed
ï ½
Ġpat ri
M ain
Ġmiss ed
ĩìĤ´ ë¡ł
Ġpoison ing
Ġpos es
ĠìŀĲ ê·¹
ĠAn sw
isc ons
Ġdraw ings
bre aking
ĠV ers
Ġë§Ĳ ê³ł
ran ch
ĠGerm ans
Ġsmall est
Ġelig ible
ìłĦ ì²´
Ġang ry
V is
Ġë¦¬ ëįĶ
ĠW ars
S everal
Ġìĸ´ ì©
ëģ Ĺ
s l
Ġcompet e
Ġëª© ë¡Ŀ
Ġgif ts
ĠSc he
íħĮ ê³ł
sh ore
h ot
ë¯¼ì£¼ ëĭ¹
Ġsh adow
Ġê±° ë¶Ģ
in arian
â ħ
ĠG ir
Ġtrou bles
O V
Ġinterf ere
ê¸Ī ìĿĢ
Ġmet res
s ource
ĠMar x
Ġmonit ored
ìłľ ìĹĲ
Ġintegr ating
Ġmod ify
Ġarchae ological
as is
Ġê°Ģ ìĿĦ
Ġì¤ĳ ê°Ħ
u ation
íķľ íħĮ
ĠProt est
ĠG ames
Ġth inks
om ics
Ġadop ting
ĠëĦ¤ ìĿ´ë²Ħ
Ġê°ĲìĤ¬ íķ©ëĭĪëĭ¤
ĠM os
Ġelectro ly
Ġphilosoph ical
ìĪĺ ëıĦ
Ġemphas ize
iscons in
he rence
Ġm ud
Ġg lands
Ġtable ts
Ġwealth y
Ġstreng thening
ĠíĺĲ ìĿĺ
Ġwithdraw al
ĠTib et
on ly
g iving
ĠF eed
Ġwast ewater
ë²Ħ ìłĦ
Ġdoct rine
ers hip
ëł Ľ
ë¦¬ íĬ¸
20 23
Che ck
Ġfound ations
aw ay
Ġprecip itation
Ġass ault
Ġconclud e
Ġatt ending
ĠS ep
Ġteach ings
Ġ6 6
ĠKen ya
ĠìĦŃ ì·¨
Ġgen etically
Ġ ions
Ġsett lers
Ġritual s
ĠìĿĺê²¬ ìĿĦ
Ġìłľ ëıĦ
Ġperson ally
Ġsocial ly
Ġì°¸ ì¡°
ĠN i
ĠìĹ° ê¸°
Ġmechan ics
ĠëĤĺ ìĿ´
ias is
Ġchap ters
Ġqu ad
Ġnutrit ious
ĠìĹĨ ìĿĮ
Ġdam ages
Ġíķ© ìĿĺ
Ġf ans
Ġdys function
Ġcomb ines
Ġìĺ¬ ë°Ķ
Ġadvance ment
ra de
ĠSing apore
ĠìŀĲ ë³¸
Ch o
ug ar
ĠëıĦ êµ¬
Ġë°ĶëĢ Į
ĠPl us
ĠIndust ry
ig s
ëª¨ ëį¸
ĠMat hemat
Ġpref erence
ìĭľ íĤ¨
vel t
ì¶ °
êµŃ ëĤ´
t w
ĠS her
ĠPlan ning
Ġd amp
ê²¼ ëĭ¤
Ġconj unction
ëł¥ ê³¼
In ter
Ġgener ates
Ġbul bs
Ġport ions
Ġdecl ined
ì¦Ŀ ìĿ´
Ã³ n
au nd
er ness
Ġrecip es
ĠW in
em et
Ġpoly mer
re strial
ë¶Ģ ëª¨
Ġclust ers
ĠìĨĲ ìĿĦ
ĠBudd hist
íģ °
ì¡Į ìĬµëĭĪëĭ¤
Ġì±ħ ìĿĦ
if iers
Ġintest inal
ìĺ¨ ëĿ¼ìĿ¸
ad ays
ìĦ¸ ê°Ģ
Ġterm inal
ĠëıĦ ìĦľ
çļ Ħ
ĠO R
Ġspec imens
ëħĦ ê¹Įì§Ģ
De velop
Ġr ating
ĠPhilipp ines
Ġwrit ings
Ġgun s
Ġpat ches
ik h
ì£¼ ë¯¼
ĠëĮĢ ì±ħ
Ġg er
ìĿ´ìĬ¤ ë¶ģ
ick ed
Ġì§ĢìĽĲ ìĿĦ
Ġuncomfort able
ĠìĥĪ ë¡ľ
Ġë© ¤ë²Ħ
Ġaccount ability
ke ys
Ġ18 0
Ġconnect ivity
Ġê² ¸
Ġmis con
H is
) '
Ġmicrob es
ann a
il ateral
ĠB an
ĠT ok
Ġparticip ated
Ġw ed
Ġinter vals
v as
ĠT ai
Ġde ple
ul atory
Ġë ·
Ġm a
ìļ° ê³ł
Ġsens ation
ĠìĿ´ ë¡ł
indu ced
Ġloc ate
Ġëĵ ł
ĠCons ult
ĠC ertain
ĠPh ilos
Ġgro cer
ust er
Ġcannab is
Ġtru ck
Ġb ars
p ost
ĠìłĲ ìłĲ
im edia
Ġinsu fficient
c r
Ġcook ies
ĠP ap
Ġstret ching
Ġcalc ulation
ow ing
Ġpromot ed
Ġmosquit o
Ġcombust ion
Ġc ups
ìĿ¸ ëĵ¤ìĿ´
Ġf its
Ġfol k
ol ly
ĠR a
ĠB or
Ġf usion
ig ration
Ġpro c
ĠìĤ¬ íĥľ
Ġì°¨ ìĿ´ê°Ģ
ĠíĶĦë¦¬ ë¯¸
Ġanx ious
Ġphot ograp
Ġgre y
ĠP H
Ġic on
Ġwor ried
ĠìĽ¹ ìĤ¬ìĿ´íĬ¸
Ġinher ited
Ġgl uten
Ġchar ts
Ġw ool
um a
Ġworld s
Ġcar cin
Ġ1 30
Ġdiscuss es
Ġmon etary
ĠC redit
ĠìĻ Ķëĭ¤
Ġrow s
Ġfar mer
F L
he res
Ġbelong s
Ġconserv ative
Ġë§ ¨
Ġë° ĸìĹĲ
ìŀĪ ê²Į
êµŃ ê°Ģ
F l
ì³ ¤
ĠP y
ĠM C
Ġê¸¸ ìĿĦ
Ġfl ies
Ġpublic ly
reg n
ĠT ogether
ê°Ĳ ìĤ¬
ĠëĤĺíĥĢ ëĤ¬ëĭ¤
osp here
ĠM agn
N N
ìĿ´ìĹĲ ìļĶ
Ġ1 10
ord an
Ġìĸ¸ ìĸ´
Ġdism iss
are st
Ġê¸° ìļ¸
ìĺ¬ íķ´
ar ms
Ġì§ģ ìŀ¥
Ġadvent ure
P M
Ġfles h
g ic
ìĿ¸ ìĹĲ
ìķĺ ëįĺ
Ġstandard ized
it ime
Ġìĸ´ëĸ ł
íļĮ ìĥĿ
Ġì§ģ ìĹħ
Ġtoile t
Ġìĭ¶ ëĭ¤
P ublic
ĠíķľêµŃ ìĿĺ
Ġpan ic
Ġì¹´ ì¹´ìĺ¤
Ġsc rap
Ġcomp elling
ĠìĿĺ ìĽĲìĿĢ
Th ose
ëĿ¼ìļ° ëĵľ
ĠF unction
Ġtrig gered
Ġj ack
Ġë°ľìĥĿ íķł
Over all
Ġê°ķ ìĿĺ
Ġê³łê°Ŀ ìĦ¼íĦ°
Ġcomprom ise
n on
ìŀ ĺ
!! !
ĠP a
ìłľ ì£¼
Ġad hes
he astern
Ġharvest ing
ë³´ ìŀĲ
ra ge
ul ative
ose velt
ol k
Ġwh ales
Ġauthent ic
Ġë§Ĳ íķľëĭ¤
ens ing
ê´Ģ ìĿĺ
Ġg ross
íĥĢ ìŀĦ
Ġste ep
am ents
E W
Ġì²´ ê³Ħ
Ġíķ´ ì£¼
Ġjoin ing
ĠL oss
ar bon
ì¶ľìŀ¥ ë§ĮëĤ¨
ì§Ģ ê¸°
ĠR aj
( )
ĠìķĪìłĦ íķľ
Ġoper ator
Ġt ies
Ġh ate
ĠD og
ĠìŀĳìĹħ ìĿĦ
ĠBang lades
Ġhead ache
Ġmel ting
ĠG ame
Ġminim izing
Ġceremon y
f at
Ġdur ability
Ġunw anted
ĠComp an
Ġincent ives
S ometimes
t em
t ings
íķĻ ìłģ
l ation
Ġ Ø
Ġc ro
Ġle ts
ëĮĢ íĸī
w riting
Ġë²ł ìĿ´
x iety
ê¸Ī ìķ¡
Ġt elescope
Ġl unar
wh ite
Ġë¡¯ ëį°
Ġdesc riptions
ìĪĺ ë¡ľ
Ġë§Įëĵ¤ ê³ł
ĠíĿ¥ ë¯¸
ĠMc C
ìĿĮ ìĿ´
ĠSam uel
Ġ5 7
Ġcor ruption
Ġpreca utions
Ġc od
å ®
Ġê±° ì£¼
Ġconcept ual
Ġinterf erence
ê³Ħ ìķ½
ĠìłĲ ê²Ģ
Ġíģ´ ëŀĺ
Ġcrit ically
Ġneighb ors
Ġrec overed
Ġdry ing
Ġinform al
ëħĦ ìĿ´
ìŀ¬ ë¥¼
ĠSoft ware
let al
gra duate
ĠS ac
Ġlegit imate
íķĺ ìĿ´
p iece
ĠProt ect
Ġn ort
Ġaf ternoon
Ġë° ĳ
Ġspeak s
Ġat om
Ġgalax y
Ġsacr ific
Ġë³µ ì§Ģ
Ġtomat oes
ĠGold en
D ec
te enth
ĠìĤ¬ëŀĮ ëĵ¤ìĿĺ
Ġdemand ing
ä »
Ġab d
ì§Ģ ë©´
Ġcross ing
Ġì¶ľ ìĭł
T E
Ġê·¸ëħĢ ìĿĺ
Ġtremend ous
Ġan k
in ology
ir ming
Ġpress ing
Ġh ills
Ġëĳ Ķ
Ġë¯¸ ëĭĪ
Ġsat urated
Ġal ien
b ial
Ġê³µ ìłķ
ĠìĽĲ ëŀĺ
iff s
Ġìľł ìļ©
Ġë¹ĦìĬ· íķľ
ì¤ ĺ
Ġcomm emor
ĠëĮĢíĨµëł¹ ìĿĢ
Ġinterpre ted
op ing
ĠCol lect
Ġë¬¸ìłľ ëĬĶ
ĠCorpor ation
ĠíĻĺ ìŀĲ
Ġê°ľ ë³Ħ
il ly
ĠD raw
ĠEns ure
ĠP ack
Ġë§ŀ ìķĦ
ĠêµŃ íļĮ
Ġcomb inations
Ġconven ience
ĠìĨĶë£¨ ìħĺ
Ġassum ption
Ġproject ed
Ġì¤ĳ ìĿ´ëĭ¤
Ġpromot ion
Ġtri ps
in ence
Ġìłľ ìĿ¼
Ġë¨¹ ëĬĶ
ì£¼ ê°Ģ
ìĭľíĤ¤ ê³ł
Ġìĸĺ ê¸°
Ġdep icted
Ġë§ĪìĿĮ ìĿ´
Ġprosper ity
ps on
Ġv apor
ìĽł ëĭ¤
Ġmod es
Ġsn akes
ĠKen nedy
Ġpack ed
ĠGen erally
ĠIm age
A ns
Ġad min
Ġiniti ated
Ġì¢ħ ë£Į
ë¶Ħ ìĿĺ
ì¹ĺ ì§Ģ
ëĮĢ ìłĦ
Ġup set
Ġve ins
ij uana
íķĺ ê²łìĬµëĭĪëĭ¤
Ġvolunte er
st ud
ìĿ´ ìłľ
F ree
Ġb aking
vers ion
ìĸ´ ëĸ
ĠíĬ¹ ìĪĺ
ĠD uke
ru bs
Ġexplan ations
Ġp ix
ë²Ħ ìĬ¤
Ġì§ĢëĤľ ëĭ¬
Ġemploy er
ìĤ¬ ìĭ¤
Ġpract iced
ëĦ ĺ
ĠìĥĪ ë¡Ńê²Į
Ġimp osed
Ġtra p
enti eth
ĠD at
Ġmut ation
Ġorgan izational
m ates
ì§Ģ ëĬ¥
Ġêµ¬ ê¸Ģ
Ġbrush ing
Ġl uck
Ġor b
Ġref ined
Ġìŀ¬ ìĥĿ
Ġìłĳ ìĨį
Ġdark ness
li hood
Ġgalax ies
g ress
y ers
oca ust
ĠS earch
ìĺĪ ìķ½
Ġsu cc
Ġdepend ence
Ġover t
Ġpr ies
ĠëĬĺ ìĸ´
ĠB esides
ĠíļĮ ìŀ¥
I O
Ġinher it
ìļ° ë¦¬ëĬĶ
Ġpo ems
Im age
Ġc ock
ìłĲ ìĹĲ
Ġë¹Ħë¡¯ íķ´
ĠEx ercise
Ġconnect s
Ġentreprene urs
Ġrelig ions
Ġgra b
Ġ5 8
ĠS ix
Ġ198 5
Ġsurviv ors
Ġastron aut
Ġexclus ive
ĠëķĮ ê¹Įì§Ģ
ĠìĪĺ ìĪĺ
ĠPr in
U D
Ġê¸° ëıĦ
ĠG rant
ena issance
¨ ìĿĦ
Ġext ending
200 3
Ġfle et
Ġsl ide
Ġëł Į
Ġêµ ³
Ġtalk ed
Ġbow l
Ġíļ¨ê³¼ ê°Ģ
Ġa ug
ê³µ ìĽĲ
ac cess
Ġoutl ined
Ġìĭł ìĨį
Ġar tery
ĠìķĦëĭ Ĳ
vious ly
ĠBel g
ĠëŃ Ķ
im ity
T ime
ìķĪ ëĤ´
Ġmount ed
ĠB egin
war f
Ġindu ced
Ġlon gevity
Ġcast le
Ġì·¨ ëĵĿ
Ġê·¹ ë³µ
Ġst oring
ĠìĪĺ ìĤ¬
ë¥ĺ ë¥¼
Ch ar
ĠSy ndrome
O rig
Ġì¢ĭ ìĿĦ
Ġc ensus
Ġb or
ĠPre vent
Ġsn ack
ĠEn h
Ġframew orks
Scient ists
emet ery
Ġclean er
ĠG as
ok es
Ġcondition ing
il ib
ìĹ¬ ìĦ±
. ||
Ġbat tles
ĠSer ies
Ġìĺ¬ ëł¤
Ġâ Ī
ë »
ĠìĤ¬ìĿ´ ìĹĲ
ĠSy ria
Ġnew born
e ared
Ġwar rant
ìŀħ ëĭĪê¹Į
ĠAm endment
Ġlabel ed
eren n
Ġunder m
ĠíĻķ ìłķ
Ġcontamin ants
E duc
Ġchalleng ed
D oes
u z
ĠSt one
Ġuncle ar
ê¸¸ ìĿĦ
ĠEth iop
mar ks
Ġdiam ond
it ate
íķ´ ë¥¼
ĠìĿĺ íĺ¹
ĠG ive
Ġimp aired
om ed
Ġoblig ations
Ġind ication
en ergy
ĠH ay
Ġconcent rate
ĠëĤ´ ëħĦ
ìłľ ëıĦ
Ġextract ed
1 50
Ġcryst al
l og
Ġoff set
ĠM it
ì§Ħ ìĿĦ
ì½Ķ ìĬ¤
ĠF at
Ġimper ative
ìħ ĭ
Ġm aternal
te ch
ĠF ord
ac ular
Ġmyth s
Ġjew el
ĠW isconsin
ĠìľĦ íĺĳ
igh ters
ow a
ĠìłĢëł´ íķľ
or se
Ġë°ľ íĸī
íı¬ íĬ¸
Ġtraum atic
ĠPrim ary
pl us
Ġì£¼ ìĿ¸ê³µ
ĠíĶĦë¡ľ ìĦ¸
Ġann ounce
Ġch amp
Ġìłĳ ìĪĺ
Ġê½ ¤
ĠH ind
in stein
ëªħ ìĿĢ
ĠìĹ° íķ©
Ġharm on
ote chnology
ĠìļĶ ë¦¬
il ty
Ġillust rations
ĠìĦł ë°ľ
Ġëĵ£ ê³ł
ol ith
Ġread ings
Ġìĥģëĭ¹ íŀĪ
ìĭľ ëĭ¤
Ġimpair ment
ir s
Ġprom ises
ĠDar win
Ġaqu arium
ë¦¬ ë©°
Ġê³µ ëª¨
Ġod ds
Ġnewsp apers
íĻĶ ìĹĲ
ĠìĿ¼ ìĸ´ëĤĺ
isp here
ĠJeff erson
Ġìŀ¥ ì¹ĺ
Ġflow ering
Ġë§Į ìķ½
ĠP A
Ear ly
Ġìľł ì¹ĺ
Ġì§ĢìĹŃ ìĿĺ
on ut
ĠíĹ ¬
ĠAnd roid
Ġcont ra
is er
ĠíĸĪ ëįĺ
Ġre nowned
ë°Ľ ê³ł
ĠíĬ¹ ìĦ±
Ġmar gin
Ġdispl ace
Ġb icy
íķ¨ ìĿ´
Ġw ounds
th reat
ĠìĹ¬ ê¸°ìĹĲ
Ġben ch
ĠCh ronic
is hers
ìľ¨ ìĿĦ
ĠDou gl
Ġë°ľ ëĭ¬
ìĭľ ìĬ¤
Ġge ography
Ġv on
ĠìĤ¬ëŀĮ ëĵ¤ìĹĲê²Į
Ġprop he
ëĭĺ ê»ĺìĦľ
Ġirrit ation
ê²° ìłľ
he ld
Ġtreat s
Ġrecept or
up iter
un cture
Ġad mitted
Ġse af
ĠImpro ve
pp ers
ìĿ¼ ë¦¬
Ġm elt
Ġëª¨ëĳĲ ê°Ģ
ĠStep hen
Ġpursu it
ĠS QL
Ġwere n
ĠL ic
ĠD ub
ĠëłĪ ìĬ¤íĨłëŀĳ
el and
Ġìĭ¤ íĺĦ
ĠPol ish
per ial
Ġpul led
Ġpig s
unc iation
Ġíķ ¸
Ġb od
ëĭĺ ìĿĦ
ĠH ong
raul ic
Ġlower ing
j an
H el
Ġbroad cast
ĠR F
ĠSol utions
Ġliber ty
op or
ìĭ¤ ìĹĲìĦľ
Ġë³´ ìĿ´
Ġê¼ ½
Ġveter inarian
ì£¼ ìĨĮ
Ġfresh water
íĺķ ìĿĦ
w ind
Ġsubstant ially
Ġres idence
ë¬¼ ìĿĢ
ant ly
Ġë¶Ī ê³¼
ĠMount ains
Ġcl osing
ĠMe chan
Ġë°ľìĥĿ íķĺëĬĶ
osa urs
Ġm i
Ġcontin ually
Ġflo ating
Ġcount ies
Ġìľł ìĤ¬
ìĥģ ìľ¼ë¡ľ
ìķ ±
Ġcoun ts
Ġì§Ģ êµ¬
Ġëĵ¤ ê³ł
Ġrecip e
Ġì²ł ìłĢ
Ġve t
ĠUs ually
he el
oc occ
n i
lud e
Ġmod ifications
ĠSpec ies
Ġint ens
ĠëıĦ ë°ķ
Ġëį ľ
Ġê²Ģ ì¦Ŀ
Ġadvoc ates
Ġìºł íİĺ
ĠCor ps
íĨł íĨł
Ġparas ites
ĠíĻ Ģ
Ġag enda
ìĭ ¼
cont rolled
Ġìŀ ĩ
ov a
Ġìŀ¥ ë¹Ħ
: ||
Ġse w
Ġsod a
G ood
Ġre n
ĠP rize
Ġshort ly
Ġlack ing
Ġreform s
ĠBas ic
Ġ5 9
Ġrel ates
ĠTeac her
x ic
Ġworkshe et
Ġartif acts
ĠìĭľìĬ¤íħľ ìĿĦ
Ġsucceed ed
p hen
ĠëĨ ĢìĿ´
Ġb rick
ĠìĥĿê°ģ íķ©ëĭĪëĭ¤
ĠC ovid
ĠíĽĮ ë¥Ń
Ġinter rupt
Ġless er
Ġappropri ately
ĠLe on
ar se
Ġcond em
mer cial
Ġre wards
Ġalph abet
B O
f ather
Ġaud iences
Ġíķĺ ê²łìĬµëĭĪëĭ¤
ĠE ating
ĠE at
Ġpast e
ëĭ Ĳ
Ġpass engers
ĠF OR
Ġ á
Ġê°Ģ ì¹ĺë¥¼
U V
Ġë°Ľ ìľ¼
ĠíĻķ ì§Ħ
Ġgeomet ry
ĠE s
Ġgovern or
s ite
Ġprior ities
Ġë© Ī
Ġ198 4
Ġ( "
el ong
Ġë´ ¤
Ġse arc
Ġbl ame
Ġë³´ê³ł ìĦľ
os ures
Ġde emed
Ġch ron
ware ness
Ġleg ally
ĠìĹĲ ìĦľ
A ct
Ġk ings
ëŀ ©
ĠH ub
ìķ Ĭ
Ġì¹¨ ëĮĢ
Ġsym met
d em
act ic
G E
Ġacid ic
Ġst ocks
Ġalt ogether
id ae
Ġb ol
Ġc ables
ĠP rior
ĠRo osevelt
Ġtravel ed
b ot
Ġtele phone
ĠBel ow
Ġcou pled
Ġch im
d y
Ġë°° ì¹ĺ
ĠDis order
Ġhost s
H er
ĠB ush
isc al
ìĦ °ëĭ¤
ĠCon n
Ġê² ģëĭĪëĭ¤
Ġactiv ated
sp e
Ġê·¼ ìľ¡
ĠNor way
H aving
ĠìłĦ íĪ¬
Ġmicro organisms
ew ork
Ġì§ ľ
Ġë¯¸ ìĪł
Ġc ram
ĠA y
ĠR ay
00 1
Ġ0 9
ĠPC B
ĠëıĦ ë¡ľ
íķĺ ëĭĪ
ìĿ¼ ê¹Į
Ġtem plate
Ġf riction
Ġ6 3
ast ed
Ġbreak through
Ġgra ve
ĠK ong
ì¢ħ ìĿĺ
Ġsimilar ities
m atic
Ġë§ĪìĿĮ ìĹĲ
ë¥ł ìĿ´
Ġlingu istic
S M
ĠInd ependence
Ġan ts
Ġcons olid
oles cent
ĠìĥģíĴĪ ìĿĦ
Ġë¹Ħ íĬ¸
ĠAr gent
Ġê³µ íķŃ
Ġvolcan ic
ĠëĤ¨ ë¶ģ
Ġor ch
ĠEv olution
ĠìĨĮ ë¦¬
Ġg el
ĠìŀĲ ìĤ°
am ous
Ke ep
Ġë³´ ìĦ¸ìļĶ
Ġbi op
ĠRes ource
cons cious
Ġart ic
b uilding
ìłķ ìľ¼ë¡ľ
ĠFrank lin
Ġsurge on
Ġschedul ed
Ġoccas ions
ĠC ustom
p ack
ĠëĬĲëĤ Ħ
Ġìľł íĬľë¸Į
Ġë§Ī ìĬ¤íģ¬
Ġcy t
æ ĸ
Ġremed y
orient ed
Ġc ows
Ġregist ration
Ġber ries
ĠCar l
Ġin quiry
ĠM ission
e u
p in
com a
Ġabs ent
ĠP ear
ĠCh am
íŀ Ĳ
il ton
ur day
Ġclos est
h al
B et
Ġprop os
f u
pro cess
ê°Ģ ëĿ½
S D
Ġsil ent
ĠRef orm
Ġinvestig ations
ĠAnt i
T O
sec ution
Ġident ifies
Ġst unning
Ġí ľĺ
Ġst ew
Ġê±¸ ì³Ĳ
TS D
Ġin ability
Ġdec entral
ĠC E
Ġev acu
T ER
au g
ĠìłĢìŀĳê¶Į ì¹¨íķ´
ĠT our
¼ ìª½
Ġp hy
Ġìĭł ì²´
ĠL ive
Ġwe eds
Ġmicrob ial
ĠF ive
Ġrele vance
Ġcolor ful
Ł ìķĦ
ist ence
ĠIS O
z an
ĠíĮ¨ ìħĺ
Ġagg ression
Ġal kal
Ġmind ful
Ġann iversary
Ġsuppl iers
Ġcr ash
Ġìĭ¤ ëĤ´
ex pl
íĮĮ íģ¬
Ġbe verages
Ġob sc
Ġadapt ive
lar ation
Ġsur re
Ġter rain
Ġfollow ers
ĠP D
ĠMan ufact
ìĭľ ìĿĺ
Ġsynt hes
ur ate
Ġtour ists
Ġê¾¸ì¤Ģ íŀĪ
ëªħ íķľ
ĠBet ter
Ġdet rim
o en
ìĤ¼ ìĦ±
ë¶Ħ ìķ¼
Ġc el
ê²ĥ ìĿĢ
Ġdeploy ed
ìĬ¤ íħĮ
Ġunders c
ì§Ģ ë©´ìĦľ
Ġep it
ë Į
Ġp ec
Ġemp ir
s un
ros is
Ġread s
ĠJ ean
Ġë¸Ķ ë£¨
ĠO d
Ġdelay ed
forest ation
alu able
Ġb ay
ĠH D
ix ed
Ġport fol
Ġalign ed
ìĦ¸ ê¸°
ĠB ah
ĠRep resent
hold er
ĠHis pan
Ġform ats
ĠN ap
ĠìĹ° ê³Ħ
ĠS ex
Ġrestaur ants
Ġwitness ed
Ġíģ¬ ë¦¬ìĬ¤
Ġ197 9
om nia
ìłĦ ê±°
ëĵ ¬
Ġunder water
Ġbeh ave
Ġê·¸ ë¦°
Ġm urd
Ġth umb
ĠT aylor
ĠA ges
** **
Ġvar iants
ĠEx am
ĠG rowth
ìĹŃ ìĿĦ
Ġê·ľ ìłľ
ê·¸ëŁ° ëį°
Ġrespond ed
Ġles ions
mer ce
ìĹħ ìĨĮ
Ġmac ro
oth s
ì¡° ì°¨
Ġpuzz le
Ġpot ent
Ġm asks
ëĤĺ ëĭ¤
ang ular
g ence
ĠF acts
íĮĮ ìĿ´
Ġê¼ ¬
ĠS i
Ġcounsel ing
ĠëĨį ìĹħ
ĠCle ar
f ood
Ġinst inct
ĠíĬ¸ ëŁ¼íĶĦ
ce pts
ìĿ¼ ìĿĢ
ã Ħ
Ġn asal
Ġcounter parts
Ġì°½ ì¶ľ
G od
ac ies
Ġexped ition
ĠJ ane
Ġë°Ŀíĺ Ģ
Ġpres um
ĠT aking
av y
Ġcomp ly
ĠTreat y
ign ed
ĠS NS
ri ends
Ġchem otherapy
B o
Ġbill ions
Ġse gments
Ġë¬ ĺ
sc ill
ĠV eter
ĠDe b
Ġsh o
ìļ´ ëĵľ
ĠDi agn
Ġë¯¼ ì¡±
m us
m ind
íķĺ ìļ°
M M
ëį° ìļĶ
role um
itzer land
Ġlive lihood
ub ric
Ġport able
ĠL ind
Ġìľ ¼
ĠRepublic an
ĠM oh
Ġlith ium
ëĭ¨ ìĿ´
íŀĪ ëĬĶ
Ġpip eline
ìł ¤
ĠBudd ha
ĠR and
Hist ory
ĠBanglades h
ĠM uh
Ġcrow d
ĠR enaissance
Ġrout ines
Ġcompan ion
lic t
Ġb ip
ĠEn cyclopedia
200 2
Ġperm its
Ġ9 7
Ġtarget ing
Ġob ese
Ġpul se
ĠB ow
Ġroll ing
Ġind ivid
ĠìŀĲë£Į ë¥¼
c ase
Ġh ur
Ġdies el
Ġper ceptions
Ġmosquit oes
Ġcurren ts
ëªħ ìľ¼ë¡ľ
T ypes
Ġb ases
ĠF em
ë´ Ħ
Ġâ ĵĴ
Ġë³ĳ ìĽĲ
Ġsm ok
h ome
Ġpou ltry
ĠìĽĶ ëĵľ
ĠAut om
Am ong
ĠCast le
Ġexplo itation
c at
ĠAr men
Ġst ir
Ġic onic
Ġcitizens hip
Ġvulner abilities
Ġcareg ivers
ëıħ êµĲ
ĠF un
Ġprom ised
ock ing
íķĻ ìĿĦ
Ġblock ed
Ġoff spring
ì° ¾
ë¯¸ ëĶĶìĸ´
Ġb om
art icles
Ġsimilar ly
Ġod d
Ġcar rier
ì ¾Į
uc ks
Ġìĸ´ ìļ¸
ĠíĮĮ ìĽĮ
s ight
ĠM ong
Ġìŀł ìĭľ
ad i
ìĦł ìĿ´
Ġë¹ł ìł¸
1 000
Ġr iding
Ġproblem atic
ĠìĿ¸ ê·¼
Ġìķ ¨
ĠPark inson
ëĵ± ê¸ī
íİ Ģ
Ġê°Ī ëĵ±
Ġer ad
Ġor th
ad ian
O ut
Ġactiv ists
ĠN urs
Ġtr im
Ġlater al
à¥ į
is ol
he um
Ġs ends
Ġhepat itis
Ġsim ulations
Ġfor b
d on
Ġì²ĺìĿĮ ìľ¼ë¡ľ
ĠS ri
ĠìĤ¬ìĿ´ ì¦Ī
Ġcompat ible
íķĺëł¤ ê³ł
ĠDef ense
Ġìłľ ëª©
c reat
Ġtr ies
Ġdet er
ĠíĿ ĳ
Ġtravel s
Ġwhe els
ìłĲ ìľ¼ë¡ľ
ĠS W
ëĭ¨ ìĿĢ
ow ed
ìµľ ê³ł
Ġdes irable
Ġgar lic
Ġexc ite
Ġbrill iant
ĠëıĻ ìĺģìĥģ
ĠApp l
le m
Ġpat ience
Ġanaly tical
Ġë¬´ ìĦł
In c
Ġexpl osion
Ġdesign er
Ġbo ats
L O
ĠS ound
Ġlegisl ative
ly n
Ġì į
Ġdeploy ment
p ers
Ġs ne
ëª ¸
ĠíĤ¤ ìĽĮ
íĬ¸ ê°Ģ
Ġinf o
Ġpass words
Ġêµ¬ ë¶Ħ
s erv
ĠT en
Ġflood s
Ġbit ter
ĠHawai i
G M
ĠF est
ìĹĪ ì§Ģë§Į
od ge
ĠLt d
e ffect
ĠL ink
ĠWe ight
Ġclin ic
Ġtra ged
Ġë°Ķ ëŀĢëĭ¤
enn is
Ġíĥ ģ
ìłķ ì¹ĺ
íĬ¸ ìĿĺ
ìĦ¸ íķľ
Ġfram es
Ġgastro intestinal
Ġdest ructive
Ġdiv or
Ġfrag ments
Ġ !
ìĬ¤ íĭ°
Ġvot ers
Ġë³´ ìĺĢëĭ¤
ĠëĮĢíĨµëł¹ ìĿ´
ëĵ¤ ìĸ´
ell o
t ically
Ġth rown
A ug
re ach
ĠMem orial
Ġpneum onia
Ġmil it
ëĭ¨ ìĹĲ
Ġden ied
Ġë°ľìĥĿ íķľ
ĠTool s
Ġ6 2
M et
ard less
Th us
ĠC F
Ġnetwork ing
Ġ6 8
Ġoutbre aks
Ġê¸°ìĹħ ìĿĺ
i age
Ġë²Ī íĺ¸
H ar
Ġforg otten
Ġëª© ìłģìľ¼ë¡ľ
íĻķ ìĿ¸
Ġcreat ure
Ġconf ined
ë° ¤
Ġobtain ing
Ġd ermat
Ġacc used
Ġê¹¨ ëģĹ
d am
p o
ĠM RI
B ook
Ġactiv ation
ĠíĽĦ ìĽĲ
Ġimport ed
Ġìĭ «
ë ±ħ
Ġsil icon
Ġunc omm
Ġì± Ļ
Ġcons p
ĠìĥĿê°ģ íķľëĭ¤
Ġì¡° ì¹ĺ
Ġsub strate
Ġas leep
Ġfung us
Ġfound ing
Ġdr ill
ĠYou th
ê³µ íķŃ
ĠAb original
Ġtra pped
Ġë½ ĳ
ol ve
Ġì£¼ ëıĦ
Ġint act
Ġaut umn
ĠB ird
Ġlearn er
ìĬ¤ ëŁ¬
Ġmaintain s
ĠT ypes
ĠC hen
ke eping
verse ly
Ġtact ics
ĠR og
íĥĢ ë¯¼
Ġdial ect
Ġswit ching
Ġwor ms
b ird
ambo o
Ġìĵ° ëĬĶ
Ġinter val
Ġadjust ed
Ġnot ably
Ġninet eenth
ĠíĨµ íķĺìĹ¬
Ġban ned
Follow ing
Ġëª¨ìĬµ ìĿ´
Ġhom eless
G reen
Ġint im
il ization
bit ious
w idth
ac ity
Ġcy cling
ìŀ ł
ur b
ĠObs erv
Ġê±´ê°ķ íķľ
Ġwar fare
ĠCon stant
Ġëī´ ìļķ
ĠìĥĿ íĥľ
het ics
Ġvari ability
ĠìĿ´ íĥĪ
Ġëĭ¬ ëł¤
ĠC ru
ĠR od
Ġì² Ļ
Ġìķŀ ëĳĲê³ł
ĠRes ults
m g
Ġout standing
ĠAI DS
íĦ° ë¥¼
Ġsepar ately
ilib rium
Ġwe ed
ĠêµŃ ë¦½
ĠV PN
à¤ ¾
Ġunc ons
ì²Ń ìĨĮëħĦ
ĠìĨĮ ìĦ¤
hes ia
ĠExec utive
Ġcent res
Ġt ale
ar ation
Ġmedic inal
Ġenjoy able
ĠìĦł íĺ¸
ĠTra ditional
ac re
Ġinstall ing
Ġb iblical
ë¥ Ļ
D own
Ġgl ory
Ġtransport ed
ĠP il
Ġundert aken
Ġg ri
ĠAg reement
ĠT ro
ĠìŀĲëıĻ ìľ¼ë¡ľ
Ġcommun icating
ĠG reg
Ġshif ting
is a
ĠSaf e
Ġmat ching
f ram
ĠS kin
ĠíĶĦ ëłĪ
ript ive
st able
Ġdemon stration
Ġb ats
ĠProt ocol
ĠP as
Ġen roll
ĠI d
Ġíı¬ ê¸°
ĠT y
ĠK al
Ġroot ed
Ġepis odes
Ġstrict ly
opor osis
ĠíĺĦ ê¸Ī
ĠT al
k h
Ġê°Ħ íİ¸
Ġteen agers
Un fortunately
Ġë¬¼ ì§Ī
Ġêµ ´
ch i
Ġrad ar
Ġpra ise
Ġconsid ers
ì§Ħ ìĿ´
Ġpartners hips
Ġpred iction
ìłĦ ëŀµ
Ġê·¸ëŀĺ ëıĦ
Ġì§ Ĳ
ĠV ideo
ar b
ven ue
Ġexplicit ly
Ġelect romagnetic
ĠìĿ¸ ë¬¼
Ġìĭ Ń
Ġpron ounced
ĠCont ent
S E
Ġu pt
ĠAfghan istan
N on
Ġfol iage
Ġattach ment
Ġimp ed
ĠR ain
ĠAl bert
ĠTe ch
S ur
ĠB all
Ġextensive ly
ose x
Ġ6 7
Ġë³Ģ íĻĶë¥¼
ache lor
ĠB ot
z ens
ĠB BC
Ġunc over
Ġm ast
Ġìŀ¬ ë£Į
ab s
Ġmembers hip
Ġtrib al
, ,
Ġset up
ĠJ upiter
Ġfact ories
¬ ëĭ¤
Ġd ump
ĠK at
us ions
ĠAff airs
Ġë°Ķ ëĭ¥
Ġdr illing
ep s
ë°Ľ ìĿĦ
Ġintermedi ate
Ġimp ul
ph ic
Comm un
Ġres ident
t r
Î ¹
Ġfant astic
Ġpe as
ol as
ëĭ¹ ìĿ´
Ġtransl ate
ĠìĥģíĻ© ìĹĲ
ole cular
ëĭĪ ìĸ´
ĠB ox
ĠAuthor ity
ĠBar b
Ġíĥľ ìĸĳ
Ġt ears
ĠëıĻìĿ¼ íķľ
ĠAr ist
Ġ20 50
rop hy
ĠSum mer
Ph oto
Ġup coming
Ġclim ates
ĠìµľëĮĢ íķľ
â ĵĴ
Ġad mit
Ġur inary
Ġê·¸ ë¥¼
Ġrespond ents
at tle
ĠAct ivity
Ġë°©ë²ķ ìľ¼ë¡ľ
ĠE dition
Ġinstruction al
Ġìłľ íľ´
ĠìĿĺ ìĭ¬
Ġp orts
Ġal b
ues e
Ġrecommend ation
Ġstr ive
ìĿ¸ ì²ľ
l ies
R T
mark et
ĠMar g
m outh
ë©´ ìĹĲ
Ġseiz ures
Ġrespond ing
p res
ĠCap ital
Ġm arch
Ġsl ope
Ġì ¿
Ġcerv ical
Ġsp here
es see
ĠC L
Ġto ll
ĠR ap
íĻĶ ìĿĺ
b en
J an
Ġe cl
Ġcon gest
Ġschem es
Ġlong est
ĠZ e
ìľ Ī
ìħ ī
Ġfif ty
Ġrepet itive
ĠR us
Ġmod est
Ġappe aling
Ġdom ains
Ġn our
Ġê°ĸ ì¶ĺ
Ġs ink
Ġauthent ication
Ġacceler ate
Ġê·¸ ëĵ¤ìĿ´
th s
ĠìĪ «
Ġr ash
Ġle verage
Ġburn s
ĠëĤ´ ìĹĲ
ĠëģĿ ëĤĺ
Ġê·¸ëħĢ ëĬĶ
Ġìķŀ ìĹĲìĦľ
oster one
Ġelev ation
Ġdis se
ĠProp het
iz able
ĠF all
Ġíħ į
Ġm ines
Ph one
ĠëĶ° ë¡ľ
ĠAct ivities
ad ows
ĠE aster
Ġbl ade
ĠAl ong
ĠVirt ual
Ġr ust
¥ Ĳ
ìĤ Ń
Ġìłķë¶Ģ ëĬĶ
ĠFore ign
Sim ilar
ĠìĿ´ ìĽĥ
ĠCh ile
Ġmic row
Ġdis abled
ĠP erson
ĠE ye
Ġvolunt ary
Ġtransform ing
Ġj et
Ġpot ato
Ġelimin ated
Ġfl oss
Ġbas eline
Ġter rible
ĠëĪĦ êµ°
Ġsupp ress
Ġë¶Ħ ìĸĳ
Ġì£¼ ìłľë¡ľ
Ġstop ping
M ean
Ġb on
Ġë¶Ģ ë¬¸
Ġpre jud
Ġse ats
ĠFre edom
Ġher bal
ĠPol itical
ĠDec laration
Ġconstit ute
Ġintest ine
Ġmet a
Ġdemonstr ating
ĠëĤĺ ìĻĶ
Ġinv isible
Ġvari ant
it ches
ĠBe ach
Ġarrest ed
a uses
ãģ ®
ĠD ig
There fore
Ġtal ent
Ch apter
G A
Ġdr um
ener ative
Ġreg ulating
Ġtest im
im b
Ġc ues
Ġstress ful
Ġìľ Ī
Ġsatisf ied
Ġëª¸ ìĿĦ
Ġcompet ing
un es
ìĤ¬ ìĹĲìĦľ
Ġindivid ually
st an
ë¦¬ ìĬ¤íĬ¸
au nt
Ġposs ession
ĠBuddh ism
an cies
Ġconvin ced
Ġíŀĺ ëĵł
Ġnarr atives
ĠUt ah
Ġgra vit
Ġsubject ed
ĠãĢ Ĭ
ĠColl abor
Eng lish
rou ps
ĠìĥģíĻ© ìĿ´
Ġload ed
Ä «
ĠìķĦ ëĬĶ
Ġfail ing
ëĭµ ë³Ģ
ĠSo il
Ġconstit u
Ġst ays
ĠG er
Ġfro st
r ative
Ġëĭ¤ ë£¨
Ġoverlook ed
g ram
ĠNob el
Ġauton omy
Ġê°ĳ ìŀĲê¸°
Ġele g
ig nt
Ġl asts
Ġmal ware
Ġalt itude
Ġaff irm
Ġen for
ë©´ìĦľ ëıĦ
ĠíĸĪ ëĬĶëį°
Ġtit les
Ġph on
Ġì±ħìŀĦ ìĿĦ
ĠP i
ĠCon sequently
ob acter
ĠApplic ation
ot hel
Ġreb ell
Ġtoxic ity
Ġ ç
+ +
ĠP it
íĶĦë¡ľ ê·¸ëŀ¨
im ination
ID S
ĠAust ria
Ġradio active
r ish
íĶ¼ ìĬ¤
Ġì¤ĳìļĶ íķ©ëĭĪëĭ¤
ĠV ill
Ġult rasound
ĠA L
lear ning
Ġdi ag
Ġtrans it
Ġg ang
Ġtur tles
Ġbr ut
Ġshel f
L ife
Ġexpress ing
Ġinev itable
u i
Ġinc ons
Ġtit led
íĮ ¬
ĠMar ia
Ġcollabor ate
ĠAll iance
Ġst ro
Ġec ology
ĠB oy
Ġreg en
ĠìĤ¬ëŀĳ ìĿĦ
ì¢ĭ ìĿĢ
Ġsurv iving
ĠìĤ¬ ìľł
Ġfree zing
l av
Ġnucle us
ĠS eed
m ans
oler ance
ĠC hemistry
ĠL ady
Ġfun gal
ê°Ģ ìĻĢ
Ġmem orial
ĠìķĪ ìĭ¬
ĠC BD
vel ation
ĠMean while
Ġ198 2
ĠSw itzerland
Ġì¢ħ ì¢ħ
Ġcool er
Ġar ises
ĠìĦ± ê²©
Ġê¶Į íķľ
Ġhorm onal
ĠìĹ¬ ìľł
Ġìĭľìŀĳ íķľ
Ġdefe ated
ê·¸ ëłĪìĿ´
å ľ
els on
Ġëª» íĸĪëĭ¤
ĠJ ordan
Ġì°¨ ëĭ¨
ĠN ev
Ġrecogn ised
Ġrig orous
Ġrep ublic
ke ley
ab ama
Ġarrange ments
Ġnot ing
unt ing
sp eed
ë¹Ħ ëĬĶ
ody n
Ġam bitious
o ad
ocy tes
Ġë°ľ ìĸ¸
ĠB eng
ards hip
ĠHol ocaust
ìĿ¸ëį° ìļĶ
ìĭľ ëĮĢ
Ġêµ īìŀ¥
ĠìĻ¸êµŃ ìĿ¸
el d
Ġì£¼ ë§Ĳ
E urope
ĠH un
ë· Ķ
ĠìŀĲ ë¦¬ë¥¼
Ġmyster ious
ru ce
ì£¼ ë¡ľ
ì²´ ìĿ¸
ĠìłľíĴĪ ìĿĢ
Ġrig id
ê¸° ê¸°
ic ates
Ġsp ont
ë² ¼
v ised
Ġmal icious
ĠìĪĺ ìĽĲ
ĠHy per
íĳľ ë¥¼
Ġquestion na
Ġre pt
b irds
Ġmark er
ĠìĻ¸ ìĹĲëıĦ
Ġrail way
n ames
ĠìĬ¬ ë¡¯
Ġuncomm on
Ġabd omen
ë Įĵê¸Ģ
ìŀ ī
ĠCom b
Ġcav ities
w ill
ĠCh ap
Ġê³ł ìłķ
Ġê¸° íļĮ
Ġeconom ically
êµ¬ ëĬĶ
Ġign or
ell ar
Ġped est
Ġmill enn
ì§Ģ ìĸ´
Ġë³´ ì¡°
Ġwell s
Ġ ^^
ĠSh ow
s ome
Ġsure ly
ier ce
w orm
ëª ½
Ġcultiv ated
Ġexam ines
ect or
Ġë°° íı¬
Ġìĭľìŀ¥ ìĿĺ
ìĥ ¤
Ġê³³ ìĹĲ
ĠDise ases
Ġend uring
Ġan a
ìĹĪ ìĿĦ
Ġhung ry
Ġg am
Ġalle ged
Ġìŀ¬ íĮĲ
ìķĦ ëŀĺ
Ġtra ces
Ġwet lands
M at
200 1
ĠN ight
il i
ĠìŀĪ ìĿĮìĿĦ
b ound
Ġpul p
ou ch
ol lo
Ġbrief ly
ì§Ħ íĿ¥
ins ic
od s
Ġcomp rehend
Ġfeather s
Ġmitig ation
ĠR E
last ing
Ġsw ord
ĠK ansas
Ġrec ru
Ġë²ķ ìłģ
ĠCy ber
Ġend less
Ġball s
ìĹ°êµ¬ ìĨĮ
ile y
ĠSt ay
Ġmit ochond
Ġac ne
ignt y
ì¶Ķ ê°Ģ
Ġíĸ¥ íķ´
h ouses
ĠCol lection
ĠChar acter
ĠDie go
ì² «
Ġkey board
H C
Ġë¨¸ ë¦¬
Ġd rew
Ġëªħ ëł¹
ĠìĻĦ íĻĶ
Ġval ves
Ġhe sit
pro t
c or
ĠD or
ĠíħĮ ìĿ´ë¸Ķ
ĠFood s
Ġlet ting
ĠëķĮ ë§Īëĭ¤
ĠP RO
w hen
ĠIncre ased
ĠM u
ĠTurk ish
ĠìĨĮ ìĭĿ
Ġse as
Ġintercon nected
ĠTh ursday
Ġtem ples
ë²ķ ìĹĲ
or ical
st orm
ign ment
Ġëĭ¤ ëħĢ
Ġbehavi ours
ĠìĦľìļ¸ ìĭľ
Ġo zone
Ġìĺ¤ íĶĦ
Ġconsist ed
Ġra ces
Ġê¸° ë¶Ģ
íı¬ ìĿ¸íĬ¸
ĠHig her
ĠInit iative
AT E
Ġexerc ising
Ġëį§ë¶Ļ ìĺĢëĭ¤
ìĤ¬ ë¬´
Ġhead ed
f il
ëĲ ¨
oub ted
Ġgau ge
ĠëĦĺ ëĬĶ
Ġëĭ¨ ì§Ģ
Ġhas n
Ġëĭ¤ ìĨĮ
Ġshoot ing
ĠN ort
Ġh ook
Ġë¶Ħ ë¦¬
Ġfre ed
ool s
Ġíı¬íķ¨ ëĲĺìĸ´
Ġemb ark
ĠL u
Ġfract ure
Ġprem ium
Ġmed ian
Ġadvoc acy
ĠS ant
iv ated
Ġinvestig ating
ë°Ķ ì¹´ëĿ¼
Ġprof iles
Ġìłģê·¹ ìłģìľ¼ë¡ľ
ê²ĥ ëıĦ
Ġstri kes
Ġtra ins
ĠìĹĨ ëĭ¤ê³ł
ìĭľ ì¼
ë¬ ĺ
Ġë »
ĠC ensus
ĠY OU
Ġì±Ħ íĮħ
ĠSp orts
Ġì¦Ŀ ê±°
ĠMill er
ĠHe at
S w
Ġcon vention
ì§ģ ìĽĲ
ĠWed nesday
Ġfl ed
Ġ198 3
ĠíĬ¸ ëłĮ
ëıĦ ìļ°
A f
Ġpro be
ĠB ud
Ġp ound
Ġbl acks
m ill
ìĹ ½
Ġlik es
ĠT rib
Ġphosph orus
Ġìĥģ ì§ķ
Ġstat ue
p her
ĠëĤ´ ìĹĲìĦľ
Ġcl ot
Ġ196 8
pris es
ê´ĳ ê³ł
ĠD ark
az a
ĠMan ager
ĠProv ide
ëŁŃ ìĭľ
ĠAr thur
íĴĪ ì§Ī
ĠA wareness
flow er
Ġsuper vision
ĠE sp
ĠPers ian
l en
ĠëĪĪ ìĿĦ
Ġd well
Ġorgan izing
ĠV ery
Ġscar ce
Ġsan itation
Ġë°© ì¹¨
Ġë°° ì¶ľ
Ġphys ic
Ġel astic
ĠìĥĿê°ģ íķĺëĬĶ
ĠT uesday
ĠM IT
Ġê°ķ ìĽĲ
Ġp iano
Ġê²ĥ ìĿ´ëĿ¼ëĬĶ
Ġabnormal ities
ĠFred er
Ġgl ue
Ġ19 18
Ġb ore
Ġsh ower
ìĦ± ìĿ¸
ëĨĵ ê³ł
ĠPr int
ĠH al
Ġuncons cious
ul as
ìļĶ ê¸Ī
ob ia
Ġstri p
ëĭ¤ ìĭľ
Ġ197 5
Ġë²ł íĬ¸ëĤ¨
Ġcryptocurren cy
ĠPer formance
ĠìĿ¸ ìĪĺ
in us
Ġ9 8
ëĥ Ī
Ġsimpl er
Ġnob le
Ġjour nals
ĠTyp ically
Ġblood stream
ĠìķĦëĭĪ ë©´
ĠTor onto
Ġìłģ ìłĪíķľ
Ġdehyd ration
ol ia
Ġë©Ķ ëª¨
Ġinfluen cing
Ġpres idential
Ġfract ures
iling ual
ĠMil itary
ë¬´ ë¥¼
Ġ14 0
Ġremem bered
Ġsc ans
ĠK ind
Ġman kind
ĠMal ays
Ġtour ist
ĠS outheast
Ġjurisd iction
ĠíķŃê³µ íİ¸
lement ary
Be ing
ìķĪ ìĿ´
Ġbas in
? âĢĻ
ĠìĿ´ ìĬĪ
Ġconf ront
Ġmis under
âĢ §
10 16
Ġê¶Į ìŀ¥
Ġìķ¡ ìĦ¸
Ġdign ity
Ġìµľì´Ī ë¡ľ
Ġreg ards
ag a
Ġ198 1
Ġdraw s
Ġconf idential
ĠìĤ´ ê³ł
ĠëĪĦ ê°Ģ
ĠEmer gency
Ġ197 2
ĠComm and
Ġvis ibility
Ġrul er
Ġinv aluable
threat ening
ĠS ong
Ġpoin ting
Ġe ager
Ġstory telling
ĠSt ock
ë°ĺ ëıĦ
Ġë§Ĳ íķĺëĬĶ
Ġnav al
Ġun su
Ġutil ization
ĠI b
ĠAst ron
ĠëĨĵ ê³ł
Ġëıħ íĬ¹
íĨ ±
Ġweakness es
Ġb inary
ast ically
ĠMay be
Ġfin ancing
ĠTra vel
Ġìī¬ ìļ´
Ġadul thood
Ġreprodu ce
ĠT B
Ġm ant
Ġë´ī ìĤ¬
ìĿ´ ë¡ľ
Ġspir its
Ġspecific ations
ĠL A
Ġgre ens
M s
il ies
Ġthreat ening
Ġìľł ë°ľ
Ġmand atory
ou stic
ren al
ather ine
ynt hesis
ĠíķŃ ëª©
Ġdis ruption
Ġe ternal
ĠA ward
Ġswe at
Ġcomprom ised
Ġë¹Ħ íĸī
ĠìĤ¬ ê³¼
Ġsil k
Ġì§Ģê¸Ī ìĿĢ
ĠìĿ¸ê°Ħ ìĿĺ
Ġëħ¸ íĬ¸
Ġautom otive
Ġ Ù
Ġpresent ations
Ġd ictionary
ĠH ad
Ġìķ½ ê°Ħ
disc iplinary
oven ant
ĠëģĮ ìĸ´
Ġ ãħ
Ġdisp ute
s im
ip se
ĠW as
ê¶Į ìĿĺ
Ġemphas ized
t wo
Ġharvest ed
ĠAr k
Ġinf rared
ĠO K
ĠPres ent
êµĲ íĻĺ
il age
ĠTor ah
M in
Ġ6 1
r ator
Ġprovin ces
ĠìĹ° ìĬµ
Ġtou ching
Ġre ass
ut ter
Ġto mb
Ġperipher al
ĠìķĬ ê²Į
iot he
ì°¸ ê³ł
Ġfor ty
Ġê²½ìļ° ëĬĶ
Ġmet all
Ġvot es
Ġun int
Ġdo zen
ĠP ediatric
ë¡ ¬
T R
Ġfluctu ations
Ġt uber
Ġdes ires
ĠC ab
Ġra m
Ġsec ular
ax is
Ġp erenn
du p
Ġfol ks
Ġìŀ¬ ìłķ
ë¬¼ ê´Ģ
ĠìĹ¬ê¸° ìĦľ
v ia
Ġauto immune
e lect
ĠC ro
ĠêµŃ íļĮìĿĺ
ĠGree ks
ropol itan
om ething
Ġart work
ìŀĲ ëĵ¤ìĹĲê²Į
Ġf art
âĪ Ĵ
v ic
ĠëĮĢ ëĭµ
ĠPh arm
Ġgradu al
ĠTenn essee
ĠìĿĳ ìļ©
Ġsequ encing
Ġë¶Ģë¶Ħ ìĿ´
ë³´ ê±´
Ġmunicip al
Ġv end
ĠìĦł ìĸ¸
Ġcoll aps
Ġstr ings
ĠCount ry
Ġesc al
ĠW inter
Ġê³µ ê°Ĳ
Ġne urop
Ġíı¬ ìŀ¥
ĠY e
AN D
ĠíĮ¨ íĤ¤
che ck
Ġcon form
st ock
Ġlit ter
Ġê·¸ê²ĥ ìĿ´
Ġwal ks
ion ed
Ġapp les
Ġíĺķíĥľ ë¡ľ
ë²ķ ìĿ¸
M icro
old ing
c ils
Ben efits
Ġsmart phone
ĠAd ams
ĠF isher
Ġsp ider
Ġsc attered
eng u
ĠPart ners
Ġvirt ue
Ġparent al
ê±°ëĵł ìļĶ
ĠG round
íķĻ ëħĦ
ĠêµĲ ì²´
Ġë¶Ģíĥģ ëĵľë¦½ëĭĪëĭ¤
ĠìĿ´ ëĵ¤ìĿĢ
ĠìľĦ ë¡ľ
Ġprot otype
Ġpath ogen
ĠP ict
sy stem
Ġë°ľ ê¸ī
ag u
ĠDel hi
ort ing
ĠCom par
ĠCon c
T op
Ġgl oves
th ird
Ġp ad
Ġë§Ī ìĿ´íģ¬
Ġst amp
Ġmoment um
ĠìķĮìķĦ ë³´
un ks
ĠArt ificial
Ġâ Ĺ
ĠIsrael i
ĠHot el
ëĵľ ìĹĲ
ĠArch ae
up uncture
p oints
Ġs or
Å į
Ġblo om
L G
Ġs ake
ĠResp ons
The ir
Ġd op
Ġshell s
Ġr um
ĠN ich
Ġwar ned
ig e
Ġë§ŀ ìĿ´
Ġsettle ments
ĠD I
ê²ĥ ìĿ´
ĠT her
are t
iz oph
Ġsign ature
Ġdiss olved
oubted ly
ĠD ate
Ġê°Ģ ìĦľ
Ġident ities
Ġrec ruit
ĠëĿ¼ ìĿ¸
ĠëĤĺ ë¨¸
ed ic
l aim
work ing
Ġsal ary
ãĢ ģ
Ġë³Ħ ëıĦ
ĠVol ume
op ard
Ġretain ed
a us
Ġcryst als
Ġret ro
ĠìĤ¬ëŀĮ ëĵ¤ìĿĦ
ĠPre p
iv ating
Ġmenstru al
Ġí ľ
Ġnegot iations
ogl ob
Ġp rize
Ġb es
Ġë¨¹ ìĿĦ
Ġacknowled ged
omet ry
Ġins erted
ĠëĮĢ íļĮ
Ġ194 4
Ġsan ct
Ġsh ame
Ġpe an
Ġhand led
Ġimpl ants
et ry
Ġref ine
if iable
ĠìĿ¼ ìĿĢ
Ġëŀ ľ
íĺĦ ì§Ģ
Ġsyn chron
Ġod or
G PT
ES CO
Ġrecre ational
Ġtra ff
Ġprin ter
od a
ĠG il
ìĦł ìĿĺ
Ġëªħ íĻķ
amm a
ĠG ro
ĠE D
Ġìķ¼ ìĻ¸
ĠAl cohol
th y
Ġpy ram
Ġretire ment
ĠíĺľíĥĿ ìĿĦ
s ize
ar p
êµ¬ ìĹĲ
ĠLouis iana
ĠâĨ ĳ
Ġencompass es
Ġfast ing
Ġqual itative
ĠClin ic
Ġam mon
ëł¥ ìĿĺ
Ġë©ĭ ì§Ħ
Ġëª¨ ìĹ¬
ĠRad io
Ġunt o
pro f
Ġfor cing
Ġem peror
Ġmet ric
Ġle ather
ĠPortug uese
ĠD ry
Ġholid ays
ìļ© íĴĪ
ê³µ ê°ľ
Ġembra cing
Ġëħ¼ ëŀĢ
n ut
ĠìĿ´ìļ© íķľ
Ġìłľê³µ ëĲ©ëĭĪëĭ¤
ĠSwed ish
S um
izoph ren
Ġcra cks
ĠP oor
ĠIndividual s
we ek
ì§Ħ ìĿĢ
Ġju ven
ĠCour se
Ġpark ing
íĭ ¸
ig o
ĠReg ional
ĠíĸĪ ì§Ģë§Į
f ires
Ġair pl
Ġfluor ide
âĪ ¼
Ġrep airs
ë¬¸ íķĻ
Ġthr one
ĠAgricult ural
Ġcontrovers y
Ġ197 3
bo ards
ĠíĮ¨ íĦ´
Ġfib re
Ġun lock
ìĹĲ ìļĶ
ĠPub lishing
Ġbul b
ĠSy d
Ġresp ected
Ġas ym
Ġo un
Ġlif elong
ìĹ¬ ëŁ¬
¼ Ī
ch a
Ġcompris ed
Ġtru cks
Ġì ³
d ose
ĠCurrent ly
Ġsec ured
ãİ ¡
å Ń
H R
ĠF oot
ĠìĪĺ ìļ©
Ġwh ites
Ġmetap hor
ê·¸ ëłĩ
ĠIm perial
Ġdel ays
ĠA N
ĺ íĶĮ
ĠW y
ĠMethod s
ur u
ĠSc i
Ġperman ently
ar an
Ġê³³ ìĿ´
Ġì¹´ íħĮê³ł
ĠOr thodox
ëĨ Ĵ
Ġ3 50
Ġpub lishing
V I
t i
Ġext inct
Ġstay ed
ĠAl abama
Ġeas iest
Ġscr atch
Ġreward ing
ëł¥ ìĿĢ
Ġshort age
M R
Ġìĥģ ìĥģ
Ġappro aching
Ġfertil izers
Ġcred its
ĠP un
Ġemail s
id el
Ġs emic
est ab
Ġinc om
ĠìĦ¸ íı¬
p op
Ġexec ute
Ġprox imity
Ġíİ Ģ
ĠíĻĺ ìĺģ
ĠìĺĪ ë¹Ħ
Ġë°ľ êµ´
Ġelabor ate
ĠP ra
Ġshould ers
am an
Ġsh ops
Ġì²Ń ìĻĢ
Ġl in
ĠMon itoring
Ġtr ash
ĠIss ues
j amin
ìĭł ê³ł
Ġfost ers
Ġinstruct or
Ġshar ks
Ġbur ial
Ġen amel
ĠLiter ature
mon th
ĠëĶ°ëľ» íķľ
ro st
Ġto y
Ġed it
ĠìķĦ ìī¬
ĠIn flu
Ġë§Į ëĤľ
Ġdet ox
ë© ¸
ĠëŁ °
Ġpick ing
Ġ194 1
Ġdec iding
Ġgu ilty
Ġbel oved
S et
Ġbod ily
Ġtr illion
Ġmod ification
ĠE le
Ġattrib ute
Ġì§Ģ ë°°
Ġìĸ´ íĶĮ
ze ch
íķĺìĭľ ê¸°
Ġlect ures
ë²ł ìĿ´
Ġemotion ally
íķľ ìĿĺ
Ġment ally
Ġë°ĶìĿ´ ëŁ¬ìĬ¤
Ġmanip ulation
Ġadjust ing
os itory
O ct
z o
ĠD ak
ag ger
z es
c ost
Ġillust rates
Ġt et
ĠQu ant
ens ions
ar ians
Ġê·ľ ì¹Ļ
íļĮ ëĭ´
ed uc
ur rection
Ġintrodu ces
ĠìŀĦ ëĮĢ
Ġtw entieth
Ġì¤ĳìĨĮ ê¸°ìĹħ
Ġenjoy ing
ĠCh anges
Ġr anks
ĠìĪĺ ë¦½
Ġstr at
Ġcort ex
ĠB road
Ġcar go
Ġë§Īëł¨ ëĲĺìĸ´
Ġs its
ĠëĳĲ ëł¤
Y et
ĠA er
ìĿ´ ì¦Ī
ê³µ ëıĻ
ne x
ìĻ ľ
Cont in
Ġanim ation
f ive
ĠStan ford
O K
Ġclim bing
Ġple asant
Ġê°Ģê²© ìĿ´
Ġëħ¸ ëł¥ìĿĦ
Ġgod dess
D ay
ĠíĪ¬ ìŀħ
ĠArch ived
Ġstimul i
ĠC opyright
ĠUS DA
ĠSt aff
ĠìĿ´ ëĵ¤
Ġ197 6
ĠS el
Ġcompris es
ond ition
ì¹ ¸
ĠM L
Ġam ph
ĠBe yond
Ġtempor arily
Ġpass ages
Ġke en
Ġdescend ants
Ġdisc ourse
ìĥĿ ìĿĦ
Ġhuman itarian
Ġded ication
Ġdetect ing
Ġìĥģ ì²ĺ
ro sc
ĠìĿ¼ë°ĺ ìłģìĿ¸
oc ide
Ġclick ing
Ġl iability
Ġìĺ Ľ
Ġhand ful
T HE
ëĭ¹ ìĿĺ
ì¹´ íİĺ
Ġqu ot
Ġton nes
Ġv ascular
Ġë°©ë²ķ ìĿ´
Ġdisadvant ages
Ġmot ors
Ġgu itar
ìŀĲ ìĤ°
ĠíĺĪ ìķ¡
ìĸ´ëĵľ ë°ĶìĿ´
get s
Ġëĭ¤ ìĿ´ìĸ´
Ġ196 9
Ġqu een
ĠSer ver
1 20
ë¶Ģ ìĻĢ
ĠFact ors
Î µ
ĠD ur
Ġoccup ational
Ġed ited
ĠìĻ ĢìĿ´
acter ial
Ġsold ier
ĠR ac
Ġsulf ur
Ġindu ce
al g
Ġr ival
ëĭ¤ ëĭĪ
ĠTh ank
ìĹĲ ëĦĪì§Ģ
Ġoccas ional
Ġre lying
Ġpot s
ĠìĿĳ ëĭµ
Ġpro claim
Ġsol ved
Ġr ip
ĠìĻ¸ êµĲ
Ġgrat itude
; ;
Ġì£¼ ê´Ģ
Ġearthqu akes
Ġl ubric
D esign
Ġdi abetic
v ar
Ġw are
Ġìŀ¡ ìķĦ
ĠT erm
ĠUs ed
1 10
ĠêµĲ ìĪĺëĬĶ
ĠP ast
Ġexclud ed
Ġmat ches
Ġfoss ils
less ness
Ġ8 8
Ġcrit ics
Ġresol ved
Ġpack ages
h ave
ë¦¬ íķĻ
ëĮĢ ì±ħ
st yle
Ġpub lish
âĨ Ĵ
is an
Ġcomput ational
ë°© ìĿĦ
ĠEm ploy
rag on
n iv
Ġrestaur ant
Ġd rones
Ġgall ons
Ġmon aster
Ġì¹ľ íĻĺê²½
ĠC and
Ġdu pl
Ġwond ering
ĠInnov ation
Ġg ast
ch y
Ġlast ed
ĠOver all
Ġblock ing
C L
ĠSat urday
s ens
ĠG and
Ġ7 4
ĠFre qu
B R
ê¸° íļį
ĠìĦ¸ ë¶Ģ
Ġdes per
Ġmat urity
ëį ´
OR D
Ġë²Į ìĸ´
ìłľ ê³µ
ëĭ¹ ìĿĢ
ĠìķĪ ìĹĲìĦľ
sec ond
j u
pt on
Ġíķĺ ìĭ¤
Ġup grad
Ġdatas et
augh ters
ĠImm un
in ators
Ġd ot
ĠMuh ammad
Ġant im
Ġgrocer y
ĠSh are
Ġhead ing
Ġguarant eed
ĠSyd ney
ĠìķĦëĭĪ ê³ł
ot ine
ĠD al
âĢĻ (
íĶĦ ëłĪ
op ause
ĠDen mark
Ġdis char
Ġhum id
ib li
Ġmar ijuana
Ġë¡ľ ë´ĩ
Ġadv ise
Ġbu g
Ġchar ity
W H
Ġhot el
ìļ¸ ëŁ¬
im ated
Ġ194 8
Ġgas oline
Ġap nea
ê°Ħ ëĭ¤
ê³Ħ ìĿĺ
Ġf ake
íĤ¤ ëĬĶ
ëĵľ ë¦´
osc ow
Ġpo le
i ens
Ġcomp osite
Ġmark ing
Ġpl ag
Ġgen re
Ġsp ite
Ġclim b
Ġflav ors
Ġrecogn ise
if ting
Ġ7 8
Ġì²Ń êµ¬
Ġsil ence
Ġìŀ¥ ë©´
ìĿ´ ìłĦ
ĠM as
oll en
ĠCol omb
ry st
h ol
il dup
Ġì·¨ ìķ½
Ġguid ing
ĠPat rick
F P
Ġplan es
Ġtre asure
ĠU pper
ĠìĿ´ìļ© íķĺìĹ¬
ĠConfed erate
Ġê±´ ì¡°
Ġo ct
Ġb apt
ph a
Ġì§§ ìĿĢ
ĠKent ucky
Ġìĸ´ëĸł íķľ
Ġparam eter
Ġ196 4
sel s
H ome
Ġf ut
ĠV acc
ret ion
ìĸ´ ë¦°
ëħĦ ìĿĺ
Ġ10 1
ĠìķĮëł¤ ì¡Įëĭ¤
Ġfavor able
Ġrequest ed
Ġdo zens
Ġexem pl
Ġmuseum s
p ath
Ġrev ised
Ġbus h
Ġë§ŀ ì¶Ķ
ĠI BM
êµ° ìĿĺ
Ġ197 8
Ġtra ced
íĸĪ ìĸ´ìļĶ
H uman
ĠìŀĲ ìĽĲ
Ġadvert ise
Ġinj ust
ĠíĶĦë¦¬ë¯¸ ìĹĦ
Ġpredominant ly
Ġspec ify
Ġ0 8
on duct
Ġoblig ation
ĠPro duction
l an
ut ers
ìłľ íķľ
Cl ass
ê» ı
Sc ience
ĠMain e
Ġam id
íĸī ìłķ
ĠAccess ed
Ġìłģ ìĿĢ
Ġ194 2
Ġg ym
Ġsign aling
Ġê²½ìļ° ìĹĲ
Ġëª¨ ìķĦ
Ġinstrument al
Ġ7 7
Ġìĭł íĺ¸
êµ° ìĿĢ
ĠíĨµ ìĿ¼
Ġinvest ed
ë¶ģ ëıĦ
ĠìĬĪ íį¼
ë¦½ ìĸ´ëĵľë°ĶìĿ´
Ġëįķ ë¶ĦìĹĲ
at ter
íĬ¸ ë¦¬
ĠìķĬ ìľ¼
ĠëĿ Ħ
Ã Ĺ
ĠB ed
ĠIndian a
Ġê´Ģ ëŀĮ
Ġê°Ģ ìĿ´ëĵľ
Ġde forestation
Ġcru el
Ġj un
ĠëĤĺ ìĻĶëĭ¤
ã Ī
Ġatt orney
Ġj ar
osp ace
ĠìłĲ ìĿ´
Ġcoord inate
ĠD ogs
Ġo ak
Ġdu ct
m i
Ġexhib its
Ġmanusc ript
ĠëĽ° ìĸ´ëĤľ
Ġ6 9
ê¸Ī ì§Ģ
ĠB apt
ì§Ī íĻĺ
ê°Ģ ìĹĲ
Ġcol oring
Ġêµīìŀ¥ íŀĪ
ëŁī ìĿĺ
Ġfo am
r int
ìŀĲ ìĽĲ
Ġ8 4
ìŀĲ ê²©
ĠÃ Ĺ
Ġb esides
ĠìĹ ĳ
iv ic
Ġm as
Ġspec ially
ĠPalest ine
Ġsp rou
em an
Ġrest ing
Ġdrag on
ĠH az
ĠCur riculum
Ġë³¸ ìĿ¸
Ġtr unk
ious ly
ĠìķĦ ëĤ´
Ġë°Ľ ì§Ģ
ĠO w
Ġë¹Ħ ì¤ĳ
Ġprot ests
M ark
Ġc ous
ĠëĤ´ìļ© ìĿ´
g roup
j o
ĠíĨµ íĻĶ
Ġíŀ Ĳ
Ġvacc inated
Ġtempor al
Ġdefic it
Ġdetrim ental
Ġexcite ment
Ġ197 1
ĠE ffective
ne ath
Ġpursu ing
ous ing
Ġgo ver
ë¹Ħ ìķĦ
min ute
Ġrel iance
ĠH ou
Ġadv ancing
ab ase
Ġmim ic
Ð »
ch ild
Ġë°Ķ ì¹´ëĿ¼
h as
Ġbreast feeding
ĠPM ID
light en
ill es
ĠLess on
Ġco h
m el
Ġlif ting
Ġfeat uring
Ġg ay
ues ts
c ount
ĠT otal
Cons ider
Ġcross ed
Ġex it
Ġpos ed
Ġsafegu ard
im s
ìĹŃ ìĭľ
ĠCapt ain
ĠR os
Ġo scill
Th anks
Ġpull ing
ĠêµĲìľ¡ ìĿĦ
Ġmembran es
ĠS yn
Ġì Įį
Ġhoriz on
ê¹ Ŀ
Ġëª©íĳľ ë¡ľ
Ġv ivid
Ġì°½ ì¡°
ĠBro ok
êµŃ ìĿ´
Ġwhere ver
Ġdirect ory
Ġ196 5
ĠR oss
ĠC M
Ġìľ µ
ĠìĨĮ ìļĶ
Ġan emia
ĠìĿ´ìļ© íķĺìĭ¤
Ġì§ĳ ìĹĲ
ĠIss ue
Ġpries ts
Ġkind ness
pl ants
íĮĮ ìĿ¼
Ġsix th
o vers
Ġìĥģ ê´Ģ
ìĭł ìļ©
Ġend urance
Ġradical s
ast es
ĠìĹ° ìŀ¥
ĠTer rit
Ġë³´ìĹ¬ ì£¼
uls ive
ĠìłĦ ìĨ¡
ëŁ¬ ë¦¬
Ġcra w
Ġsn acks
Ġ196 7
ìĹ° ìĿĦ
ìŀĲ ê¸Ī
B re
oun ter
Ġlay ing
Ġdiv isions
ĠTechn ical
ĠìĤ¬íķŃ ìĿĢ
ĠìŀĲ ìľ¨
Ġpure ly
u y
og rams
Ġê°Ģ ê²Į
ì±ħ ìŀĦ
ê°Ģ ìĬ¤
ĠCl ark
Ġìĭ¬ê°ģ íķľ
Ġat e
Ġparent ing
Ġre use
Ġcal orie
ing e
ìļ° ìĦł
Ġì¤Ģ ìĪĺ
Ġpre lim
ĠíĺĦ íĻ©
Ġnumer ical
n ote
Ġhyd raulic
im eters
Ġhome owners
Ġìŀł ìŀ¬
ĠPhil ip
ic us
W ind
Sym ptoms
ë¬ µ
Ġanat omy
ail and
ĠëĦ Ĳ
Ġsome how
Ġp m
ë ĩĮ
Ġchick ens
ĠëĮĢíĳľ ìłģìĿ¸
ĠHistor ic
Ġëĵľ ë¦¬
lim ited
Ġp ile
ĠCo al
Ġevery body
Ġcalcul ator
ĠìķĮëł¤ ìł¸
Ġadequ ately
p ill
ì°¨ ê°Ģ
ĠL ie
Ġë¬´ ìĹŃ
Ġconf using
ĠTai wan
sc ape
ìĭ ¶
ar on
ĠI owa
ĠìĤ¬ìļ© íķĺê³ł
c ard
ĠK ings
Ġbur st
Ġcapt uring
Ġprodu cer
Ġdevelop er
, '
RE E
ìĨĮ ë¹Ħ
Ġlapt op
ìĥģ íĥľ
Ġëĥ Ħ
ë¦ ĩ
exp ensive
Ġwat ched
ĠEv idence
ring e
ential s
Ġsatisf y
Ġneighborhood s
Ġìľł ìķĦ
Ġjud ges
Ġd ye
Ġillust ration
ĠLaw rence
Ġimbal ance
ĠìłĲ ìĹĲìĦľ
Ġhe ct
ĠíĻĺê²½ ìĿĦ
ĠìķĦìĿ´ íı°
Ġo re
Ġëħ¸ ìĿ¸
Ġdiff ers
Ġìĭľìŀ¥ ìĹĲ
F act
Ġel ite
ĠìĦ¸ íĥģ
ëĤĺ ê°Ģ
ĠëĮĢ ê·ľëª¨
Ġcomp iled
Ġhar assment
pat ient
ĠëĮĢ ê¸°
Ġíļį ëĵĿ
Ġr het
ĠBer keley
n utrition
elt a
Ġen force
ĠVal ue
Ġì «
Ġexp ose
Ġrein forcement
B as
Ġl ion
ìĭľ íĭ°
Ġbu ildup
Ġsh ots
Ġconcept ion
Un like
Ġqu ery
Ġë¬´ìĹĩ ìĿĦ
d ec
b ling
ìĦľ ê°Ģ
ìŀĲ ìľł
ĠëĬ¥ ëł¥ìĿĦ
Rel ated
b in
at ics
ìĦ± ìŀ¥
Ġnotice able
ic ut
2 50
Ġsusp ended
Ġë³´ ìĪĺ
Ġë² ¨
Ġcou ples
ĠAl low
ĠP s
Ġhop ing
Ġvent ure
Ġ19 14
op ter
Ġmon arch
ĠL ank
ri ans
Ġal leg
Ġëª¨ ë¥´ëĬĶ
hys ics
ĠíķĺëĤĺ ë¡ľ
ĠëıĦ ìĽĢ
ĠìĿĺë¯¸ ë¥¼
Ġcyl inder
Ï Ħ
ĠìĿ´ ìĻ¸
ĠV ision
Ġall ies
ìĿ´ ëŁ¬íķľ
Ġë§Ī ê°Ĳ
Ġë°ĺ íĴĪ
Ġì°¨ ë¡Ģ
Ġh iding
Ġê°Ħëĭ¨ íķľ
ëĶĶ ìķĦ
íĻĶ ìĻĢ
Ġê·ľëª¨ ìĿĺ
Ð º
Ġ16 0
eg rad
ĠApplic ations
ê´Ģ ìĹĲìĦľ
ĠDem ocr
Ġë¬´ìĹĩ ìĿ¸ê°Ģ
Ġclean ed
Ġbirth day
Ġë³µ ìļ©
ol is
ĠìĦ¸ ìĥģìĿĦ
Ġf ired
Ġprelim inary
F F
m ain
Ù Ĩ
Ġsufficient ly
ject ive
W omen
we alth
Ġle aks
Ġì£¼ ê±°
ê°Ĳ ëıħ
Ġmusic ians
Ġ7 3
Ġs ins
ĠA ra
Ġb ites
ĠWorks he
ig ion
Ġar sen
Ġrail road
ëĤ¨ ëıĦ
art z
ĠA B
ĠPract ices
d irect
b led
Ġë§Ľ ì§ĳ
Ġdifferent iate
ĠìĦ± ê²½
Ġconst ipation
l ier
Ġgr inding
Ġh ay
Ġauthor ized
ĠCon cer
Ġstress es
Ġrecon struct
ĠProgram me
ìĭĿ ìĿĺ
ìľ¨ ìĿĢ
ĠEst ab
Ġìłľ ìĸ´
Ġaccess ing
ĠìĪĺì¤Ģ ìĿĺ
Ġf ool
ĠSt age
Ġout lines
Ġì§ĢìĽĲ íķĺëĬĶ
Ġinter ven
ĠëĤ¨ ê²¨
S ch
ĠUn iverse
re port
Ġtom orrow
Ġuter us
rox imately
ĠM oney
Ġhe d
Ġh anging
ë´ī ìĤ¬
at to
Ġê³Ħíļį ìĿĦ
Ġmanip ulate
íĸ¥ ìĿĦ
ì¡° íļĮ
ëĶĶ ìŀĲìĿ¸
Ġav iation
Ġê´Ģëł¨ íķ´
ê¹Įì§Ģ ëĬĶ
Ġparticip ant
Ġw ishes
Ġadministr ators
ĠAd ditional
ĠìĿ¸ ì§Ģ
Ġbi ases
Ġsovere ignty
ëĶ ľ
ĠíļĮ ìĤ¬ëĬĶ
Ġwalk ed
ĠQuest ion
ãĪ ľ
ĠNew ton
ol en
ĠV iol
Ġíħ Ĳ
Ġíķ´ ìĨĮ
ĠEx ample
ĠWh it
w ich
Ġover night
Ġblo oms
Ġmicrosc ope
Ġpass enger
Ġbe aches
D s
ĠìĬ¤ íĶ¼
et on
Ġd ated
ìĹ°íķ© ëī´ìĬ¤
Ġê³ ¤
Ġsh ark
T F
íĮ ¡
ê¿ Ī
ìĸ´ ë²Ħ
Ġpul monary
Ġredu ctions
ĠL es
ëŀ ĢìĿ´
S R
Ġenthusi asts
ĠK han
ĠAnt on
Ġscan ning
f our
Ġjewel ry
Ġlike wise
ìŀĪ ìĬµëĭĪëĭ¤
ĠíĮĮ ìĿ¼ìĿĦ
Ġdisp utes
Ġd irty
ĠMathemat ics
op en
Ġper me
rolog y
ĠíĮĮ ìĿ´
Ġdisag ree
Ġë°± ìĭł
Ġ9 6
ĠìŀĪìĿĦ ê¹Į
âĢĶ âĢĶ
Ġfeas ible
ĠN E
ìłĦ ìĿ´
íķĺìĭľ ê³ł
Ġf ox
Ġequ ilibrium
Ġê´Ģ ê°Ŀ
Ġë¶Ħ ëĵ¤
Ġë¬¸ ìŀ¬ìĿ¸
ë¥´ ì§Ģ
ul ator
ile psy
Ġis ot
ĠìłĦ ê³µ
Ġtomat o
íĺĳ ëł¥
r idge
Ġcontact s
ĠIdent ify
ë³´ ë¥¼
Ġcompan ions
Ġcultiv ate
Ġlim bs
Ġw iring
el come
ill er
umb ing
ĠFram ework
int erest
ê´Ģ ìĹĲ
al in
Ġfle e
Ġêµ° ìĤ¬
Ġearn ings
Ġwound ed
On ly
Ġi P
Ġenc rypt
ĠSim ple
Ġfacilit ating
Ġsqu ir
Ġë°ĺ ëıĦ
Ġbal ancing
Ġmyth ology
Ġcon sec
Ġun ited
ìĥģ ê³µ
c ap
Ġa il
Ġprop ri
Ġëĭ´ ìķĦ
is ite
Ġd a
Ġë²Ĺ ìĸ´ëĤĺ
Ġcos mic
Ġende av
ĠìĪ ²
ĠSw iss
ĠT R
ĠF ile
Ġë³´ ìĿ´ì§Ģ
Ġportfol io
Ġìĭ¶ ìĸ´
ĠAl f
Ġ19 17
Ġneighb oring
Ġë¶Ģë¶Ħ ìĿĦ
Ġwas hed
ĠArch ives
ëįĶëĿ¼ êµ¬ìļĶ
Ġê°Ħ ìĿĺ
ra ce
ĠW olf
Ġ19 39
izophren ia
m ap
le ading
ĠG raph
ìĦ¼íĦ° ë¥¼
Ġg ig
Ġflu x
un ct
Ġ8 2
d ependent
Ġst icks
it ics
ìĥģ ê³¼
Ġë¬¼ ìĿĦ
Ġpolic ym
We b
Ġtra ject
Ġsh rubs
he w
ìĨĮê°ľ íĮħ
m ath
Ġwh ale
ĠC as
Ġinsp iring
Ġnation wide
est ing
Ġge ological
Ġdatas ets
ĠSar ah
ĠF le
ĠWe ather
Ġpal ace
Ġm ol
ìĬ¤ íĶĮëłĪìĿ´
Ġadmin ister
ëŁī ìĿĢ
Ġë¯¸ ì¹ĺëĬĶ
ĠìķĮëł¤ ì§Ħ
= "
Ġdefin itive
h n
Ġìĸ´ëł¤ ìĽĢìĿĦ
T I
Ġsurpris ingly
ĠSim on
ific ant
Ġcon ve
hem atic
ìĦ ¹
ĠE instein
ĠR un
rop ortion
Ġastron omers
u ction
Ġp ist
Ġhop ed
Ġn ests
ĠA round
Ġìļ°ìĪĺ íķľ
ress ions
ê²Ģ ìĥī
ëģ Ŀ
Ġad vers
Ġwh it
ĠReg ion
ĠìĬ¹ ë¦¬
Ġlaw yer
D ue
ĠTechn iques
Ġve in
mit t
Ġcommand er
Ġê° Ķ
Ġëªħ ìĿ´
Ġlim b
Ġcomplex ities
ìķĦ ëĭĪ
Ġle mon
Ġv ow
ann el
Ġn ights
ĠProble m
P I
Ġexp orts
ìĨĮ ëĬĶ
Ġest rogen
Ġë· °
ĠB urn
ĠN AT
ìĤ° ë¬¼
Ġìĭľìŀ¥ ìĹĲìĦľ
ĠC amb
Ġantib ody
Ġ7 6
Ġc uis
ĠíĥĦ ìĥĿ
ĠíĨµ ê³Ħ
ĠìĿ´ìłľ ëĬĶ
Ġlight weight
Ġdef ence
ìĹĪ ìĸ´ìļĶ
d esign
ìĭĿ ìĿĢ
ab y
Ġdisplace ment
ight ing
ìŀĲ ëĵ¤ìĿĦ
ĠëĦ£ ìĸ´
it ations
an alysis
Ġíľ´ ê°Ģ
Ġstrong est
Ġult ra
Ġturb ines
Ġpropos als
Ġì¶Ķ êµ¬
Ġsubject ive
ed ed
ĠNep al
C re
ĠTo o
Ġê³³ ìĹĲìĦľ
ist le
Ġg low
Ġê²° ë¡ł
ĠGen esis
ĠH ope
Ġw re
ë°Ľ ìķĦ
Ġterrit orial
ĠFed eration
ë³´ ëĵľ
ustain ability
Ġob struct
Ġ197 4
ê¸Ī ë¦¬
ĠM oscow
ĠDet erm
ìŀĲ ëĵ¤
Ġdeb ates
Ġadjust ment
Ġhier archy
Ġvisual ization
Ġwork out
Ġíķ© ê²©
Ġgra zing
ìĸ´ ìĿĺ
Ġdefic iencies
Ġnest ing
Ġëĵ± ìĿĢ
Ġab ortion
L ong
Ġpil grim
íķ¨ ìĹĲ
ĠëĤĺ ê°Ī
vironment al
ĠO ak
ĠBC E
Ġsex ually
Ġfriends hip
Ï ģ
w alk
Ġbul let
Ġu mb
ĠImport ance
ĠS now
Ġreef s
ĠH PV
Ġì¤ĳ ë³µ
th an
ëĲĺìĸ´ ìķ¼
cont rol
u pp
Ġrele asing
Ġce iling
ĠìĿ´ë¯¸ ì§Ģë¥¼
Ġun ions
am on
ĠP TSD
êµŃ ìĿĢ
trans mit
ĠEvery one
Ġwaters hed
T reatment
ixt ures
Ġad here
e at
g ly
Ġref lux
íĨµ íķ©
p g
ĠëĽ° ìĸ´
g ender
Ġd orm
Ġíķĺ ëĵľ
Ġê¸°ì¡´ ìĿĺ
ĠProble ms
Ġd warf
Ġd olph
A ccess
g age
Ġwe ights
ìķ Ĺ
ì§ģ íķľ
Ġmicrobi ome
ĠB rad
ĠìĨĮ ìħľ
Ġfl ags
ĠAd apt
Ex per
ot le
Ġv oy
ĠL if
Ġcontroll er
ëŀ į
ĠTechn ologies
==== ====
ard o
er k
ĠëĤĺ ìĦł
em en
Ġíĺ¸ íĿ¡
E xt
Ġìĵ° ê³ł
ĠìĹ´ ê³ł
Ġìĺ¤ ë¥ĺ
ĠC ass
Im port
ĠEconom ics
Ġsal iva
Ġë© °
Ġst igma
ìĽĲ íķľ
ĠMag azine
in formation
Ġdisapp eared
ë¥ł ìĿĦ
ĠSp ect
Ġcle ans
ĠAl t
Ġíĺĳ ìĿĺ
Ġgravit ational
am ation
se arch
Ex ample
ĠC zech
Ġcl ues
Ġloyal ty
Ġì¿ł íı°
ĠK y
Ġm aj
Ġweaken ed
S I
ä ½
Ġv ic
ĠMult iple
ì§Ģ ìĹĲìĦľ
S L
ëª ĩ
p ret
cul osis
G iven
Ġspot ted
y st
res pect
Ġfirm ly
ĠCub a
íķĺë©´ìĦľ ëıĦ
ĠAp ollo
ĠUS D
Ġstain less
ĠCa uses
ĠS ARS
car bon
P oint
at is
ah oma
Ġveter ans
Ġbat t
ìĺģ ìĹħ
íļ¨ ê³¼
ìķ½ íĴĪ
ìĽ¨ ìĿ´
ĠB ron
ë¬¼ ë¡ł
Ġdistrib ute
Ġì§Ħ ìĭ¤
ew able
ëĤ´ ê¸°
Ġrepresent ations
F requ
part y
icro bial
Ġrob otic
ĠìĿ´ë²Ī ìĹĲ
p ub
Im pro
Ġl augh
ìĦľ ìĿĺ
ĠíĻĶ ëł¤
ĠHam ilton
ace ous
Ġìĭľ ê¸°
Ġoptim ization
Ġveter inary
L a
ë¯¸ íĦ°
Ġcor rection
Ġìħ Ķ
Ġdem ographic
Ġìĭ¬ ìĤ¬
z ant
Ġturb ine
Ġìı ŁìķĦ
c oin
ĠB ob
Ġì¦Ĳ ê±°
ĠB ase
ĠVen us
Ġcoc onut
Ġwild erness
S chool
ĠR A
ĠOtt oman
Ġes oph
ĠIm ages
ke ep
ĠMem ory
Ġíıī ìĨĮ
íķĺ ìħ¨
Ġgover ning
ĠìŀĲ ìłĦê±°
ĠD ra
ĠìĿ¸ ê¸°ë¥¼
ĠëĤĺ ìķĦê°Ģ
Ġìº ¡
Ġal gebra
heum at
Ġdef ensive
Ġright eous
ĠCh i
ound ing
w elling
Ġback up
u ce
re a
ë³´ ìŀ¥
Reg ular
ĠìĹ´ ìĸ´
íĮĲ ìĿĦ
Ġdram a
ĠSud an
Ġdes cent
Ġëĭ´ ìĿĢ
Ġtable t
Ġë³Ħ ëıĦìĿĺ
Ġder iv
ëĭ «
cell ular
Ġinst ability
Ġins omnia
Ġpredict ive
Ġprohib ited
ĠìĹ¬íĸī ìĿĦ
ert o
Th ree
ë¦¬ ê²Į
Ġcelebr ations
ĠH ans
ë¶Ģ ìŀ¥
Ġì°¨ ìĿ´
er ting
Ġfast est
Ġíİĺ ìĿ´ìĬ¤ë¶ģ
m other
ë¦¬ ì¼ĢìĿ´ìħĺ
Ġë¬´ ê²Į
Ġcollect ively
ĠìŀĪëĬĶëį° ìļĶ
Ġb ru
Ġliqu ids
Ġpr uning
Ġnew er
Ġ7 1
ĠK ir
Ġposition ed
Ġtri angle
Ġeleph ant
ĠProtest ant
Ġpurch ases
Ġt ales
Ġlink ing
Ġíģ´ ëŁ½
Ġíķĺ ìĺĢëĭ¤
Ġ0 1
at ivity
ìĹ¬ ìŀĲ
ill ery
00 00
Ġse ism
Ġdecl ining
le ys
ĠìŀĲì²´ ê°Ģ
n c
ìĩ¼ íķĳ
ĠW aste
utri ents
Ġë£ ¸
Ġdr one
Ġl ips
ple asant
Ġbutter flies
Ġbuff er
ef t
ìĸ´ íĶĮ
Ġëĭ¨ìĪľ íŀĪ
AC T
ĠS E
Ġíĸī ìľĦ
Ġsoon er
M ult
Ġtra it
ìĥģ íĻ©
Ġres in
ĠThrough out
ĠíĶ¼íķ´ ë¥¼
Ġìĭł ìĦł
ĠCons erv
Ġs ap
Ġman ually
ĠíĨł íĨł
ë§Ĳ ë¡ľ
ëĮĢ ìĹĲìĦľ
Ġìļ¸ ìĤ°
od ia
ĠPr ice
ĠAl ber
ìłľ ìŀĳ
im ental
Ġdepth s
Ġpe pper
Ġë¹Ħ íĥĢë¯¼
Aut hor
Ġcar ved
ĠN an
ĠCon struction
ĠL akes
ĠRec ent
Ġbroad ly
ĠEnc ourage
íķ´ ì£¼ëĬĶ
Ġperform s
Ġsmart phones
Ġíģ´ ëĿ¼ìļ°ëĵľ
Or gan
Ġthe ft
ign ant
ĠëĤĺìĺ¨ ëĭ¤
Ġì½Ķ ëĵľ
Ġoff ensive
Ġpl ural
Ġìľł ìłĢ
Ġspread s
Ġb ureau
ĠOlymp ic
Ġdisc iples
ĠCompan ies
ĠHealth care
cl er
ê¸° êµ¬
Ġmult if
ëĭ¹ ìĿĦ
Ġarchitect s
ĠStrateg y
Ġrel uct
Ġunder neath
Ġvalid ity
Ġ8 6
N O
ert ility
ĠCal cul
ĠM obile
au x
Ġped ag
ìłģ ìĿ´ëĭ¤
O pen
íĿ Ĳ
ĠCit iz
ĠLeg al
ë¹ Ĺ
âĢ ¤
ĠPh oto
Ġintent ions
ĠDis orders
ier ra
Ġexcept ions
Ġunp redict
ul ph
Ġche w
Ġload ing
ìłķ ìĥģ
Ġremov es
Ġlov es
Ġret reat
aud i
x x
Ġsimpl est
ĠPlan et
ì²´ íĹĺ
kl ahoma
ĠR oc
ot onin
ĠìĬ¤íĬ¸ ëłĪ
ĠProg rams
Ġj e
Ġbo iling
Ġyog urt
Ġreg ression
Ġë¬´ìĹĩ ë³´ëĭ¤
Ġëĵ± ê¸ī
Ġreve aling
z i
ĠìĿ¸ ê¶Į
Ġìŀĳ ëħĦ
Ġdyn asty
Ġstimul us
Ġimpro per
Ġperiod ic
cc oli
ĠTh ailand
ĠAn th
Ġext rem
ER T
Ġë°© ìĹŃ
íķĻ ìĬµ
ĠPro b
Ġintu itive
Ġstim ulating
Ġt ags
ìĿ´ ëĭĪ
Ġìī½ ì§Ģ
Ġëª© ìĤ¬
M B
Ġepid em
Ġin expensive
ê¹ Ķ
Ġempir ical
ìĦľ ìĹĲ
ĠìĿ´ìľł ê°Ģ
Ġtherap ists
ĠíĻľ ë°ľ
ant e
Ġsing ular
Ġrun off
Ġme ats
L ist
h ind
ĠQue ens
Ġwarm th
Ġtraged y
Ġp seud
Ġinterpret ations
Ġgly c
ond er
ĠëĤĺ ìĺ¬
ĠPol ice
urg ical
Ġì¶© ì¡±
ĠF ox
l ab
íĶĦ ë¦¬
Ġexplo it
ĠCh air
ĠI g
ĠìĤ¬ìļ© íķĺë©´
Ġê³¼ ìĹ°
ĠìłĦ ê°ľ
Ġìħ Ī
ê²Į ìļĶ
Ġinteract ing
Ġpract ically
Ġëį° ë·Ķ
G s
ri ages
ĠOrgan ic
Ġë¬ µ
ìĿ´ ëłĩê²Į
å Ĳ
ĠR ot
Ġprocess or
Ġne arest
J u
ĠV I
Ġhost ed
t ail
Ġdisc on
ĠL uke
Ġincom plete
Ġde af
ĠA bs
Ġform ally
Ġ3 60
ĠBen jamin
Ġìļ´ìĺģ íķĺëĬĶ
Ġdark er
ëª© ë¡Ŀ
Ġlight ning
Ġprol if
Ġë¶Ħìķ¼ ìĹĲìĦľ
w ear
Ġh ollow
Ġenter prises
Ġperform ances
D av
w orms
Ġë³´ ìĿ´ê³ł
Ġcart ilage
Ġacceler ation
ĠìŀĦ ìĥģ
ĠW ords
ĠG ram
Ġtoler ate
S K
ë¸Į ë¦¬
Ġinform ative
ê³Ħ ê°Ģ
Ġanticip ated
Ġshif ted
Ġall ocation
Ġev apor
ĠK T
Ġ è
th a
Ġmod er
ĠëĪ Į
Ġintern ationally
Ġdep ressed
Ġlov ing
Ġaer ial
ì§Ģ êµ¬
ĠB os
ĠìĥĿ ê¸´
Ġêµ¬ ëıħ
ant ing
pl er
Ġpric ing
ĠM un
Ġì°½ ìĿĺ
tain s
ans om
Ġëĵ¤ ìĹĪëĭ¤
enn y
Ġê¸´ ê¸ī
Ġn ail
ĠAct ive
Ġel imination
art ed
i w
ĠìĭĿ ë¬¼
Ġafter wards
com put
Ġund oubtedly
Ġqu otes
Ġfl ora
ĠProduct s
ìĺ¤ íĶĦ
Ġì¹ĺë£Į ë¥¼
Ġaccum ulate
Ġweek end
author ized
Ġo ven
ĠCommun ist
Ġparam ount
Ġê·¸ ëł¤
Ġaccept ing
Ġë¶ĦìľĦ ê¸°
Ġê¹Ķ ëģĶ
Ġt ires
Ġp ear
ĠìłľíĴĪ ìĿĺ
D esc
Ġì§ĳ ìĹĲìĦľ
Ġatt raction
ĠExpl ain
Ġsupp orters
lo ads
v able
op hers
Ġmush rooms
ĠIce land
íķ´ ëĭ¹
L ess
th ink
Ġinf erior
Ġë§Į íķľ
ĠC I
ìĿ¼ ìĿĺ
Ġjud icial
ĠìłĦ ë¶Ģ
bre v
ê¸° ë³¸
ĠN uclear
ĠìĽĲ ìĿ¸
U lt
Ġ3 000
ac hers
Ġpock et
E lect
ê³ł ê¸°
íĬ¸ ìĹħ
Ġunf ortunately
D B
ly wood
ul iar
Ġì´Ī ëĮĢ
Ġk ick
Ġì¼ĢìĿ´ ë¸Ķ
Ġsp ill
ĠPer u
f und
ĠìĿ¼ ìŀĲë¦¬
z ema
ĠC os
ëĿ¼ìļ° ìłĢ
ĠH V
ĠU ntil
Ġfl ame
Ġcent ered
ĠìĦłíĥĿ íķł
Ġrelax ed
ĠT ell
us er
Ġselect ive
Ġrev ision
Ġg rief
) ?
Ġfru stration
Ġì°¾ ê³ł
ĠFest ival
Ġrat ios
first name
Ġaltern ate
Ġbase ball
Ġ194 7
ĠìĹĦì²Ń ëĤľ
Ġfeed s
ĠExt ension
ìĿĦ ê¹Į
es ar
ê°Ģ ìŀ¥
ĠRec overy
ĠBas in
ĠI M
ĠìĬ¤ ìľĦ
Ġparad igm
ĠìĪĺìĺģ ìŀ¥
Ġplanet ary
oph il
ìĤ¬ìĹħ ìŀĲ
ê±´ ì¶ķ
Ġ197 7
Ġsin us
Ġìķł ëĭĪ
Ġg uests
Ġì¡° ìĸ¸
Ġcivil ian
ìľĦìĽĲ ìŀ¥
ì¿ Ħ
Ġany way
Ġclaim ing
Ġkn ife
ĠEurope ans
Ġcommission ed
Ġsw ift
ĠìĿ´ê²ĥ ìĿ´
ĠC ognitive
Ġ15 00
Ġpre st
ra cle
Ġê¸° íļĮê°Ģ
ìķĦ ë²Ħ
ë¦½ìĸ´ëĵľë°ĶìĿ´ ìłĢëĬĶ
Ġgar bage
ĠVictor ian
Ġep ic
ĠI R
Ġrel ied
Ġcons erve
Ġdepos it
Ġë§Ī ìĿ´
br ates
ĠëĮĢ ë³Ģ
Ġì¡° ìŀĳ
ĠStrateg ies
ĠSqu are
ì¹´ ìĿ´
Ġprompt ly
ĠG ospel
ĠëĤ Ń
ĠìĿ¸ê³µ ì§ĢëĬ¥
Ġdes erve
Ġbo il
Ġf iscal
Ġinc ub
Ġfree ze
Ġdispl aced
Ġìĥ Į
ĠìķĦ ëĵ¤
Ġrom antic
en c
ĠPsych iat
Ġë°© ìķĪ
br ush
Ġf right
ĠG A
Ġoste oporosis
Ġmist aken
ĠVis it
Ġì§ĳ ëĭ¨
íĻľ ëıĻìĿĦ
Ġëį ®
ĠSt ore
amil iar
Ġbare ly
Ġ q
Ġthr iving
Ġsched ules
Ġíķĺ ìĭľ
els ius
Ġë¬¸ ìĿĦ
Ġìŀ¥ ê´Ģ
Ġhand y
Ġfrag ile
ë¡ľ ìļ°
Ġ196 3
ìłľ ìĻĢ
Ġeleph ants
Ġcont ag
Ġê°Ģ ì¹ĺê°Ģ
is ure
ĠD ead
ĠG i
ater n
he it
ìĬ¤ íĦ´
Ġìłģ ë¦½
rav iolet
low er
M arch
Ġë§Ĳ ìĿ´ëĭ¤
Ġconver ting
Ġassemb led
ĠPop ulation
an ic
Ġed ible
Ġseed lings
Ġpen cil
Ġkind ergarten
Ġcomplement ary
Ġworth y
Ġsw ing
Ġì¶Ķ ìłķ
Ġrul ers
Ġimpact ing
Ġfil ed
ut able
Ġex terior
ĠSat urn
Ġmig rants
Ġab st
Ġë³´ ìĥģ
Ġfit ted
Ġfabric s
Ġê²½ìļ° ëıĦ
Ġl amp
Ġcr ude
Ġca ut
ĠíĮĮ ê´´
Ġdin osaurs
Ġë§Īì°¬ê°Ģì§Ģ ë¡ľ
ĠD ocument
Ġmus cular
ìŀ¥ìķł ìĿ¸
Ġhist ories
ĠÂ ±
Ġdifferent ial
ii i
Ġup ward
ĠMe asure
te g
ĠíĬ¸ ëłĪìĿ´
ìĹ¬ ê¸°
od us
ë¯¸ ëŀĺ
ĠExper ience
M W
ìļĶ ìĨĮ
ĠF ried
ar o
icult ural
Ġcelebr ating
m ir
ìĬ¤ ë§ĪíĬ¸
Ġë°ľíĳľ íĸĪëĭ¤
Ġsal vation
Ġë§ŀ ê²Į
Ġrab bit
Ġê¸° íĽĦ
Ġt in
ìĬ¤ ìĹĲìĦľ
íķĺìĹ¬ ìķ¼
Ġt u
ester day
Ġd ens
Ġcapital ism
ĠO wn
Ġqu it
Ġë¬¼ ìĸ´
ìª½ ìľ¼ë¡ľ
íĸ¥ ìĿ´
A pril
Ġì§Ħ ìŀħ
Ġret ina
ĠAlex and
Co V
Ġche wing
ĠPar ks
Ġwant ing
Ġh its
j e
Ġtransform ative
ìĹ ĳ
St ate
Ġrad ius
ì¼Ģ ìĸ´
Ġsens ing
E st
Ġìŀħ ìŀ¥ìĿĦ
ĠUN ESCO
ĠÂ »
I dent
Ġprim itive
T ype
ĠìĨĮ íĻĶ
F eb
ĠíķĺëĤĺ ëĬĶ
D NA
Ġequ itable
ì½Ķ ìĿ¸
ìĿ¼ ë¡ľ
Ġìľł ê¸°
Ġswit ches
Ġê¹Į ì§Ģ
ĠR at
og ical
bol a
Ġinstant ly
Ġtang ible
Ġmin istry
Ġìĭľê°Ħ ìĹĲ
Ġpro st
A ust
ig uous
Ġex clusion
ĠGet ting
Ġinv ite
Ġn ails
Ġì´Ī ê³¼
R et
Ġíŀĺ ìĿ´
Ġmul ch
Ġìľł ëĭĪ
Ġt ent
Ġoxid ation
ot ics
ĠH yp
Ġíĺ¸íħĶ ìĿĦ
ĠT a
ĠOcc up
Ġì§ĢìĨį ìłģìĿ¸
Ġìķ¨ ë²Ķ
J une
ë§Į ìľ¼ë¡ľ
Ġíı¬ ìĬ¤íĮħ
ĠAd vis
ĠAcad emic
å Ī
Ġì¢ħë¥ĺ ìĿĺ
Ġens l
ĠíĮĲ ê²°
Ġkn ock
ĠE X
ĠìĨĮ ìĨ¡
V ol
Ġfl aw
íħĮ ìĿ¸
ĠJ oint
Ġê°Ĳ ìłķ
Ġ8 7
ĠìĤ¬íķŃ ìĿĦ
ĠëĬĲëĤĮ ìĿ´
Ġsick ness
ëĵ Ģ
Ġun con
op a
Ġinter section
ĠS alt
d ers
Ġ ãħİãħİ
el le
Ġìŀħ ê³ł
ëĤĺ ìĿĺ
ĠCreat ing
Ġbu nd
ê°Ħ ìĹĲ
Ġdisc ont
ìĿĮ ìķħ
Ġìĭľìŀĳ ìľ¼ë¡ľ
ĠS O
Ġìĥģ ìĦ¸
ĠF ortunately
Ġjust ify
Ġdon or
Ġfest ivals
Ġoverwhel med
Ġappear ing
Ġtri um
ias m
ëıĻ ìĿĺ
ĠCont ents
ĠëĮĢ ìĦł
est y
c ultural
ĠGo als
ĠíĦ ¸
ct ica
Ġì ĮĢ
Ġìļ° ì£¼
Ġpet roleum
in os
ĠAn imals
Ï Ĥ
Ġcat astro
Ġrobot ics
Ġaccount able
Ġfit ting
Ġìĭ¤ ì§Ī
Ġê´Ģ ì°°
Ġl ucky
ĠN H
Ġinter faces
Ġëĸł ìĺ¬
Ġ 000
Ġpool s
Ġ7 9
ĠW ang
Ġse als
Ġappro ached
ĠìĬ¹ ìĿ¸
Ġgu ilt
ĠìĿ´ ìŀ¬
Ġass ass
ist a
Ġíĥĳ ìŀ¬
Ġ8 3
ĠH ug
Ġdocument ary
ê²ł ì£ł
lighten ment
l ie
Ġìłľê³µ íķľëĭ¤
is ive
ij ing
ĠH R
ëĤ Ń
Ġsqu ee
Ġok ay
at urated
Ġê¸° ëıħêµĲ
ĠëĤ ¸
Ġapp ar
Ġath lete
ĠìłķëıĦ ìĿĺ
Ġdecor ative
ìĭľ ì¦Į
In stead
Ġden om
Un iversity
Ġse aled
Ġdeal t
ëĿ¼ ìĹĺ
Ġë¥ ĺ
Ġst ating
ëħĦ ìĹĲëĬĶ
Ġ9 3
Ġwond ers
Ġkne es
Ġret ired
se en
uc ing
Ġext r
Ġcoll agen
Ġport rait
Ġfert ile
Ġê°Ģê¹Į ìĿ´
ĠS A
U P
Ġfisher ies
Ġ194 3
Ġê·¸ëŁ¬ íķľ
Gl obal
âĢ ³
e ur
Ġfilt ration
ĠD ream
Ġa pt
ĠFor um
Ġfather s
on omy
od d
ĠAll en
head ed
h um
Pro v
Ġcor ners
Ġed itors
Ġoverse as
ĠíħĮ ë§Ī
Ġl ady
ĠE ve
Ġê²ĥ ìĿ¸ê°Ģ
ë¸ Ĳ
Ġëĵ¤ ìĹ¬
Ġent ries
ĠB Y
ê¸° ì§Ģ
Ġcommercial ly
Ġcar riers
it ably
ĠN I
ëĭ¨ ì§Ģ
ĠíĽĮë¥Ń íķľ
íĸ ĩìĤ´ë¡ł
Ġto es
Ġcoord inated
Ġì²Ń ìĨĮ
Ġë°ľ ìĨ¡
le vant
Â »
ĠìĿ¸ íĶĦëĿ¼
Ġìłľê³µ íķł
ĠConnect icut
ĠN ile
ĠDougl as
W A
ĠR ule
ì¡° ë¥¼
Per haps
l ad
Ġwood s
Ġb amboo
Ġen velop
Ġemerg encies
Ġover head
íĢ ´
Ġtur tle
Ġgener ators
Ġë³Ħ ë¡ľ
Ġrecogn izes
ĠL anc
íı¬ ë¥´
ĠíĴĢ ìĸ´
ðŁ Ĵ
ĠEthiop ia
Ġbl ades
Ġs lic
we g
Ġcompl aints
ĠìĿµ ìĪĻ
ì§Ī ìĿ´
ëĮĢ íĻĶ
Int roduction
Ġf ocal
ĠEd itor
Ġë¯¸ ìĦ¸
ĠìĿĮ ìĭĿìĿĦ
ĠY oga
es ome
op ia
Ġaband on
Ġêµ¬ ìĨį
ore st
ER E
Ġmagn ific
Ġaim ing
Ġprivile ge
ĠL oc
Ġk ern
Ġlog istics
ĠD ent
Ġconf ron
íİĺ ìĿ´ìĬ¤
Ġhack ers
se a
ur ved
ĠëĤ´ ëĨĵ
Ġchromos ome
Ġut ilities
Ġìĺ¤ëĬĺ ìĿĢ
Ġun pleasant
ĠAnd erson
ĠëıĻ ë£Į
es y
C or
ĠU g
Ġresearch ing
b irth
Ġì§Ģ ìĹ°
Ġaffect ion
ĠO ral
be at
Ġaud itory
ĠíĿĶ ëĵ¤
ĠëıĻ ìŀĳ
ĠRec on
ĠFin land
Ġë¹Ħ ìĥģ
du e
organ ic
r ings
ap le
Ġcommer ce
Ġdos age
Ġì¤ĳêµŃ ìĿĺ
op ping
ut t
Ġê°Ĳ ê°ģ
ê²Ģ ìĤ¬
l iness
Ġrisk y
Ġaster oid
Ġbutter fly
Ġheav ier
Ġê³µê°Ħ ìĿĦ
Ġden y
Ġtest ament
ĠíĪ¬ íĳľ
ĠAnn ual
Ġm esh
Ġt ie
Ġë©Ķ ìĿ¸
íİĻ íĬ¸
ĠO klahoma
ĠGen er
Ñ ĥ
ë§Ī ì¼ĵ
Ġpassion ate
ĠìŀĲ ê¸Ī
ĠìĥĿê°ģ íķ´
ê°Ŀ ìĭ¤
Ġfulf illing
ro d
ëĭ¤ ë¦¬
ĠResp onse
ĠS in
ëħĦ ìĥĿ
Ġíķ´ ìĸĳ
ëĳ ĳ
Ġbron ze
Ġtra ils
ĠT s
p a
Ġë Į
Ġm ad
Ġsub mar
ĠCom plete
Ġtext book
Ġhost ing
ir ts
ĠB and
Ġintrig uing
Ġcyl ind
Ġref use
st ones
ang a
ĠìĿ´ ëķĮ
Ġemit ted
n ational
ĠIn j
Ġw ip
ĠD ick
Ġco ach
ï ¸
Ġspect acular
str ong
Ġcub ic
Ġmon uments
read ing
id en
ĠImport ant
ĠìĦ±ê³¼ ë¥¼
f in
ĠAmeric as
Ġh ire
Ġdisp roportion
ĠëıĻ ê¸°
Ġs ie
íģ´ ëŁ½
Ġê¸°ëĬ¥ ìĿ´
Ġìŀħ ìĿĦ
us ually
ed ience
ĠC art
Ġë¡ľê·¸ ìĿ¸
Ġqu oted
In cre
ĠD NS
Ġíĸīë³µ íķľ
olith ic
Ġg em
ĠN ag
Ġinf inite
Ġfacilit ates
Ġl ob
ĠP F
ë¡ľ ìĿĺ
Ġco operative
Ġì½ĺíħĲì¸ł ë¥¼
) )
ìĽ ¹
ìĭ¬ ìĿ´
Ġpron unciation
Ġtight ly
ĠìĿ´ ìĬ¤
Ġíıī ìĥĿ
val ue
h u
M c
ĠC over
ë¦¬ ëĿ¼
Ġformer ly
Ġphilos opher
C y
ī ìĿĢ
Ġë¬´ ìĭľ
S QL
Ġopio id
art icle
ĠIn sp
ĠL iver
Ġê±° ì§ĵ
Ġcryst all
ĠStr ong
ëł ģ
Ġë° ´
ë¯¸ ìĪł
ch anging
Ġmonit ors
ĠEvent ually
Ġcar b
Ġstro kes
ĠVar ious
Ġg host
Ġë¬¸ ìŀĲ
h is
Ġìĸ´ ê¹¨
Ġpar ish
ë¦¬ ë©´
ĠZ one
Ġadvis able
ĠHar ry
Ġso f
ocr ine
) -
Ġêµ¬ìĦ± ëĲľ
ch ildren
Ġmar itime
Ġtim eline
ĠêµŃ ìłķ
Ġflo ors
Ġvers es
M aking
ĠT rue
Ġrese mble
ĠBra nd
og g
Ġp ave
ĠGuid elines
Ġones elf
ĠHow ard
Ġëĵ± ê³¼
Ġland ed
ĠCrit ical
Ã º
Ġter restrial
ĠJud a
Ġact ed
p ot
ê¸ ĢìĿ´
Ġdemand ed
Ġd aughters
Bel ow
ĠJ oe
ĠPen insula
Ġëĥī ìŀ¥
ĠS ize
Ġman ure
ĠëĤ¨ ìĿĢ
Ġ iod
ĠG ib
ìĺ¤ ê³ł
ë°° ë¥¼
ere rs
Ġres ort
ìĨĮ ìĿĺ
ĠSt reng
Ġd ancing
Ġpec uliar
ĠF ah
ì¡° ì§ģ
ĠCommun ications
ĠìŀĦ ìĭł
Ġqu iz
Ġpat ron
ĠDown load
Ġreact or
Ġad olescent
Ġcomp ressed
Ġëª» íķł
ay an
or rh
Ġb end
Intern ational
S uch
ur ban
Ġìŀ¬ ìĤ°
Ġth irst
Ġ é
Ġë§Ĳ íĸĪìĬµëĭĪëĭ¤
it o
ĠI CT
ĠëĮĢ ì²ĺ
Ġrecon struction
ìĽĶ ëĵľ
ìĿ¸ ëĵ¤ìĿĺ
ĠO ri
ê²Į ìĭľ
Ġê³µ ë¬´ìĽĲ
oc ene
Ġ9 2
Ġin appropriate
p ol
p ublic
ê°Ģ ë¡ľ
ĠëĮĢíĨµëł¹ ìĿĺ
Ġì§ĳ íĸī
Ġprompt ed
rit er
Ġconsequ ently
ĠPal ace
v o
Ġacceler ated
ê¶Į ìĿ´
ĠAssoci ate
Ġvig il
Ġdestro ying
ĠìĨĮ ë°©
ay ers
Ġper t
ĠíļĮ ìĤ¬ìĿĺ
ìĸ¸ ë¡ł
Ġcor rupt
Ġgr ate
N atural
Ġtra gic
íķ´ ìĻ¸
Ġtransl ates
Ġê·¸ëłĩ ì§Ģ
im ore
Ġank le
ud a
ĠìŀĪ ëĤĺìļĶ
Ġcond ens
em ap
ìĸ Ģ
Ġfl ights
ãĢ Į
AS T
s hip
Ġtra ps
ĠíĻľìļ© íķľ
Ġdivor ce
íĽĪ ëł¨
Ġm ites
ĠUk rain
ĠAm b
Down load
ëĭ¤ ë§Į
ĠìĹ ī
19 99
Ġver ification
ĠìĿ½ ìĸ´
h o
Ġclub s
ìŀĲ ìĿ´ëĦĪ
Ġco hes
Ġwors en
Pro t
ĠìĽĮ íģ¬
ĠR ange
Ġneed ing
ëĦ ¥
Ġad mission
ëįĶ êµ°ìļĶ
Ġap ost
ĠMot or
m o
m aker
Ġemphas izing
ĠW right
Ġalph a
Ġlaw su
Ġgu est
ĠBro ther
g rowing
Ġunder going
ĠíļĮ ìŀ¥ìĿĢ
Ġ196 1
Ġë§ŀì¶¤ íĺķ
ĠBy zant
ĠëıħíĬ¹ íķľ
Ġchlor ine
Ġë³µ íķ©
ĠG ab
Ġíģ¬ ê¸°
Ġter r
Ġlog ging
Ġviol ations
Ġrecip ient
ĠF riends
ot ox
ĠB ull
Ġsen iors
Ġê·¸ ìĹĲ
Ġprop ose
ĠëĤĺ ìĿĢ
ë¯¸ ëĤĺ
Ġoxid ative
ĠCom pl
Ġul cers
Ġhyd rop
Ġì°¾ ê¸°
Ġwond ered
Ġur ge
Ġstere otypes
ĠNorth west
ĠëĿ¼ ëĬĶ
AL L
ĠëĤł ì§ľ
hes s
ĠC elsius
íĺģ ìĭł
Ġviol ation
ĠK id
m ay
Ġê±° ëĵŃ
Ġany more
ĠArab ia
Ġs aves
ad er
ìłĦ ìŁģ
ĠOpp ortun
Ġ8 1
og ly
ĠG ate
Ġdop amine
zz le
Ġqu ar
ĠC row
ĠDak ota
Ġball oon
Ġbo ot
íķ´ ê°Ģ
Ġfart her
act ions
ĠSil ver
ibl ings
íĻĶ ëĬĶ
p ace
Ġastron omy
ê¸ Ģë¡ľë²Į
Ġterm ed
ĠíĻĶ ìŀ¬
Ġdiam onds
Ġ9 00
ĠBab ylon
Ġconstit utes
Ġpl ots
Ġpenal ty
ëį ©
Ġsew age
æ Ĺ
ld er
Ġear ning
or ia
ĠëĨĴ ìĿ´
Ġì¹ Ń
ì²ĺ ìĿĮ
Ġìĸ´ëĶĶ ìĦľ
ĠP ul
ìĦ¸ íı¬
Ġë¶Ħ ëĵ¤ìĿĢ
L D
ë³ į
Ġsimpl icity
ĠíĻį ì½©
ĠAng lo
Ġcris es
Ġc um
Ġíİ ľ
it ol
Ġoff shore
Ġrab bits
ĠìĨĮ ëħĢ
Ġpolicym akers
Ġm ould
Ġnovel s
Ġminor ities
A tt
Ġmob il
ì£¼ ìĿ¼
Ġdis l
sell ing
ĠK a
ĠArchitect ure
Ġê¸°ë¡Ŀ íĸĪëĭ¤
Ch ina
bl og
Cont act
ĠLeg isl
Ġco il
ĠPrinc iples
e er
Ġwor m
Ġmor ality
ĠMo ore
ĠTr uth
ĠBi ological
eng ine
Ġexpend iture
Ġsur f
Ġg rip
Ġconclud es
Ġt ense
ĠPr iv
G I
ans k
Ġrot ating
S te
ìĻĢ ëĬĶ
Ġdispar ities
Ġpet ition
Ġastronaut s
Ġn a
Ġneuro transmit
In f
) (
Ġl ag
Ġdecl aration
Ġì¹ ł
ĠMc G
Ġê¸¸ ìĿ´
Ġdecentral ized
Ġeven ly
Ġmicrow ave
Ġcigare ttes
Ġrece iver
Ġz o
Ġtw in
Ġì¸¡ ìĿĢ
Ġt ide
ht m
Ġtrans m
ĠìĿ´ ë¥¸
ĠAut ism
Ġrou ter
Ġmet rics
ĠComp et
ìĨĮ íķľ
Ġfavour ite
as ers
á »
Ġth ou
Ġconst ell
Ġide ology
ì¢ħ ìĿĦ
ĠD er
Ġair port
Ġar row
ĠAn xiety
Ã ł
Ġan not
ìŀĲ ìĹ°
ĠìĿ¼ë³¸ ìĿĺ
Ġíķľ ìłķ
Ġcult urally
ìĬ¤íĥĢ ê·¸ëŀ¨
ĠO k
ĠS ide
Con f
Ġê´Ģê´ĳ ê°Ŀ
ĠD h
Ġme g
n as
ĠSt ra
ĠMan ual
Ġback ed
ĠìĹ´ ë¦¬ëĬĶ
Ġìķ ¤
Ġpur ity
Ġr ated
Ġsculpt ure
eral d
ĠìŀĦ ìĭľ
Ġë©´ ìĹŃ
Ġspec imen
Ġì¶© ê²©
Ġë©´ ìłĳ
ìļĶ íķľ
Ġbre ach
Cl imate
u f
ĠëģĬ ìŀĦ
Ġex otic
Ġdam s
ateg ory
ĠT es
ĠSp eech
ĠDom in
Ġmultip ly
B uilding
Int erest
Ġë¡ ¤
ĠUnivers al
ect ar
ĠìķĦë²Ħ ì§Ģ
ìĭĿ ìĹĲ
ĠíĮĮ íĭ°
Ġinject ed
it ated
Ġger ms
Ġcar rots
ĠëĤĺë¨¸ ì§Ģ
ĠH ait
i ates
Ġì¶Ķ ìĸµ
ĠÎ ¼
Ġpray ers
Ġwilling ness
ê³ł ëĬĶ
Ġìĸĳ ìĦ±
ĠNap ole
G R
el iness
ĠDisc uss
ĠíĻĶ íķĻ
Ġcor related
Ġunder graduate
Ġì¶ľ íĮĲ
est yles
Ġì£¼ ìµľ
Ġroutine ly
ĠChall enge
ĠìĤ¬ ìŀ¥
Ġlabor atories
ut o
ĠP ositive
t ar
Ġì¶ķ íķĺ
Ġband width
Ġhigh way
ĠSim ply
íĻĶ ë¡ľ
Ġcoll ision
ĠìĤ¬ ìĥģ
ĠK it
ì¦ Ĳ
Ġaddition ally
P ract
ĠJ oin
uss ian
Ġun stable
Ġill umin
ĠHou ston
à ¦
ĠP ed
ĠM ember
ĠB ishop
ĠB ec
Ġth rust
Ġsupplement ation
Ġc uc
ĠìĤ¬ìĭ¤ ìĥģ
Ġìĭľìŀ¥ ìĿĢ
âĹ Ĩ
Ġquick er
ì¶ķ êµ¬
ĠV ien
Ġadd itives
Ġdec k
Ġbel ly
ĠG a
ëł¥ ìľ¼ë¡ľ
as i
D ifferent
Ġi Phone
Ġout let
F R
Ġsau ce
ë¶ģ íķľ
Ġê°ľ ë´ī
Ġsl ip
Ġëĵ± ìĹĲìĦľ
Ġlux ury
ĠìĦ ŀ
P H
Ġpart ition
Ġë§¤ ìĽĶ
Ġgovern ed
ĠCom plex
Ġcongest ion
Ġìŀ¥ ì°©
ĠPu erto
Ġ esp
Ġtend on
ĠíĬ¸ ë¦½ìĸ´ëĵľë°ĶìĿ´ìłĢëĬĶ
Ġclar ify
Ġcons c
m ination
P ol
Ġ196 2
Ġp onds
ĠìĥĿ ì¡´
íĽ ¼ìĨĲ
ĠìĬ¤ íĮĮ
ëĨ Ģ
Ġlength s
Ġtow ers
Ġrespons ive
ĠArgent ina
Ġill um
f requ
Ġref lex
ĠE asy
ĠìłĲ ìĿĢ
Ġê°Ģ ë¡ľ
ĠWal ter
Ġy ards
Ġcul inary
ĠV erm
us able
Ġsp iders
Ġâ ħ
Ġru ins
ns ic
Ġcoron ary
o ard
Th ank
Ġsec uring
ĠIm agine
Ġd ip
ìĹ ł
ores cent
Ġê·Ģ íķĺìĿĺ
Ġë°° íĦ°ë¦¬
Ġsmooth ly
rop ract
ĠPress ure
Ġceremon ies
ê·¼ íĺľ
C reating
Ġopp osing
ĠT itan
Ġstri ps
ĠL ack
b ian
Ġbra ke
b es
ĠT ower
Ġaccount ed
Ġexpect ancy
ĠSing h
Ġl acks
ëĵľ ëł¤
Ġlik ed
Ġdr astically
d ata
ĠH ell
ëªħ ìĹĲ
ĠPr ivate
v ings
ì£¼ ì°¨
urp ose
ĠT ask
Ġcommit ments
Ġê³³ ê³³
ĠD B
Ġm ating
Ġthe or
ĠSur gery
Ġse gregation
Ġattend ance
Ġìŀħ ê¸Ī
ìŀĲ ì²´
isp ens
Ġìķī ìķĦ
osc opy
Ġjump ing
ê°ľìĿ¸ ìłķë³´
Ġth rowing
Ġ9 4
êµ° ìĿ´
Ġdecl are
ar ious
Ġoffer ings
Ġscr ut
Se pt
Ġcompar ative
ì¿ ¨
et ric
ĠP arent
ĠíĪ¬ ìĸ´
it at
ens is
ĠAntar ctic
ira cy
ĠT ob
Ġnews letter
ĠPhilos ophy
ìĥĿ ìĤ°
ĠìĦł êµĲ
B ar
Ġë§İ ìĬµëĭĪëĭ¤
ëł¸ ìĬµëĭĪëĭ¤
íĥ Ĳ
Ġ ib
Ã¡ n
Ġdetect or
ìĹ°êµ¬ ìĽĲ
Ġby pass
ë¦¬ ì¦ĺ
Ġ ||
le ans
Ġcarbohyd rate
Ġì ¾Į
Ġopp ression
Ġlearn s
Ad v
l ass
A ir
Ġì¢ĭìķĦ ìļĶ
Ġê³ł ê°ľë¥¼
Ġunderstand s
ĠGu inea
Ã© s
Ġdisturb ances
Ġìľł ëıĦ
Ġê°ľ íĺģ
ëĭ¤ ìĸĳ
ĠìĪĺ ë°±
ĠìµľìĨĮ íĻĶ
Ġw rist
ĠëĮĢ ë¡ľ
Ġrest oring
ë£ °
Ġpsychiat ric
b oth
Ġeru ption
Ġut ter
ĠE ric
ĠS ah
Ġìĭł ë¬¸
Ġreinfor ced
Ġpresc ribe
Ġíķ «
ĠMalays ia
Ġinherit ance
Ġopen ly
ĠTh or
ìķĺ ê³ł
ov al
Ġvolcan o
Ġant iv
inn itus
Ġ _
S outh
ress es
Ġì¡° ì¹ĺë¥¼
um en
h oe
ĠìķĬìķĺ ìĬµëĭĪëĭ¤
Ġsec rets
Ġë³Ģ ëıĻ
Ġt we
Ġactiv ate
Look ing
Ġcustom ized
O H
Ġreflect ive
ĠìľĦ ê¸°
or o
Ġwhere by
Ġpestic ide
Ġwork flow
Ġround ed
Ġê°ľ ìĦ¤
Ġclin ics
Ġ8 9
ìķĦ ì§ģ
ê±´ ìĿĺ
ceed ings
íķ¨ ê³¼
Ġì¶Ķê°Ģ ë¡ľ
Ġprovin cial
ĠSen ior
Ġpil ots
ĠMarsh all
Ġtrad ers
Ġneed les
Ġì²ĺ ë²Į
Ġê±¸ ìĸ´
ì¶ľ ì²ĺ
íĬ¸ ìĹĲ
ul us
pl aces
Ġfaith ful
Ġpost er
op oly
Ġtext books
ĠProv ince
Ġpun ish
' (
Ġpack et
ĠSt ruct
Ġë§Ĳ íķł
ac ulture
ìĪĺ ìĻĢ
Ġexhib ited
ĠAntar ctica
Ġì¤ĳìļĶ íķĺëĭ¤
Ġtou ched
âĢĿ ).
F orm
Ġgener ic
Mod ern
ore sc
Wh ite
Ġsemic onduct
D igital
ĠH art
Ġì¦Ŀ ëªħ
Ġ19 10
y g
ĠW ould
ìĭŃ ëĭĪëĭ¤
Ġam end
ë°° ìļ°
Ġíķ´ëĭ¹ íķĺëĬĶ
p ur
ĠC ris
ĠêµŃ ë°©
Ġcer amic
ĠëĦĪ íĿ¬
ë§¤ ìĿ¼
% ).
ĠL ith
Ġoverl ap
âĳ ł
Ġseaf ood
Ġê°Ģê²© ìĿĢ
Ġd awn
Ġen rolled
Ġparas ite
Ġe cho
Ġch ord
ĠëģĿ ìĹĲ
Ġë¶Ħìķ¼ ìĿĺ
ĠExpl ore
ri ad
Ġsh aft
est ial
Ġhyd ration
ĠP ow
im ation
ĠìĦł ëıĦ
Go vern
Ġmet hyl
i per
Ġì¡° ê°ģ
Ġenthus iasm
pl ates
Ġì į¼
rehens ive
Ġvine gar
Ġê·¸ ê²Į
ìłģìľ¼ë¡ľ ëĬĶ
ìĦ¤ íĮħ
ĠìŀĪìĹĪ ê³ł
Ġíıīê°Ģ ë¥¼
Ġsun screen
Ġê°Ģ ê³ł
ar in
ĠëĦĵ ìĿĢ
Ġ iv
Ġ5 000
Ġn od
Ġr if
izz iness
ê¹ Ĳ
ĠPan el
Ġì§ĢìĹŃ ìĹĲ
ĠìłĦ ë©´
Ġê³łê°Ŀ ìĿ´
ĠPhot os
ìĭľ íĶ¼
Ġneg lig
IN E
Ġcatastro phic
ĠìĪĺ ê°ķ
ĠìķĪ íĥĢ
ĠP ick
Ġterm inology
Ġ18 90
ĠD elta
Ġindirect ly
ill ary
br ate
Ġposition ing
Ġm ate
Ġëĭ¤ ë¥´ê²Į
Ġman eu
Ġë²ĦíĬ¼ ìĿĦ
IC E
ëįĶ ëĿ¼ê³ł
ë² ħ
ĠëĶ ľ
ĠTra il
ĠT el
Ġemb arr
au coma
Ġbron ch
ĠíĨµ ì¦Ŀ
Ġrandom ly
ĠëĿ¼ ê³ł
Ġì¡° ìļ©
ĠLiter acy
Ġdiag rams
Ġfe ast
Ġê³Ħ ì¢Į
Ġw rap
Ġengine ered
Ġhe ights
ìĭ¬ ìľ¼ë¡ľ
ĠMc K
Ġë³¸ ëĭ¤
Aug ust
Ġscholars hip
Ġìĭľìŀ¥ ìĿĦ
ĠKnow ing
ĠCo ord
ĠëıĮ ëł¤
Ġì¢ ģ
Ġgrass es
Ġver bs
ĠìķĦë¬´ ë¦¬
Ġê°ĢëĬ¥ ìĦ±ìĿĦ
ĠS ent
ĠíĴįë¶Ģ íķľ
C M
Ġsp iral
ad ers
Qu estion
Ġ19 19
Ġp ads
íŀĪ ê³ł
ant ry
Ġav en
Ġtest osterone
ĠIsa ac
is ers
ìĦ± ëıĦ
ide press
Ġac re
Ġìłģê·¹ ìłģìĿ¸
V itamin
se ver
Ġbip olar
Ġdisturb ance
Ġì¡° ìĭ¬
Ġdecor ated
Ġì¦Ŀ ê¶Į
Ġcommod ity
un n
Ġëĭ¹ ìĤ¬
ĠìķĦ ë¹ł
ë¥´ ìĭł
Ġë¶Ģ íĴĪ
ĠInc orpor
Ġdisc ount
it i
pro v
ìĨĮ ë¦¬
ĠRec ords
ĠB rig
Ġhyd rated
Ġcl ip
ĠìĿ´ëģĮ ìĸ´
ĠìĦ¸ ì¢ħ
Ġpl um
Ġam endment
Ġd iving
itud inal
íķĺ ê²łëĭ¤ëĬĶ
ĠíĬ Ģ
Ġdiscover ing
Ġrefuge e
Ġspr ings
os able
ĠC ould
Ġìĺģ ìĥģìĿĦ
ĠRec ord
Ġê³łê°Ŀ ìĿĺ
an ical
ĠMem bers
R N
ë© į
ren heit
ĠM s
th irds
Ġr ush
ì¡ ¸
spe aking
b ad
W HO
L ow
n ish
Ġì£¼ìŀ¥ íĸĪëĭ¤
Ġê°Ĳ ìĥģ
Ġtraff icking
êµ¬ ìĹŃ
Ġsocio economic
Ġbath room
Ġprospect s
Ġw olf
ĠClass room
Ġnan op
Ġbeet les
ĠTh om
Ġrem n
ìĦĿ ìĿĦ
Ġk ills
Ġtooth p
ot te
rim p
Ġout look
ĠìĤ¬ìļ© ëĲĺëĬĶ
ìłĢ íĿ¬
t an
Ġë°© ìķĪìĿĦ
Ġsum mit
ĠìĿ´íĥĪ ë¦¬ìķĦ
Ġê¸° ë¶Ħ
ëł¥ ìĹĲ
Ġser um
Ġë°ĺëıĦ ì²´
Ġgradu ates
ìĪĺ ìĹĲ
ì§Ħ ìĿĺ
che ster
Ġdro ple
ãĢ İ
Ġvalid ation
Ġac oustic
other mal
ĠìĦł ìĤ¬
ĠShe l
Ġfrog s
ĠK ash
ĠPalest inian
tern s
Ġmicrosc opic
Ġstead ily
p ine
Ġ18 80
ìķĦ ë¦¬
ĠTh inking
ĠVe get
ĠDon ald
Ġf ont
Ġvot ed
ĠM ort
Ġw ard
bl ack
Ġdesk top
Ġìĺ¤ëĬĺ ëĤł
em at
ĠìĿ¸ ë¥ĺ
B est
Ġmar row
Ġt une
ë³´ ì¦Ŀ
Ġëĸ ¨
ë¬¼ ìĹĲ
Ġë¦¬ ê·¸
ĠìĹĨ ì§Ģë§Į
J apan
end ix
/ .
ĠìĻ ¼ìª½
Ġë§ĲìĶĢ ìĿĦ
Ġtechn ically
Ġassist ed
Ġpsych ologist
Ġì§Ħ ìłķíķľ
ĠEm otional
íķł ìĪĺ
Ġrender ing
2 10
od ium
Ġdem ol
ìĿ¼ ì¹ĺ
Ġtransf ers
Ġun authorized
ì ±
âĢ¦ âĢĿ
Ġdivid ing
Ġbl u
ĠìĿĮ ë£Į
ĠìļĶê¸Ī ìĿ´
íħĮìĿ¸ ë¨¼íĬ¸
ĠG ender
Ġproport ions
æ ĺ
ëĤ ©ëĭĪëĭ¤
Ġtrick y
ĠFreder ick
Ġgra pes
Ġdom inance
ost ing
Ġpe pt
ob i
ĠëĤł ìĶ¨
ĠìłĦ ëħĦ
roll ing
Ġemploy ing
ĠëĮĢ ëĭ¨
ĠEvery thing
Ġemb od
h oot
Ġmult itude
Ġë²Ķ ìľĦ
Ġëľ» ìĿĦ
ê ¶
Ġfore front
Ġrebell ion
ĠíıŃ ë°ľ
Ġimp orts
ĠìĻ¸ ìĹĲ
Through out
ë¦¼ ìĿĦ
ĠM B
ĠHispan ic
ĠR on
ĠE gg
ĠRef erence
c ounter
ãģ Ħ
D ate
Ġcha os
ëĬĶ ê°Ģ
Ġhit ting
ĠBre ak
Ġëĭ¨ ë°±
ĠSt ructure
Ġë§Ĳ ìĹĲ
Ġë°° ëĭ¬
ìĸ´ ìł¸
ĠN ear
ĠLead ership
Ġdom est
Ġover load
m etic
ĠS audi
ä ¹
ĠT itle
St r
ĠBe ijing
ĠëĦĪë¬´ ëĤĺ
ĠìĤ¬ìļ© íķ´
Ġì²ľ ìĹ°
r ank
ìłĦ ìĿĺ
l ined
Ġê²° ì½Ķ
ìĽĲ íķĺëĬĶ
Ġìĺ¬ë°Ķ ë¥¸
ĠìŀĳíĴĪ ìĿĦ
Ġret rie
ĠA CT
Ġtestim ony
IV E
ĠìĹ° ê°Ħ
Ġaccum ulated
s ky
ĠìĬ¤íİĺ ìħľ
ec hes
Ġìłķ ì²´
Ġê¿Ī ìĿĦ
ëĦĪ ë¬´
Ġlock ed
Ġkilomet res
ìĤ° íĻĶ
M r
ì¤Ģ ë¹Ħ
ĠìĨĲ ìĥģ
ĠEx cess
ĠT rad
oglob in
ĠChall enges
ĠíĻķìĭ¤ íŀĪ
c ra
ount ain
Ġbond ing
Ġcount ed
Ġ0 7
íķĺê¸° ìĹĲ
Ġpractition er
ĠTok yo
col or
Ġrespond s
ĠS ky
Ġexp on
Pub lished
Ġsp ices
Ġìŀ¡ ê³ł
Ġì´ī êµ¬
c hest
ĠëĤ ³
ëģ Ī
ol ics
ĠA th
Ġ18 50
Ġw olves
Ġpron oun
Ġunf air
Ġh urricane
Ġtrans ist
Ġê·¸ ëŁ´
ĠìķĬ ì§Ģë§Į
g one
ë©Ķ ìĿ´ìħĺ
Ġspr ink
ĠN am
Ġbra ck
Ġa rose
ĠìĿ´ ëĵ¤ìĿ´
Ġëĸł ìĺ¤
P ress
Ġreson ance
N ever
ĠN elson
Ġex ert
id ation
Ġcontin ental
Ġseam less
Ġwar nings
Ġcru c
ĠDat abase
ĠìĤ¬ëŀĮ ìĹĲê²Į
Ġsl ides
ì§Ī ìĿĺ
ëĵ± ìĿĦ
Ġìłģíķ© íķľ
Ġind ispens
Ġnon profit
b earing
íĶĮ ëŁ¬ìĬ¤
Se lect
ìĨĮ ìĹĲìĦľ
ĠD eg
Ġsevent h
ĠScript ure
ĠM is
Europe an
Ġblind ness
ìĤ¬ìĿ´ ì¦Ī
Ġat he
Ġ12 5
Ġìłķì±ħ ìĿĦ
Ġshr ink
ĠAl most
ĠíĨµ ìłľ
Ġintr insic
ĠìĶ¨ ëĬĶ
Ġtrium ph
ĠF ast
íĮ¨ ìĬ¤
ĠìĺĪìķ½ ìĿĦ
Im p
roid ism
Ġrecon cil
Ġd ots
ary n
Ġass im
ĠUlt imately
rib ing
Ġcompet itors
ĠLank a
Ġgrow ers
T ips
Ġpan cre
Ġnob ody
Ġëª¨ ìŀĦ
Ġë¶Ģ íĦ°
em pt
Ġl oses
Ġpop ul
ĠRec ogn
ĠìħĢ íĶĦ
Ġcourt esy
Ġpol es
ê·¸ ëŁ¼
iv ia
ĠLim ited
Ġlab s
ĠAsk ed
ĠLGBT Q
ĠA part
ì§Ģ ë©°
Ġíķ¸ ëĵľ
en ers
Ġser otonin
c ode
Ġin acc
coh olic
Ġsch izophrenia
âĢ ²
ĠíĿĺ ëŁ¬
à¤ °
Ġëľ¨ ê±°ìļ´
id ency
Ġathlet ic
Ġout lets
ro it
ĠBab y
ĠH old
ìĽĮ ìĦľ
um ption
Ġfif teen
Ġremind s
ë¬¼ ë¡ľ
Ġcort isol
ë§Ī íģ¬
Ġmin ers
ĠOr leans
ĠH E
ĠìºĲ ëĤĺëĭ¤
E nd
ĠL ang
b ath
Ġë°Ŀíĺ Ķ
Ġg room
ĠTe ach
Ġcur ves
Ġpuzz les
ĠB irth
Ġê²½ìłľ ìłģ
Ġtext ile
ĠIns urance
y our
ëĵľ ìĻĢ
Ex amples
Ġfer mentation
Ġë¶Ģë¶Ħ ìĿĢ
S N
Ġì§Ģ ì¹¨
ĠìłĪ ë°ĺ
Ġì¸ µ
ĠSte el
Ġtens ions
ĠëĤĺëĪ Ķ
Ġanten na
ì±ħ ìĿĦ
Ġì§Ģìłģ íĸĪëĭ¤
ĠAd vent
Ġë¶Ī ë¦¬ëĬĶ
ĠChrist opher
Ġë°ĶìĿ´ ìĺ¤
n osis
Ġìĥģ ëĮĢë¡ľ
ĠArist otle
ĠSc reen
Ġíķ´ ìļĶ
ĠëĬĲëĤĮ ìĿĦ
Ġê³ł ìĨį
ic idal
Ġëĵ¤ ëł¤
clus ive
Ġchromos omes
Ġì¶©ë¶Ħ íķľ
ĠBelg ium
Ġrend ered
Ġmar ry
Ġhead quarters
Ġë¯¸ëŀĺ ë¥¼
Ġmer cy
Ġgl oss
Ġi OS
Ġp ays
Ġqual ify
ĠíĽ ¼ìĨĲ
Ġ9 1
Ġarm ies
Ġfol lic
Ġë°ľíĳľ íķľ
Ġìĺ¤ë¥¸ ìª½
Ġharm less
Ġad renal
ĠìłĦ ëł¥
Ġeduc ating
Ġinc on
ĠC ool
ëŀ« ëıĻìķĪ
ì¤ĳ ìĿ¸
Stud ies
ĠìŀĪ ìĬµëĭĪê¹Į
pr ints
c hem
ì¶ ¤
ĠN A
ìķĦ ëıĻ
ëĮĢ ìĻĢ
ad os
Ġdesc riptive
Ġíľ´ëĮĢ íı°
ĠA BC
ĠíĬ¹ íĹĪ
Ġd ub
Ġinc omp
Ġpred isp
Ġcur ved
Ġe ch
Ġconver ts
Ġë²Ħ ìĬ¤
Ġconsult ing
ĠìĿ¸ êµ¬
ound ed
ë°ĶìĿ´ ìĺ¤
D M
Ġsu its
ĠìĿĺ ì¡´
ĠNot es
Ġì¦Ĳ ê¸°ëĬĶ
ê³ł ê°Ģ
íĶ¼ ìĸ¸
sit emap
Ġì»¨ íħĲì¸ł
Will iam
Ġbad ly
ê¼ ¼
Ġprop het
Ġíĺ¸ ì£¼
Ġboost ing
Ġep ilepsy
Ġt ended
Ġpan creat
ĠCr ime
ĠM ason
Ġint imate
Ġg olf
Ġsymbol ism
ĠLike wise
Ġa ver
Ġf og
pt ical
íĪ °
ol uble
ìĭł ìĿĢ
Ġìļ°ë¦¬ ìĹĲê²Į
ĠíĿ °
Ġnic otine
Ġt ricks
Ġprof itable
Ġë©Ģ íĭ°
Ġë¬¸ìłľ ìĹĲ
ĠíĶĮëłĪìĿ´ ìĸ´
ê´ĳ ì£¼
Ġrepet ition
d rop
m n
ĠS ay
Ġprec urs
Ġoptim izing
ir ie
Ġk its
al ks
ê¸° íĥĢ
Ġì¢ĭ ì§Ģ
ĠêµŃ ë¬´
Ġcat ar
ĠìĤ¬ëŀĳ íķĺëĬĶ
Ear th
ĠAl i
Ġencoun ters
ìĭ¤ ìĹĲ
Ġë³´ìĹ¬ ì£¼ëĬĶ
Ġlever aging
Ġc ens
ĠM R
Ġdown stream
ĠBl u
il is
âĢ¦ ]
um ble
Ġë°ľ íľĺ
Ġreact ive
Ġupt ake
ĠAt hens
mind ed
íĹ ¬
Ġëĵ Ŀ
Ġlim estone
ĠìķĬìķĦ ëıĦ
Ġd ough
Ġschool ing
ĠDo ctor
ment ioned
ìĦĿ ìĿ´
Ġf iring
ĠìĿ¸ íħĮ
t able
Ġpancre as
ĠI L
Ġstra nd
ĠRep orts
sp ace
hist oric
Ġíķ Ģ
ë§Ŀ ìĿĦ
Ġmass age
ĠWork ers
ob s
Ġreview ing
Ar ch
Ġs iblings
Ġë³´ ìŀħëĭĪëĭ¤
con duct
ĠìĹħ ê·¸ëłĪìĿ´
ĠFah renheit
ĠE L
ĠD R
Ġher d
sc ient
os ke
ë¦¬ ìłģìĿ¸
ìĨĮ íĶĦíĬ¸
ĠUs er
Ġreject ion
Ġëĭ¹ìĹ° íŀĪ
p us
Ġì¦Ĳ ê±°ìļ´
ĠCan al
ach ment
Ġê¼ ¼
ours es
Ġexcell ence
ë²ķ ìĿĢ
ĠìĥĪ ë²½
Ġadapt ing
ĠL am
Ġall iance
G reat
Ġcuis ine
Ġcompet ence
Ġëħ¸ íķĺìļ°
NA SA
Ġbutt ons
H y
Ex p
ìĦł ìĪĺ
an ning
Ġcontin uity
ĠPers pect
ĠLe ban
IT Y
Ġì± Ķ
ĠT rees
he ll
Ġb row
ĠìĪĺìĪĺ ë£Į
199 8
ĠPortug al
ĠBeng al
Ġle isure
Ġdifferent iation
ann ah
ene z
ĠAppl ied
Ã £
Ġëĭ¨ ëıħ
ĠM ir
Ġcalcul ating
Ġmid st
ĠNev ada
Ġjournal ists
Ġjuven ile
Ġreven ues
ì² ©
af ety
Ġneighb our
Ġpropag anda
Ġ196 6
ĠS ierra
Ġë¹ ļ
Ġeth anol
ĠëĴ¤ ìĹĲ
Ġrecy cle
Ġinhib it
ëĵľë¦¬ ê²łìĬµëĭĪëĭ¤
ë´Ĳ ìķ¼
Ġì§Ħíĸī íķĺê³ł
Ġë§Ľ ìŀĪëĬĶ
Ġstiff ness
ĠChat GPT
Ġë¶Ģ ìŀĳìļ©
íĶ Ķ
a a
Ġn aked
ov ol
Ġpred icting
ĠExp ress
ĠN FT
Ġprin ts
ĠS AP
ëħ ¹
ĠìĤ¬ìĿ´íĬ¸ ë¥¼
Ġvol atile
Ġen ric
st age
Ġout s
Ġcent r
íķ´ ìł¸
Ġpup il
P op
ĠF u
ìĪł ìĿĦ
ĠS N
ĠFl ore
Ġtr an
Ġelect r
Ġsuggest ion
Ġcol i
e ffic
ĠìĤ´ ì§Ŀ
Ġlaw yers
arc ity
ë²ķ ìĿ´
Ġê°¤ ëŁŃìĭľ
Ġsome body
Ġê´Ģ ìłĪ
ĠìĤ¬ìļ© ìŀĲê°Ģ
ĠObserv atory
Ġfil tering
e lectric
Ġcl ause
ìĭľ ë¡ľ
Ġnever theless
Ġweak er
Ġch i
Ġpolit ically
le an
Ġc itation
ìĺ ·
av al
ìĺĢ ê³ł
Ġl ad
Ġv ibration
íķ´ë³´ ìĦ¸ìļĶ
hy th
Ġn ectar
ĠSol omon
Av oid
Ġbelie ving
s ocial
Ġìĭ¬ ì§Ģìĸ´
Ġstret ches
ĠìĤ¬ìĿ´ ìĿĺ
ĠRec y
Ġmar vel
Ġsuper vis
Ġê¹Ĭ ìĿ´
ìĿ¼ ê°Ħ
rit ical
Ġmotiv ate
Ġplace bo
Ġë© ĺ
Ġland mark
ĠS L
Ġuns afe
Ġíĸī ìĤ¬ë¥¼
ë¡ľ ìĬ¤
ĠAgain st
Ġhost ile
Ġt rop
Ġaccompany ing
ĠìķĬìĿĦ ê¹Į
ë§Ī ìĿ´
Ġopp onents
Ġunf amiliar
ìľĦ íĦ°
ĠD A
Ġincorpor ates
cy cle
Ø ±
Ġíĺķíĥľ ìĿĺ
Ġshowc ase
Ġbegin ners
Ġembry o
ëŀ ¬
ï¸ ı
ĠR O
Ġë°©ë²ķ ìĹĲ
az ines
as ury
Ġëĭ¨ ìĿ¼
ĠL ate
ìĸµ ìĽĲìĿĦ
Ġê·¸ëŀĺ íĶ½
Ġmuc us
ĠPub l
ĠëķĮ ëıĦ
Ġwed ding
imp se
Ġìľł ìĿĺ
ĠF if
en ium
Ġc ognition
Ġcivil izations
Ġìĭ¤ ìłģ
Ġc ake
Ġnavig ating
Ġassum ing
Ġre per
ĠB erg
Ġeduc ator
Ġf ence
Ġsou p
ì¹ĺ ìĿĺ
Ġê¸°ìĹħ ìĿ´
Ġìĭł ìķĻ
Ġhero es
Ġadd ict
Ġun even
Ġfin ances
Ġform ulas
ĠCh annel
ëĤĺ ê²Į
Ġë°ĺ ëł¤
Ġê°Ģ ë³į
id ering
ĠD M
Ġ18 70
h ole
ĠìłĦë§Ŀ ìĿ´ëĭ¤
uten ant
ìĦ± ìľ¼ë¡ľ
ĠìķĪ ë§Ī
Ġê²°ê³¼ ê°Ģ
er vers
Ġb acks
ì£¼ ë¬¸
ĠS ugar
Ġserv ants
Ġsent iment
Ġê²ĥìĿ´ ê³ł
ĠìĿ´ìļ© íķĺëĬĶ
Ġb ass
C are
Ġmag ical
s aving
íĬľ ëĶĶìĺ¤
ìĪĺ ìĪĺ
Ġamph ib
ìĨį ìĹĲ
ĠE bola
Ġê²½íĹĺ ìĿ´
Ġh ired
ord on
he ads
il k
Ġment ions
Ġë³´ìľł íķĺê³ł
ĠìĹ° ì£¼
Ġì±Ħ íĥĿ
ëłĪìĿ´ ìħĺ
Ġorgan ised
Ġpl ague
ard i
ĠHop kins
Ġbe verage
Ġprof iciency
icular ly
Ġindispens able
ac eted
Ġë³Ħ ëıĦë¡ľ
Ġë°Ľ ê²Į
ì²´íģ¬ ìĿ¸
ĠRem ove
Ġì¢ħ ëª©
Ġì¶Ķ ìłģ
Ġempower ing
Ġph ishing
ĠêµŃ íĨł
ĠA ffect
Ġì¶ľ ì²ĺ
ĠPh ase
ĠìľłìĿ¼ íķľ
ĠëĤĺ ì¤ĳìĹĲ
ìĦ¤ ëªħ
Ġst aple
ĠB art
ĠSign s
ĠJuda ism
st ory
ĠëıĮ íĮĮ
Ġbra ve
Ġ18 60
íķĺìĺĢ ê³ł
ĠëĥĦ ìĥĪ
ĠìķĪìłĦ íķĺê²Į
B rit
íķ´ìĦľ ëĬĶ
ĠE ver
Ġì´ī ì§Ħ
Ġsign ing
Ġë§Ī ì£¼
ĠRec omm
ĠDI Y
ĠEngine ers
Ġsurre nder
ĠìĦľë¹ĦìĬ¤ ê°Ģ
ë²ł ìĿ´ìĬ¤
b iqu
Ġan terior
Ġdipl om
Ġì§ĢìĹŃ ìĤ¬íļĮ
Ġthe ater
Ġë°Ķë¡ľ ê°Ģê¸°
Ġallerg ens
ĠìĹ¬ ë¡ł
Ġresid ual
ero ids
Ġlow ered
Ġthe atre
Ġìłķ ê·ľ
ogen esis
ĠìĪĺ ëĭ¨
c ourse
Ġpop ulated
ĠP rad
Ġg ates
Ġprolif eration
ê²¬ ìĿĦ
Ġìłģ ìĿĳ
Ġc ivic
ĠíķĻìĥĿ ëĵ¤ìĿ´
ë§Ī ìĬ¤
Ġs isters
ĠSe attle
Ġsou ls
ĠC NC
Ġregen eration
ĠìĿ´ íĸī
ĠìĹŃ ìĤ¬ë¥¼
ĠInstit utes
Ġvisual ize
íģ¬ ëĿ¼
plement ing
ĠìĦ± ìłģ
ĠRedu ce
Ġê°Ģ êµ¬
ĠP ic
Ġmod eration
ĠInst agram
ĠCond itions
Ġinstruct ors
Ġcham bers
ĠìĹ° ëł¹
ĠìĦľ ë¥ĺ
omet ers
Ġunpredict able
Ġaggreg ate
Ġë¹Ħ ëĤľ
spec ies
Ġbiop sy
c ium
g rowth
íķĻ ìĿĺ
ĠìĥĿê°ģ íķĺê³ł
ä¸ Ń
o ar
ëĭĺê»ĺ ìĦľëĬĶ
Ġwin ner
ad ium
ri ors
Ġdel ivers
Ġìĸ¸ìłľ ëĤĺ
Ġë¶ĦìľĦ ê¸°ë¥¼
Ġê³µ ê¸°
S H
ĠìĽĲ íĻľ
oci ated
Ġp s
Ġerect ed
ĠìĿ¸ ìŀ¬
Ġleaf y
Ġammon ia
Ġê³Ħ ìĹ´
pat hetic
ĠMe aning
Ġbo om
ĠëıĮìķĦ ê°Ģ
ìĿ¸ ìĹĲê²Į
ĠëĲĺ ê¸°
Ġíĥ ĵ
Ġinit iate
Ġcorpor ation
Ġscal p
Ġê »
i ably
Ju ly
Ġgraph s
F I
Ġsc ler
ĠEx change
Ġgeomet ric
Ġì¤ĳ ê³ł
Ġcle ared
Ġdipl omatic
ĠUp on
Ġam ple
Ġíĺ¹ ìĭľ
in se
orth y
che ll
w ritten
Ġíķĺ ìŀĲ
ĠBr un
Ġê²ĥìĿ´ ë©°
Ġstud io
Ġë¹Ħìļ© ìĿĦ
Ġcand y
ĠëĮĢíķĻ ìĥĿ
ĠTransport ation
ê¼ ¬
Ġìĭ¬ ìŀ¥
Ġvisit or
v iol
ĠC hem
Ġcast ing
Ġgot ten
ëŀ Ń
íİĺ ìĿ´
Ġacqu iring
ĠV in
Ġbl oss
Ġíķľ ê¸Ģ
íĬ¸ ë¡¤
Ġdisadvant age
On line
ĠìĬ¤íĥĢ íĬ¸ìĹħ
mans hip
ĠìĦ± ìŀ¥ìĿĦ
Ġconc ise
ĠìĹħë¬´ ë¥¼
Ġt iles
ĠJ our
Ġro pe
Ġsun ny
íĥĢìĿ´ ë§ĪìĤ¬ì§Ģ
Ġê·¼ ë³¸
Ġm asters
a ire
Ġyear ly
ĠColumb us
Ġcon gress
Ġconv ince
Ġacc red
Ġview ers
ĠKeep ing
Ġcompar isons
ing ton
Ġì£½ ìĿĮ
ê° ¤
Ġt icks
al an
Ġh iring
âĢ Ĳ
ëªħ ê³¼
ĠEvalu ation
Ġsl opes
Ġthread s
Ġex agger
fall s
ëĭĺ ê³¼
Ġth ir
Ġcomment ary
Ġide als
Ġexch anges
Ġclear ing
ĠR AM
ì£¼ ê¸°
p ent
ĠAlber ta
ìĹ¬ ìĦľ
V al
Ġw and
Ġsw ollen
Ġcompens ate
ĠRober ts
Ġsum m
Ġtri ple
ĠìłĢ ëıĦ
ãħ ľ
ĠëªħìĺĪ íĽ¼ìĨĲ
Ġperenn ial
Ġpig ment
ĠOffic er
Ġhe red
âĳ ¡
ĠìĦ¸ ìĽĶ
Ġìłķë³´ ëĬĶ
E B
Ġë³´ ì¡´
W atch
Ġsuppl ier
vant ages
Ġre nov
Ġqu eries
Ġìľ¡ ìĦ±
Ġair borne
ëķ ħ
est ones
Ġst ool
on i
Ġh inder
Ġc age
Ġthe ology
ĠëĤĺëĪ ł
Ġsim ulate
Ġve gan
Ġanticip ate
Ġlog s
Ġdepos ited
o ic
and al
OR E
Ġëª¨ëĭĪíĦ° ë§ģ
ro ads
Ġsubsid ies
ĠíĮ ģ
ë¹ ¨
b rain
ĠL en
19 90
Ġt ours
ĠBra h
Ġê²½ ê³ł
Ġìĺ¬ ë¦¼íĶ½
T ry
pl ess
Ġëª¨ íħĶ
Ġrestrict ion
ìļĶ ì¦ĺ
Ġrecre ation
Ġëĭ¹ ìĦł
Ġre nal
Ġjust ified
Ġk er
Ġhe el
Ġpupp y
ĠSh ah
Ġpro sec
Ġê³µ ìļ©
ì¡° ìłķ
Ġë¸Į ëĿ¼ìļ°ìłĢ
Ġìĥģíĥľ ë¥¼
ĠI Q
Ġìľł íļ¨
ĠGall ery
O h
Ġscholar ly
V R
Ġvers atility
k it
ĠìĿĺë¯¸ ê°Ģ
Ġunc overed
ìĭľ ê¸¸
ë§Ī ì§Ģë§ī
Ġìŀ¥ ìłĲ
Ġsovere ign
bour ne
ĠF ra
ĠìĿ´ëĤ´ ìĹĲ
äº º
ĠíĻľìļ© íķ´
Be yond
Ġl av
ĠGand hi
Ġrepl ication
Ġadapt ability
Ġê²ĥ ìĿ¸ì§Ģ
Ġbub bles
Ġday light
Ġult raviolet
ì§ĢëĤľ íķ´
Ġmagnific ent
Ġun aware
ì½Ķ ëĵľ
ĠE N
Ġglac iers
Ð ¿
ĠM ade
ĠëĨĢ ëĿ¼ìļ´
Ġcompet ent
Ġad herence
ac cept
Ġsurvey ed
ìĭ¤ ìĿ´
Ġëı ĭ
Ġdig ging
ara oh
Ġíķ¨ ìľł
Ġë¶Ģì¡± íķľ
Ġthreat en
Ġheight ened
am er
Ġup right
p ox
Ġenact ed
E ss
Ġchlor ide
weg ian
Ġë®¤ ì§Ģ
Ġcontag ious
ĠPro ceedings
å °
ĠBalt imore
Ġsusp ension
ĠC B
Ã¼ r
ĠU l
Ġinfest ation
Ġbed time
Ġmat ched
Ġ- >
ĠS ave
ĠìłĲ ì°¨
Ġoptim um
Ġhon our
Ġl iz
Ġ19 33
Ġbicy cle
ĠìĥĿ ê²¨
Ġtravel ling
Ġë§Ĳ íķ©ëĭĪëĭ¤
ail ure
ëĤĺ ìĿ´
ĠInstit ution
Ġìĭ¶ ìĬµëĭĪëĭ¤
ìĺµ ëĭĪëĭ¤
Ġsusp icious
Ġíı¬ íĬ¸
ex isting
Ġcred ited
Ġall oy
ĠOr ange
ĠMic hel
d ig
ĠCommon wealth
Ã Ĥ
C I
re view
ĠTe le
Ġcat alog
ĠìŀĪìľ¼ ëĤĺ
Ġneglect ed
Ġcor rid
ĠP le
Ġsp ike
Ġcont est
ĠBl og
Ġd row
Ġê³µ ì§Ģ
Ġíı °
Ġìłķì¹ĺ ìłģ
Ġru pt
Ġpe aks
Ġcreat or
Ġhun ters
ĠVe h
ë¹ µ
am y
Ġtransc ription
Ġfundament ally
ĠCong o
Ġdial og
Ġun av
ëĶ ĺ
ĠìłĢ íķŃ
ĠT un
Ġì¦Ĳ ê²¨
Ġundert ake
ĠProcess ing
ĠGh ana
L eg
ĠS ad
H G
Ġìĭ¤ ë¬´
i oma
ĠColomb ia
ĠìĹ° ìĺĪ
Ġequ als
ëĿ¼ìĬ¤ íĭ±
ĠB uff
ĠDisc over
Ġesc aped
ĠCh and
Ġto e
Ġê¹ ľ
ĠA venue
Ġend emic
Ġund erest
ĠDevelop ing
ìĹĲìĦľ ë§Į
ĠìĿ¼ ìĭľ
n orm
he im
at ts
Ġav oc
U I
Ġcle ver
Ġstick y
Ġê±° ë¦¬ìĹĲ
Ġtravel ers
Ġphotos ynthesis
ëĿ¼ìĿ´ ìĸ¸
ĠApp ly
ĠìĹ¬ëŁ¬ë¶Ħ ìĿĺ
ĠDes ert
Ġbub ble
Ġdil ig
ĠìĦ± ë¶Ħ
ing le
m ium
å į
ê°ľ íĺģ
ĠSt op
ĠìłĦê¸° ì°¨
Ġë¶Ģ ë¥´
ì¦ ī
ĠAll ied
ëª© ì°¨
Ġâĸ ¶
ah o
Ġp add
Ġfore most
ĠT u
Ġpost erior
ĠM axim
EC D
Ġrank ed
Ġqu arters
ĠP and
ĠìĿ´ ê²Į
Ġentreprene ur
ìŀĸ ìķĦìļĶ
Ġcol der
Ġh ipp
Ġìŀ¬ íĻľ
Pro per
Mean while
íĦ° íħĮìĿ¸ë¨¼íĬ¸
ĠìĻĢ ìĦľ
ĠWe bs
az ed
Ind ia
Ġfound ational
Ġback yard
ĠìłĦëŀµ ìĿĦ
Ġìķŀìľ¼ë¡ľ ëıĦ
Ġhand ed
ìŀ ĩ
Ġê²Į ìĿ´
w ick
íĥ ł
ĠW H
ìĿ¸ ìĤ¬
n uts
p orts
ĠëĬĺ ìĸ´ëĤĺ
Ġê³µ íĨµ
ĠSal mon
T T
ë¨¼ ìłĢ
Ġroof s
Ġout ward
Ġìłĳ ì´ī
Ġtick ets
Ġde generation
ĠìĽĢì§ģ ìŀĦ
ĠVien na
Ġg on
Ġprov es
Af ric
Ġê¸° ìģ
ĠíĮ ©
Ġproport ional
Ġstimul ates
ĠP ent
Ġê°ĢëĬ¥ íķĺë©°
re r
ì°¨ ë¡Ģ
Ġadapt ations
ĠAc id
Ġtick et
Ġserv ant
fram e
ĠëķĮ ê°Ģ
Ġb ent
ĠíĥĿ ë°°
Ġgl impse
ĠíĸĪ ê³ł
Ġdeterm in
Ġmand ate
ë²Ķ ì£Ħ
Ġfort une
ject s
Ġanest hesia
With out
ĠClin ton
ìī½ ê²Į
ìĹ° ê¸Ī
Ġê·¸ ìłĢ
Ġra cing
Ġ194 9
Ġì¹¨ íķ´
Ġë§Į ëĤł
Ġ194 6
ixt y
produ ct
ĠH ud
Ġhous ed
ì ·
10 1
ìĿĺ ìĽĲ
Ġë¬´ ê¸°
A cc
Ġsc ent
te es
Ġë³ĢíĻĶ ê°Ģ
Ġëį° ìĬ¤íģ¬
ìĪĺ ìĽĲ
ìĶ¨ ìĿĺ
ring ing
Ġbright ness
Ġsecret ary
ĠR ow
Ġall ocated
ĠLy me
ĠCa esar
inn amon
Ġinstall ations
ĠR io
ìķ¼ êµ¬
Ġmy riad
ĠMarg aret
Ġcataly st
ë¥ ¨
Ġë©Ģ ë¦¬
Ġê³³ ìĿĢ
ĠDisc overy
Ġcivil ians
Ġinn ocent
t hens
ĠJ osh
Ġëģ Ħ
Ġëĵ¯ íķľ
ĠB irds
With in
ëį ľ
O ff
ëĴ ¤
Ans wer
Art icle
r ill
ac ial
Ġrock y
Ġautom obile
Ġcater pill
ë§ĮìĽĲ ìĿĦ
ĠìĿ´ ëĵ¤ìĿĺ
ìĦł íĥĿ
Ġhect ares
Ġreal ities
ĠA ch
ĠHV AC
be y
Ġethnic ity
ëĮĢ ìĥĿ
ĠFa ith
f s
ĠH arm
âĻ ¥
ë£ ¬
ĠMo z
Ġsh ades
ìķĦ ìĿĺ
Ġo t
Ġì§Ħ ë£Į
ìĤ¬ìĹħ ìĿĦ
Ġlandf ill
P hysical
ìĹ° íŀĪ
ob a
Ġcigare tte
ĠProg ress
ĠAct s
Ġoutput s
Ġìĭł ë°ľ
Ġamb ient
re tt
Ġimmig rant
s um
es ters
Ġopp onent
ro f
ĠE u
Ġcompost ing
Ġvag inal
ìķĦ íĮĮíĬ¸
Ġë³´íĹĺ ë£Į
Ġcan vas
Ġcorresp onds
ìĪĺ íķľ
Ġë°© ìĭĿìĿĦ
Ġprint able
Ġphys iology
Ġt elesc
ĠìĤ¬ìļ© íķľ
Ġprospect ive
Ġt ones
Ġh atch
rim inal
ict ional
Ġbless ed
ĠK B
ĠSt ew
ĠìĿ´ìĬ¤ ëĿ¼ìĹĺ
e zing
Ġlegisl ature
Ġìŀ¬ ëĤľ
Ġëĭ´ ê¸´
Ġì´Ī ì²Ń
Ġembra ced
Ġdisin fect
L ead
o ft
Ġb id
ĠìĺĪ ê³ł
ĠUnder stand
Ġinjust ice
ĠAre as
Ġëļ ľ
Ġd ull
ĠìĿ´ ìłĦìĹĲ
íİ¸ ìĿĺ
frequ ency
Ġìļ´ìĺģ íķĺê³ł
Ġab brev
ĠY ale
ë° Ń
Ġinhib itors
h ill
Ġparagraph s
osex ual
Ġbelie vers
Ġc roc
ĠP el
Ġëĭ¹ ë¶Ģ
Ġëĸ¨ìĸ´ ìł¸
Ġcere bral
Ġg ad
Ġw ore
ëŀĢ ëĵľ
ĠHar ris
Ġimp ly
Ġflo at
Ġin ert
ĠO t
Ġê¸° ìĤ¬ë¥¼
ĠìĨį ëıĦ
Ġgra vel
p os
ĠíĺĲìĿĺ ë¡ľ
ĠìĹ°ëĿ½ ì²ĺ
Ġproject ions
Ġfract ions
Ġê°Ģ ë²¼
Ġmen opause
ĠExper ts
m un
Ġd ile
Ġbl ast
osa ic
Ġnurt uring
ëłĢ ëĭ¤
Ġhyd roc
Ġë¶ģíķľ ìĿĺ
íĸī ìĤ¬
aterial s
Ġcit rus
Ġêµ¬ì²´ ìłģìĿ¸
w ave
er red
ĠìĿ´ ë¥´
Ġphilos ophers
ì²´ ê³Ħ
Ġch op
ĠEconom y
ed y
Ġmig rate
h ou
ur i
ĠAss istant
Ġroll ed
Ġra ins
Ġeng ra
Cre ate
a ic
ìĿ¸ ê¸°
urric anes
ĠP ale
ĠPot ential
AC E
ad ic
ĠëĦ ·
ĠíĺĦ ìŀ¥ìĹĲìĦľ
Ġê²½ ëĤ¨
Ġìµľì´Ī ìĿĺ
ë¦ İ
ê»ĺ ìĦľëĬĶ
Ġbro ccoli
íķĺ ë¯Ģë¡ľ
ĠìĬ¤ ì¼Ģ
Ġpain ter
U E
ìĭĿ ê³¼
Ġincent ive
ĠëĮĢ ë¦¬
P ot
P O
ĠS AT
Ġansw ering
ĠM ig
Ġref eren
íķĻ ìĽĲ
ìĹħ ë¬´
ang les
ĠAb d
ĠApp roach
Ġl id
ĠëĤ´ ê³ł
Ġì·¨ ê¸ī
ev a
ìĸ´ëĸ ¤
ĠGl ass
Ġë¯¼ì£¼ ëĭ¹
M al
Ġrepl icate
ĠìĤ´íİ´ ë³´
ĠEc ology
( ?)
at able
ĠB eth
pe ople
Ġprotect ions
ĠìķĦì§ģ ëıĦ
ì¡° ìĿĺ
ort ium
Ġê±° ê¸°
ĠCh ris
f erence
Ġc in
á ½
Ġìĺ¬ ë¦¬
Ġìłķ ëĭ¹
ìłĦ íķľ
Ġenerg etic
Ġê·¸ ë§Įíģ¼
as se
K E
Ġìĺ¤ ëŀ«ëıĻìķĪ
f illed
ë§Ī ìłĢ
ĠìĿ½ ê³ł
ĠK er
ure rs
Ġth under
Ġun rest
ë°ĶìĿ´ ëŁ¬ìĬ¤
ĠíĻĶ ìĿ´íĬ¸
ĠëıĦ ëĭ¬
et hyl
Ġliber ation
Ġpress ed
par ing
Ġê°Ģ ìĪĺ
Ġve gg
Ġìłķë³´ ê°Ģ
ab a
ĠZ ero
essor i
Ġaer os
cept ive
ĠíĻĶìŀ¥ íĴĪ
Ġê³Ħ ìłĪ
Ġperf ection
at itis
Ġeru pt
Ġsimilar ity
æ Ī
Ġbre w
Ġìŀ¬ ë¬´
Ġb ust
ìºł íį¼
ĠD a
oy d
Ġsur plus
Ġassist ants
ĠP E
ĠìĨĮ ì¤ĳíķľ
Ġremain der
ĠEgypt ians
Ġimmers ive
Ġrod ents
ĠCh amp
own ed
ìĦľ ë¡ľ
ë¯¼ ìĿĺ
ĠSpec ifically
Ġloc als
ĠëĶĶ ìĬ¤íĶĮëłĪìĿ´
Ġl i
Ġdefin ite
els h
Ġì´Ī ë°ĺ
Ġprogress es
Ġrec ession
Ġappar atus
Ġhum ble
Ġìĺ¤ ë¥´
ìĿ´ íĽĦ
Ġbelong ed
ìłĦ ê¸°
Ġsynt ax
Ġapprec iated
thod ont
ĠG ent
Ġì¶Ķ ìĦ¸
ĠìŀĲìĹ° ìĬ¤ëŁ½ê²Į
Ġbe ams
Ġsur pass
Ġrenew ed
egrad able
Ġì§Īë¬¸ ìĹĲ
ats on
êµŃ ìĿĦ
ĠTes la
f ocus
Ġê°ľ ë°©
Ġpe ppers
Ġform ulated
ĠíķĺëĤĺ ê°Ģ
Ġëª©íĳľ ë¥¼
ë¯¸ ë¥¼
Ġâ ĺ
ĠSte ve
ĠDesc ription
Ġc aves
Ġp ills
Ġec zema
ĠìĿ´ ë¡ľ
Ġt astes
is ks
Ġê²½ ë¶ģ
f uel
Ġdon ation
ĠK BS
ìķĪ ìĿĢ
ìĽĶ ê¹Įì§Ģ
Ġë¹ µ
Educ ation
Ġë¨¸ ë¬¼
ott om
Ġë²ķ ë¬´
Ġmarg ins
ri ver
ĠLic ense
Ġì½ ©
hyl ogen
Ġm arc
Ġt ennis
oc hemistry
Ġmot if
Ġê¹Ģ ìĺģ
Ġhope fully
ìķŀ ìĦľ
ë©Ķ ìĿ´
Ġun h
ìŀĪ ìĿĦ
AS E
Ġìķ± ìĿĦ
RO M
ĠìĦ¸ íĬ¸
Ġinf ilt
ĠëĦ£ ê³ł
Ġh obby
Ġgen ius
ĠìłķíĻķ íŀĪ
ì£¼ ìĭĿ
Ġs q
Ġant iqu
Ġreason ably
Ġëªħ ìĭľ
ĠInd ependent
Ġbus es
Ġl one
any on
Ġprom pts
ĠF L
Ġban ana
Frequ ently
ĠE R
d iv
Ġst olen
Ġenjoy ment
ipp le
Ġple ased
ĠG I
Ġup hold
ê°ľ ê°Ģ
Ġshort ages
ĠíĶĦë¡ľ ëª¨
ĠLaw s
Ġmake up
Ģ ëĭ¤
Ġur anium
ĠB ry
Ġsol uble
Ġë³´ ëĦĪ
Ġnot orious
Ġìĥģ ìľĦ
Ġail ments
Ġcoal ition
Ġindu ction
íķĺ ìļ°ìĬ¤
ĠB MI
Ġris en
Ġinc oming
D irect
E U
Ġì¢ĭ ê³ł
ra vel
Ġg ospel
Ġpsych ologists
ĠBrazil ian
ĠìĤ¬ìĭ¤ ìĿ´
J oin
Ġann oy
Get ting
Ġì§ĢìĹŃ ìĹĲìĦľ
ex per
Ġkill er
ĠPl ans
Oct ober
Ġ0 3
Ġgrate ful
Ġer r
Ġmath s
ĠThe rap
ix on
Ġinherent ly
n els
Th ink
Ġsupp ression
Ġì¶ķ ìłľ
Ġë³Ģ íĻĺ
Ġm oss
Ġê²Į ìŀ¬
ĠGen eration
Ġb unch
C ross
L ED
ĠëĤĺ ìģľ
ìľł ëŁ½
Ġd an
ĠPsych ological
ĠM aj
Ġdown ward
ê³µ ëĭ¨
Ġì²´íģ¬ ìĿ¸
ĠS H
ĠëĤ ļ
Ġë³´ ê¸ī
ash i
Ġìĩ¼íķĳ ëª°
ĠA LL
ĠíĽĦ ë°ĺ
ìĥĿ ëªħ
um m
Ġcomp rise
d oc
Ġc ite
ëĤľ ëĭ¤
ĠìĭĿ ëĭ¹
ë¥ł ìĿĢ
Ġfinancial ly
Ġrept iles
Ġinn ate
ed a
Ġsket ch
Ġì ĩ
ĠP ier
Ġê·¸ ë§Į
Ġcapac ities
ĠK an
Ġin effective
ĠMin or
Ġcab in
Ġsof ten
ĠíĴį ê²½
ble m
Ġass ured
Ġë§Ĳ ìĿĢ
ë§Ī íĨł
Ġë²ł ìĬ¤íĬ¸
ĠPl ato
Ġê°ľìĿ¸ ìĿĺ
Ġexp osing
Ph ot
Ġpenal ties
p hy
ĠFor ces
ĠC rown
r atory
u ated
Ġrecord ings
Ġlim itation
Ġê³µ ìĤ¬
ĠëĤĺ ìĦ°ëĭ¤
Ġham mer
Ġëª ½
ë²ķ ìĿĺ
ĠK u
ĠY ang
ĠêµĲ ë¥ĺ
Ġar ising
Ġback ward
Ġì²´ ìľ¡
Ġa ph
ĠìĹĶ ì§Ħ
b ase
Ġregul ates
å Ľ
ĠìĦ¸ ê¸Ī
Ġun ified
Ġë§¤ ë§¤
ĠPC R
ì²Ń ìĿĢ
ìłĦ ìĹĲìĦľ
Ġmig raine
ĠìĹ¬ ë¶Ģë¥¼
Ġcommand ed
Ġdece ased
ĠEss ential
ê³ł ìĨį
Ġìķ¼ êµ¬
Ġinev itably
Ġì²ĺ ë°©
Ġë§º ê³ł
Ġëħ¸íĬ¸ ë¶ģ
Ġê°ľ ìļĶ
Ġ195 6
ĠIntern al
Ġìĥģ ìĹħ
vel and
ĠD VD
Ġdetect ors
Ġë§Įëĵ¤ìĸ´ ì§Ħ
ĠQue bec
ĠRob inson
Ù ħ
f ed
Ġinject ions
Te chn
Ġalkal ine
Ġcaut ious
ëıĻ ìķĪë§Ī
Ġfold er
Ġpenet rate
Ġgarden ers
Ġmir rors
ĠGal ile
Ġinterp ersonal
Ġunder way
ĠPub lished
Ġtrans itions
Ġìº ĺ
Ġsmok ers
Ġlist ing
Ġpl umbing
Ġsc arcity
ĠìĿ´ ì¤ĳ
ìĿ¼ ë¶Ģ
cont roll
it ous
Ġê´Ģëł¨ íķľ
Ġinterpre ting
Ġu biqu
ì£¼ ëħĦ
ĠUg anda
ĠDr ive
ĠZ ion
ic able
urn al
Ġra mp
Ġit ching
d ays
ĠK az
Ġac et
ĠìĤ ½
Ġremote ly
Ġë¶Ħ ëħ¸
íĺĳ ìĿĺ
Ġprob iotics
Ġsuccess ion
199 7
Ġd izziness
Ġper secution
ëįĶëĿ¼ê³ł ìļĶ
ĠMor gan
Ġìĸ¸ìłľ ëĵłì§Ģ
Ġcapt ures
hel p
ĠD ays
ĠCons umer
ìĥĪ ë¡ľìļ´
ĠìĿ´ ëĭ¬
Ġdro pping
ìłķ ê³¼
ìĸĳ ìĿĺ
ê¶Į ìĹĲ
ĠM ercury
ĠPl atform
ìĿ¼ ëŁ¬
Ġaer obic
Ġover ly
Ġì¶ľ ìŀħ
Å «
Ġhyp ot
ê³µ ìĹ°
ograph ics
íĸĪ ê¸°
Ġbud s
Ġde le
ind ex
ĠìĤ¬íļĮ ë³µì§Ģ
Ġgl ad
ĠMon itor
b ecause
oresc ence
Ġb ored
ĠìŀĪìĹĪ ëĬĶëį°
Ġdepr ivation
C oll
Ġev ap
p it
Ġmod elling
Ġbless ing
.. ...
Ġwh oles
ĠìĶ »
ĠëĲĺ ëıĦë¡Ŀ
ìĿ¸ ëıĦ
ë¥ ľ
ì°¸ ìĹ¬
ĠëĦĲ ë¦¬
g rown
ĠB uck
Ġnum b
Ġìļ´ ëıĻìĿĦ
íķĺ ë£¨
Ġacad emics
Te ch
Ġfet al
ansk rit
ĠS it
Ġel bow
Ġex h
Ġexam inations
Ġanaly se
Ġt sun
ce phal
Ġbr ighter
En vironmental
Im agine
F our
Ġdeliber ately
ĠNich olas
ĠìĹŃ ëĮĢ
Ġl ap
ì» ·
ĠìłĦ ìĦ¸ê³Ħ
Ġnurs ery
Ġbu zz
Ø§ ÙĦ
ìŀ¬ ìĥĿ
ĠG ran
Ġsal ts
of ten
ugg ing
ĠìĪĺìĿµ ìĿĦ
Ġchar ter
Ġìĥģíĥľ ìĹĲìĦľ
Ġey el
Ġwavelength s
ic he
Ġal arming
O A
ì¢ Ģ
Ġattack ing
ogene ous
Ġpenet ration
Ġëĵ¤ìĸ´ ìĦľ
Ġin security
Ġìŀ¥ ëĤľ
Ġyour s
Ġmag azines
ĠI l
Ġcrim inals
ĠAr c
Ġparad ox
Ġvent ric
Ġquestionna ire
ĠOther wise
Ġê³ĦìĨį íķ´ìĦľ
Ġ2 20
ĠDyn asty
ĠêµĲ ìĤ¬
ĠPl ate
ĠQu ick
Ġjournal ist
ĠD oc
Ġf ierce
ĠGen etic
ìķĺ ëĬĶëį°
[...]
