{"<|bos|>":0,"<|eos|>":1,"<|pad|>":2,"<|system|>":3,"<|user|>":4,"<|assistant|>":5,"<|turn_end|>":6,"<|reserved_0|>":7,"<|reserved_1|>":8,"<|reserved_2|>":9,"<|reserved_3|>":10,"<|reserved_4|>":11,"<|reserved_5|>":12,"<|reserved_6|>":13,"<|reserved_7|>":14,"<|reserved_8|>":15,"<|reserved_9|>":16,"<|reserved_10|>":17,"<|reserved_11|>":18,"<|reserved_12|>":19,"<|reserved_13|>":20,"<|reserved_14|>":21,"<|reserved_15|>":22,"!":23,"\"":24,"#":25,"$":26,"%":27,"&":28,"'":29,"(":30,")":31,"*":32,"+":33,",":34,"-":35,".":36,"/":37,"0":38,"1":39,"2":40,"3":41,"4":42,"5":43,"6":44,"7":45,"8":46,"9":47,":":48,";":49,"<":50,"=":51,">":52,"?":53,"@":54,"A":55,"B":56,"C":57,"D":58,"E":59,"F":60,"G":61,"H":62,"I":63,"J":64,"K":65,"L":66,"M":67,"N":68,"O":69,"P":70,"Q":71,"R":72,"S":73,"T":74,"U":75,"V":76,"W":77,"X":78,"Y":79,"Z":80,"[":81,"\\":82,"]":83,"^":84,"_":85,"`":86,"a":87,"b":88,"c":89,"d":90,"e":91,"f":92,"g":93,"h":94,"i":95,"j":96,"k":97,"l":98,"m":99,"n":100,"o":101,"p":102,"q":103,"r":104,"s":105,"t":106,"u":107,"v":108,"w":109,"x":110,"y":111,"z":112,"{":113,"|":114,"}":115,"~":116,"¡":117,"¢":118,"£":119,"¤":120,"¥":121,"¦":122,"§":123,"¨":124,"©":125,"ª":126,"«":127,"¬":128,"®":129,"¯":130,"°":131,"±":132,"²":133,"³":134,"´":135,"µ":136,"¶":137,"·":138,"¸":139,"¹":140,"º":141,"»":142,"¼":143,"½":144,"¾":145,"¿":146,"À":147,"Á":148,"Â":149,"Ã":150,"Ä":151,"Å":152,"Æ":153,"Ç":154,"È":155,"É":156,"Ê":157,"Ë":158,"Ì":159,"Í":160,"Î":161,"Ï":162,"Ð":163,"Ñ":164,"Ò":165,"Ó":166,"Ô":167,"Õ":168,"Ö":169,"×":170,"Ø":171,"Ù":172,"Ú":173,"Û":174,"Ü":175,"Ý":176,"Þ":177,"ß":178,"à":179,"á":180,"â":181,"ã":182,"ä":183,"å":184,"æ":185,"ç":186,"è":187,"é":188,"ê":189,"ë":190,"ì":191,"í":192,"î":193,"ï":194,"ð":195,"ñ":196,"ò":197,"ó":198,"ô":199,"õ":200,"ö":201,"÷":202,"ø":203,"ù":204,"ú":205,"û":206,"ü":207,"ý":208,"þ":209,"ÿ":210,"Ā":211,"ā":212,"Ă":213,"ă":214,"Ą":215,"ą":216,"Ć":217,"ć":218,"Ĉ":219,"ĉ":220,"Ċ":221,"ċ":222,"Č":223,"č":224,"Ď":225,"ď":226,"Đ":227,"đ":228,"Ē":229,"ē":230,"Ĕ":231,"ĕ":232,"Ė":233,"ė":234,"Ę":235,"ę":236,"Ě":237,"ě":238,"Ĝ":239,"ĝ":240,"Ğ":241,"ğ":242,"Ġ":243,"ġ":244,"Ģ":245,"ģ":246,"Ĥ":247,"ĥ":248,"Ħ":249,"ħ":250,"Ĩ":251,"ĩ":252,"Ī":253,"ī":254,"Ĭ":255,"ĭ":256,"Į":257,"į":258,"İ":259,"ı":260,"Ĳ":261,"ĳ":262,"Ĵ":263,"ĵ":264,"Ķ":265,"ķ":266,"ĸ":267,"Ĺ":268,"ĺ":269,"Ļ":270,"ļ":271,"Ľ":272,"ľ":273,"Ŀ":274,"ŀ":275,"Ł":276,"ł":277,"Ń":278,"Ġt":279,"Ġa":280,"in":281,"he":282,"re":283,"on":284,"Ġthe":285,"Ġì":286,"er":287,"at":288,"Ġs":289,"Ġo":290,"en":291,"Ġc":292,"es":293,"nd":294,"Ġw":295,"is":296,"it":297,"or":298,"Ġp":299,"al":300,"ing":301,"an":302,"Ġf":303,"Ġb":304,"ìĿ":305,"Ġë":306,"ed":307,"Ġof":308,"Ġin":309,"ou":310,"Ġand":311,"Ġm":312,"ar":313,"Ġto":314,"ic":315,"ion":316,"Ġd":317,"le":318,"ro":319,"as":320,"íķ":321,"ent":322,"Ġh":323,"Ġth":324,"Ġê":325,"ct":326,"Ġe":327,"ëĭ":328,"Ġre":329,"âĢ":330,"il":331,"om":332,"ve":333,"Ġl":334,"st":335,"Ġn":336,"ly":337,"Ġis":338,"Ġbe":339,"ìĹ":340,"se":341,"ĠT":342,"ation":343,"ol":344,"Ġg":345,"im":346,"et":347,"id":348,"ce":349,"ur":350,"ut":351,"ot":352,"ow":353,"ch":354,"ra":355,"ëĭ¤":356,"ig":357,"Ġfor":358,"ìĿ´":359,"Ġí":360,"Ġu":361,"Ġy":362,"ĠA":363,"ëĬ":364,"Ġst":365,"Ġthat":366,"ê³":367,"Ġon":368,"ver":369,"ĠS":370,"ir":371,"ëĬĶ":372,"ul":373,"ĠI":374,"ĠC":375,"Ġpro":376,"ith":377,"ay":378,"Ġyou":379,"am":380,"Ġas":381,"el":382,"ìĦ":383,"Ġcon":384,"Ġare":385,"ìŀ":386,"ê°":387,"ìĹĲ":388,"ìł":389,"Ġwith":390,"if":391,"ad":392,"her":393,"Ġan":394,"ìĿĦ":395,"Ġor":396,"íķĺ":397,"Ġit":398,"Ġal":399,"ì§":400,"âĢĻ":401,"od":402,"ment":403,"ë¡":404,"Ġwh":405,"ter":406,"Ġ1":407,"ìĿĺ":408,"ge":409,"ess":410,"Ġìŀ":411,"ĠThe":412,"ate":413,"th":414,"ers":415,"ab":416,"ĠM":417,"ĠìĿ":418,"ies":419,"Ġhe":420,"Ġde":421,"op":422,"Ġex":423,"ĠP":424,"Ġ(":425,"ect":426,"Ġsu":427,"ity":428,"Ġcom":429,"ts":430,"ìĭ":431,"Īëĭ¤":432,"ë¡ľ":433,"ill":434,"ore":435,"íķľ":436,"ë¥":437,"ive":438,"Ġcan":439,"ìļ":440,"ê³ł":441,"ure":442,"us":443,"¸°":444,"ĠB":445,"ke":446,"ac":447,"Ġwe":448,"Ġv":449,"Ġha":450,"qu":451,"ĠâĢ":452,"iv":453,"um":454,"ain":455,"ist":456,"os":457,"pp":458,"est":459,"em":460,"rom":461,"ëı":462,"ì§Ģ":463,"Ġìł":464,"Ġ2":465,"ld":466,"Ĥ¬":467,"igh":468,"ìľ":469,"ĠH":470,"ìĬ":471,"ial":472,"ìķ":473,"ë¦":474,"ê°Ģ":475,"Ġch":476,"Ġby":477,"ĠW":478,"ud":479,"oc":480,"Ġr":481,"Ġat":482,"ĠD":483,"ìĿĢ":484,"Ġne":485,"ĠE":486,"ê²":487,"and":488,"nt":489,"Ġfrom":490,"res":491,"ant":492,"Ġen":493,"ëĵ":494,"ë¥¼":495,"Ġle":496,"ort":497,"Ġse":498,"Ġê°":499,"ìĦľ":500,"ĠR":501,"ĠF":502,"un":503,"ical":504,"Ġwas":505,"Ġë°":506,"Ġìķ":507,"Ġnot":508,"Ġhave":509,"og":510,"ê¸°":511,"ĮĢ":512,"ri":513,"Ġsh":514,"Ġsp":515,"ëĤ":516,"ìĸ":517,"Īĺ":518,"ë§":519,"art":520,"ĠG":521,"Ġim":522,"ions":523,"ĠN":524,"íķ´":525,"du":526,"ĠL":527,"Ġê²":528,"Ġyour":529,"ëĭĪëĭ¤":530,"Ġthis":531,"00":532,"ëıĦ":533,"Ġwor":534,"pt":535,"rou":536,"all":537,"ë¦¬":538,"per":539,"Ġab":540,"ĠìĿ´":541,"ere":542,"Ġtheir":543,"ost":544,"act":545,"Ġus":546,"our":547,"Ġpl":548,"ther":549,"The":550,"ome":551,"êµ":552,"ff":553,"ich":554,"Ġë§":555,"gh":556,"ine":557,"Ġìĭ":558,"ould":559,"ìĿ¸":560,"ated":561,"ag":562,"pl":563,"Ġint":564,"ight":565,"âĢĿ":566,"ë©":567,"ìĽ":568,"ard":569,"out":570,"ëł":571,"are":572,"iz":573,"age":574,"ell":575,"ĠìĹ":576,"ìľ¼":577,"ak":578,"ru":579,"Ġad":580,"ë³":581,"ide":582,"ans":583,"Ġinc":584,"Ġwhe":585,"ous":586,"ĠO":587,"ìĭľ":588,"ec":589,"Ġcont":590,"Ġthey":591,"ood":592,"ast":593,"Ġcomp":594,"Ġk":595,"ear":596,"cc":597,"ë°":598,"ations":599,"ìĸ´":600,"ëĿ":601,"ìŀĲ":602,"ĠìĦ":603,"Ġwhich":604,"ìĥ":605,"ust":606,"Ġì§":607,"Ġres":608,"ib":609,"ìĬ¤":610,"end":611,"Ġall":612,"Ġmore":613,"Ġwill":614,"ë¶":615,"vel":616,"Ġdis":617,"ĠU":618,"ip":619,"ìĤ¬":620,"so":621,"able":622,"ĠâĢľ":623,"orm":624,"ĠìŀĪ":625,"ĠIn":626,"ap":627,"ëĿ¼":628,"Ġimp":629,"ong":630,"ĠTh":631,"Ġê³":632,"ance":633,"·¸":634,"ë¬":635,"ater":636,"Ġhas":637,"£¼":638,"ence":639,"ĠìĪĺ":640,"ual":641,"Ġëĭ":642,"Ġte":643,"Ġman":644,"ĠJ":645,"ia":646,"íĸ":647,"Ġdo":648,"ild":649,"ew":650,"ult":651,"ìľ¼ë¡ľ":652,"ks":653,"ire":654,"ëŀ":655,"ign":656,"Ġalso":657,"ep":658,"ary":659,"Ġcl":660,"ìŀ¥":661,"Ġother":662,"ìĺ":663,"ents":664,"Ġìĺ":665,"ĠìĤ¬":666,"ry":667,"ind":668,"reat":669,"ĠëĤ":670,"ach":671,"ëĵ¤":672,"ê³¼":673,"íĻ":674,"ake":675,"Ġë³":676,"Ġbut":677,"Ġme":678,"ress":679,"ìĹĲìĦľ":680,"Ġper":681,"ì²":682,"ition":683,"ê²Į":684,"av":685,"Ġpre":686,"Ġapp":687,"ction":688,"ose":689,"ase":690,"Ġj":691,"ëĲ":692,"Ġ20":693,"Ġso":694,"ass":695,"Ġone":696,"Ġun":697,"ime":698,"ice":699,"ëŁ":700,"Ġsy":701,"Ġout":702,"ìłķ":703,"one":704,"ëĤĺ":705,"au":706,"Ġinf":707,"ens":708,"ors":709,"ace":710,"Ġwere":711,"very":712,"ces":713,"Ġev":714,"ĠëĮĢ":715,"Ġìľ":716,"ack":717,"ike":718,"Ġar":719,"ëĮĢ":720,"Ġcomm":721,"Ġë¶":722,"ë©´":723,"Ġabout":724,"Ġstud":725,"íĺ":726,"Ġ3":727,"ìĨ":728,"Ġthem":729,"ìĽĲ":730,"íĬ":731,"ìĬµ":732,"ëį":733,"Ġpe":734,"ue":735,"ok":736,"ord":737,"Ġëª":738,"Ġê·¸":739,"ory":740,"ë²":741,"ì¹":742,"ber":743,"ang":744,"Ġìĥ":745,"ìĻ":746,"Ġsc":747,"Ġíķ":748,"ame":749,"ile":750,"Ġê¸°":751,"ìłģ":752,"olog":753,"now":754,"Ġê°Ģ":755,"¹Ħ":756,"ìļĶ":757,"Ġmay":758,"iff":759,"ìļ©":760,"Ġwho":761,"nder":762,"ĠIt":763,"alth":764,"ĠThis":765,"ĠSt":766,"ish":767,"Ġqu":768,"Ġpart":769,"ric":770,"ìķĦ":771,"low":772,"ìĿ¼":773,"ite":774,"Ġ19":775,"Ġêµ":776,"ail":777,"ĠK":778,"ub":779,"Ġup":780,"ëħ":781,"Ġbec":782,"ound":783,"ìĥģ":784,"ount":785,"ific":786,"ëª":787,"Ġrec":788,"ree":789,"Ġtra":790,"ë¶Ģ":791,"ìłľ":792,"ople":793,"íĬ¸":794,"ìĬµëĭĪëĭ¤":795,"ings":796,"Ġits":797,"ë³´":798,"ays":799,"Ġëĵ":800,"Ġthese":801,"ie":802,"Ġwhen":803,"'s":804,"Ġwork":805,"Ġhel":806,"íķĺëĬĶ":807,").":808,"Ġinto":809,"ê¸":810,"ë§Į":811,"Ġover":812,"Ġsome":813,"Ġthan":814,"Ġro":815,"Ġcons":816,"ren":817,"Ġdiff":818,"ities":819,"Ġê²ĥ":820,"Ġì§Ģ":821,"Ġìĭľ":822,"lud":823,"Ġtime":824,"ates":825,"ìĦ±":826,"Ġem":827,"Ġhow":828,"Ġhelp":829,"Ġlike":830,"rough":831,"Ġgo":832,"Ġour":833,"ments":834,"erv":835,"Ġthere":836,"Ġhis":837,"Ġuse":838,"ļĮ":839,"ffect":840,"Ġëı":841,"íĥ":842,"Ġneed":843,"ally":844,"Ġpeople":845,"ĠCh":846,"Ġacc":847,"ons":848,"Ġë¬":849,"Ġyear":850,"stem":851,"ning":852,"..":853,"Ġcol":854,"Ġunder":855,"Ġact":856,"Ġag":857,"rit":858,"Ġbeen":859,"Ġbet":860,"´Ģ":861,"ĠìłĦ":862,"ms":863,"Ġ\"":864,"ough":865,"vers":866,"Ġsuch":867,"hy":868,"cess":869,"velop":870,"ì£¼":871,"ian":872,"ause":873,"Ġtr":874,"ious":875,"ĠìķĦ":876,"ĠV":877,"lect":878,"row":879,"tern":880,"Ġbl":881,"Ġknow":882,"ll":883,"les":884,"ë¯":885,"ond":886,"ating":887,"we":888,"Ġinclud":889,"ove":890,"lic":891,"Ġsa":892,"Ġdes":893,"¤ĳ":894,"Ġra":895,"te":896,"¡°":897,"Ġìĸ":898,"Ġmost":899,"Ġprov":900,"ĠY":901,"Ġìļ":902,"ject":903,"ìłĦ":904,"ook":905,"ĠíĻ":906,"Ġrel":907,"ìĪĺ":908,"ple":909,"ular":910,"ient":911,"íĻĶ":912,"Ġë³´":913,"yp":914,"Ġprodu":915,"ility":916,"ìĻĢ":917,"Ġhealth":918,"ëĵľ":919,"Ġnew":920,"Ġif":921,"irst":922,"Ġind":923,"ob":924,"red":925,"íĦ":926,"ative":927,"Ġchild":928,"Ġíķĺ":929,"Ġdevelop":930,"ced":931,"Ġìłľ":932,"Ġany":933,"ëıĻ":934,"Ġfe":935,"uring":936,"ê±":937,"Ġused":938,"Ġrep":939,"Ġgen":940,"ov":941,"ì¶":942,"Ġíķľ":943,"Ġsystem":944,"Ġoff":945,"Ġpr":946,"Ġëĭ¤":947,"êµ¬":948,"Ġthrough":949,"ful":950,"ational":951,"Ġdi":952,"êµŃ":953,"Ġspec":954,"mer":955,"ph":956,"Ġ4":957,"Ġreg":958,"ĠìĨ":959,"ise":960,"Ġìłķ":961,"Ġwhat":962,"Ġ201":963,"Ġhad":964,"ë£":965,"Ġdiffere":966,"ark":967,"ool":968,"Ġ5":969,"Ġtw":970,"Ġac":971,"Ġwould":972,"ë¬¸":973,"ics":974,"round":975,"íļĮ":976,"hen":977,"ĠìŀĲ":978,"Ġam":979,"Ġonly":980,"ures":981,"íĦ°":982,"Ġmany":983,"Ġíĺ":984,"Ġadd":985,"ì°":986,"ìĹ¬":987,"oss":988,"Ġexp":989,"ten":990,"ĠâĢĺ":991,"ìĹħ":992,"ract":993,"als":994,"uc":995,"íĶ":996,"ĠâĢĵ":997,"hed":998,"oin":999,"eth":1000,"Ġsupp":1001,"oth":1002,"ìĭł":1003,"íķĺê³ł":1004,"rib":1005,"ëĭĪ":1006,"ne":1007,"),":1008,"Ġdec":1009,"ower":1010,"ased":1011,"erg":1012,"ink":1013,"ible":1014,"Ġfirst":1015,"chn":1016,"íķł":1017,"Ġno":1018,"Ġinv":1019,"ange":1020,"Ġass":1021,"Ġì°":1022,"Ġì£¼":1023,"Ġwell":1024,"ë¹Ħ":1025,"rop":1026,"In":1027,"fter":1028,"ting":1029,"Ġwater":1030,"old":1031,"its":1032,"ìĨĮ":1033,"ef":1034,"Ĩµ":1035,"tain":1036,"Ġshould":1037,"ìļ°":1038,"iss":1039,"ife":1040,"erm":1041,"20":1042,"Ġsur":1043,"Ġrem":1044,"ĠìľĦ":1045,"Ġhigh":1046,"ë©°":1047,"Ġob":1048,"Ĥ°":1049,"ĠUn":1050,"ata":1051,"form":1052,"ê°Ħ":1053,"Ġpat":1054,"cy":1055,"Ġimport":1056,"ê¹":1057,"ëŁ¬":1058,"ëħĦ":1059,"ĠìĿ¸":1060,"Ġtrans":1061,"ween":1062,"ì¹ĺ":1063,"Ġatt":1064,"Ġfl":1065,"Ġmake":1066,"Ġì¶":1067,"ble":1068,"íĮ":1069,"Ġtwo":1070,"Ġsm":1071,"Ġlear":1072,"arch":1073,"Ġexper":1074,"gan":1075,"ience":1076,"ram":1077,"ural":1078,"Ġê²½":1079,"Ġê±":1080,"ìŀħ":1081,"own":1082,"ĠëĲ":1083,"hes":1084,"Ġpers":1085,"Ġbetween":1086,"ever":1087,"©ëĭĪëĭ¤":1088,"Ġwhere":1089,"Ġeffect":1090,"ness":1091,"ution":1092,"ê³µ":1093,"ick":1094,"oy":1095,"Ġinter":1096,"Ġbu":1097,"Ġget":1098,"Ġsign":1099,"Ġsub":1100,"aking":1101,"wn":1102,"ng":1103,"Ġëĵ±":1104,"sel":1105,"ology":1106,"ĠHe":1107,"Ġ-":1108,"Ġmod":1109,"Ġëª¨":1110,"ants":1111,"ential":1112,"Ġpres":1113,"fore":1114,"ëĲĺ":1115,"ìķ¼":1116,"Ġdifferent":1117,"íı":1118,"Ġinst":1119,"Ġco":1120,"iet":1121,"ì§Ħ":1122,"Ġcould":1123,"ade":1124,"ily":1125,"ied":1126,"Ġmed":1127,"ê³Ħ":1128,"Ġrese":1129,"xt":1130,"ìĦ¸":1131,"Ġtyp":1132,"Ġtechn":1133,"Ġexam":1134,"ss":1135,"Ġvar":1136,"Ġyears":1137,"Ġprocess":1138,"Ġke":1139,"Ġëį":1140,"ĠëĤĺ":1141,"hat":1142,"ĠìĿ¼":1143,"ines":1144,"Ġì²":1145,"Ġì¤ĳ":1146,"Ġincre":1147,"vent":1148,"iron":1149,"Ġdisc":1150,"ëį°":1151,"ë§Ī":1152,"Ġê³µ":1153,"íĸĪëĭ¤":1154,"Ġpol":1155,"Ġworld":1156,"Ġform":1157,"Ġcar":1158,"aw":1159,"Ġdet":1160,"ered":1161,"uch":1162,"íĸī":1163,"chool":1164,"Ġresp":1165,"Ġear":1166,"Ġlong":1167,"ident":1168,"Ġë²":1169,"ices":1170,"Ġway":1171,"Ġinform":1172,"get":1173,"Ġsim":1174,"ature":1175,"Ġ6":1176,"Ġeven":1177,"ted":1178,"cer":1179,"ĠìŀĪëĭ¤":1180,"ues":1181,"Ġë¶Ģ":1182,"Ġdata":1183,"ives":1184,"ìĤ°":1185,"Ġher":1186,"Ġìĥģ":1187,"Ġnum":1188,"Ġimportant":1189,"Ġjust":1190,"Ġrequ":1191,"Ġed":1192,"ically":1193,"Ġsoc":1194,"Ġhum":1195,"ps":1196,"ft":1197,"ron":1198,"ëł¤":1199,"ins":1200,"Ġcommun":1201,".âĢĿ":1202,"stand":1203,"ited":1204,"ath":1205,"ually":1206,"ĠìĬ":1207,"Ġsk":1208,"arm":1209,"Ġlead":1210,"Ġbecause":1211,"ists":1212,"Ġref":1213,"ck":1214,"ism":1215,"Ġsee":1216,"Ġgener":1217,"ìķĪ":1218,"ê¹Į":1219,"ruct":1220,"ëªħ":1221,"ases":1222,"Ġlar":1223,"Ġevery":1224,"Ġ200":1225,"Ġfound":1226,"Ġafter":1227,"ize":1228,"eg":1229,"viron":1230,"Ġcre":1231,"Ġsec":1232,"ody":1233,"ìļ´":1234,"ĽĦ":1235,"ĠíĶ":1236,"Ġprog":1237,"ìĿ´ëĭ¤":1238,"Ġext":1239,"ê¸Ī":1240,"Ġfact":1241,"ì¦":1242,"Ġca":1243,"other":1244,"Ġfood":1245,"Ġcent":1246,"ì²´":1247,"Ġlife":1248,"ĠìŀĪëĬĶ":1249,"Ġë¯":1250,"Ġthen":1251,"urn":1252,"Ġcount":1253,"Ġgrow":1254,"Ġthose":1255,"Ġvery":1256,"ollow":1257,"Ġíı":1258,"omm":1259,"Ġart":1260,"Ġpartic":1261,"led":1262,"ized":1263,"con":1264,"land":1265,"Ġìĸ´":1266,"ìĭĿ":1267,"Ġloc":1268,"íĴ":1269,"ë¬´":1270,"meric":1271,"Ġchildren":1272,"ork":1273,"Ġê³ł":1274,"µľ":1275,"ict":1276,"íģ":1277,"iew":1278,"Ġë§Ī":1279,"íŀ":1280,"ĠìķĬ":1281,"ages":1282,"ality":1283,"ĠìĨĮ":1284,"Ġ10":1285,"ìľĦ":1286,"Ġlevel":1287,"ĠíĮ":1288,"ĠThey":1289,"Ġeach":1290,"ê·¸":1291,"ê°ľ":1292,"ivid":1293,"Ġdep":1294,"ë¯¸":1295,"Ġstr":1296,"Ġê´Ģ":1297,"Ġduring":1298,"ê´Ģ":1299,"ê±°":1300,"Ġbeing":1301,"ķĮ":1302,"Ġph":1303,"Ġins":1304,"Ġset":1305,"ìŀ¬":1306,"Ġmain":1307,"Ġperson":1308,"Ġìľł":1309,"ëĦ":1310,"Ġmon":1311,"íķĻ":1312,"ê²½":1313,"ì¡°":1314,"Ġgra":1315,"Ġì¹":1316,"ivers":1317,"ection":1318,"ĠëĤ´":1319,"Th":1320,"cept":1321,"Ġpub":1322,"Ġav":1323,"ĠPro":1324,"Ġaut":1325,"ien":1326,"ìĭ¤":1327,"Ġoften":1328,"Ġstudents":1329,"Ġdist":1330,"ys":1331,"19":1332,"ds":1333,"ĠìĽ":1334,"ìĺ¤":1335,"Ġredu":1336,"Ġent":1337,"ëĭ¨":1338,"Ġíķ´":1339,"Ġmin":1340,"hip":1341,"ë¶Ħ":1342,"ved":1343,"ĠìĹ¬":1344,"Ġinformation":1345,"ward":1346,"Ġìĺ¤":1347,"ë£Į":1348,"ĠWe":1349,"ìĿĮ":1350,"Ġusing":1351,"Ġsol":1352,"ê·":1353,"ĠAs":1354,"ĠìŀĪìĬµëĭĪëĭ¤":1355,"vironment":1356,"Ġcall":1357,"ìĥĿ":1358,"Ġexpl":1359,"Ġown":1360,"Ġê°ľ":1361,"Ġë¹Ħ":1362,"ëĲľ":1363,"ëł¥":1364,"Ġtreat":1365,"ergy":1366,"Ġ7":1367,"Ġfam":1368,"Ġris":1369,"Ġread":1370,"Ġì¢":1371,"ìĦł":1372,"Ġprot":1373,"Ġcomple":1374,"dition":1375,"ĠAmeric":1376,"iqu":1377,"Ġche":1378,"ather":1379,"Ġfind":1380,"Ġcur":1381,"ĠHow":1382,"ĠìĹĨ":1383,"Ġ18":1384,"Ġmuch":1385,"ĠëĶ":1386,"Ġdef":1387,"Ġfollow":1388,"Ġproble":1389,"ĠAl":1390,"gg":1391,"any":1392,"imes":1393,"Ġgood":1394,"ĠIf":1395,"íŀĪ":1396,"Ġval":1397,"Ġboth":1398,"íĴĪ":1399,"000":1400,"Ġgl":1401,"Ġprovid":1402,"Ġwhile":1403,"Ġdoes":1404,"Ġstudy":1405,"Ġíĸ":1406,"ëŀĺ":1407,"ëĤ´":1408,"Ġì¡°":1409,"Ġback":1410,"ì¶ľ":1411,"tle":1412,"ìľł":1413,"Ġmy":1414,"Ġdesign":1415,"ĠFor":1416,"Ġsaid":1417,"Ġê¸":1418,"io":1419,"Ġshe":1420,"vern":1421,"oun":1422,"êµĲ":1423,"Ġë°ı":1424,"ìĪ":1425,"ìĺģ":1426,"Ġë§Į":1427,"ock":1428,"ital":1429,"Ġ8":1430,"Ġë°Ķ":1431,"ex":1432,"rain":1433,"Ġë¬´":1434,"com":1435,"ë¥´":1436,"íħ":1437,"Ġunderstand":1438,"ĠìĻ":1439,"Ġend":1440,"Ġserv":1441,"Ġmade":1442,"Ġêµ¬":1443,"Ġìĭł":1444,"hys":1445,"imate":1446,"Ġfun":1447,"Ġpop":1448,"Ġtake":1449,"read":1450,"Ġschool":1451,"Ġsame":1452,"cent":1453,"Ġpower":1454,"rol":1455,"ĠìĥĿ":1456,"ĠìĿĺ":1457,"ĠìĹ°":1458,"Ġcor":1459,"Ġbody":1460,"Ġactiv":1461,"Ġbefore":1462,"Ġvis":1463,"íİ":1464,"Ġshow":1465,"Ġhist":1466,"Ġcare":1467,"ĠìĦľ":1468,"ĠìĦł":1469,"Ġsmall":1470,"und":1471,"ĳľ":1472,"Ġorgan":1473,"ves":1474,"ĠëķĮ":1475,"iety":1476,"Ġë°©":1477,"Ġsupport":1478,"Ġdise":1479,"||":1480,"ĠAn":1481,"ividual":1482,"ax":1483,"ale":1484,"akes":1485,"ty":1486,"íĹ":1487,"ĠCon":1488,"ìĽĶ":1489,"iel":1490,"Ġpar":1491,"Ġless":1492,"rap":1493,"Ġallow":1494,"ional":1495,"Ġbr":1496,"ìĹ°":1497,"cial":1498,"Ġadv":1499,"ĳĲ":1500,"Ġcle":1501,"ëĭ¹":1502,"ute":1503,"Ġpract":1504,"ë¬¼":1505,"ving":1506,"Ġgrou":1507,"Ġresearch":1508,"ĠìĬ¤":1509,"eng":1510,"Ġhand":1511,"inal":1512,"Ġcommon":1513,"Ġposs":1514,"ĠíĨµ":1515,"Ġconsid":1516,"ĠInd":1517,"Ġë°ľ":1518,"Ġ9":1519,"Ġimpro":1520,"Ġday":1521,"Ġaround":1522,"Ġ'":1523,"âĢľ":1524,"iving":1525,"Ġenvironment":1526,"Ġchar":1527,"omen":1528,"ĠThese":1529,"ìŀħëĭĪëĭ¤":1530,"ering":1531,"10":1532,"ëĬ¥":1533,"ìŀĳ":1534,"ĠìķĪ":1535,"ix":1536,"Ġincluding":1537,"Ġagain":1538,"Ġbo":1539,"ìħ":1540,"ral":1541,"itions":1542,"Ġindividual":1543,"ulation":1544,"Ġhuman":1545,"Ġìļ°":1546,"der":1547,"Ġelect":1548,"ier":1549,"ì¡":1550,"aterial":1551,"Ġpot":1552,"cing":1553,"Ġlook":1554,"Ġìµľ":1555,"ë¯¼":1556,"Ġë¯¸":1557,"ince":1558,"ìĸĳ":1559,"ĠYou":1560,"ì§Ģë§Į":1561,"Ġ|":1562,"ability":1563,"ffic":1564,"ìĹŃ":1565,"up":1566,"irect":1567,"íĺ¸":1568,"Ġmem":1569,"ĠAr":1570,"Ġconf":1571,"Ġdown":1572,"ìĹĪ":1573,"Ġë§Ĳ":1574,"íķ©ëĭĪëĭ¤":1575,"ĠSp":1576,"Ġocc":1577,"ĠëıĦ":1578,"air":1579,"ëĶ":1580,"itive":1581,"Ġstate":1582,"Ġrequire":1583,"Ġplan":1584,"ars":1585,"Ġcell":1586,"ë¡Ŀ":1587,"ium":1588,"cl":1589,"nce":1590,"Ġeduc":1591,"Ġben":1592,"Ġmust":1593,"oint":1594,"Ġlit":1595,"Ġenergy":1596,"Ġpo":1597,"esp":1598,"ë²ķ":1599,"the":1600,"Ġcontin":1601,"Ġbel":1602,"Ġbuild":1603,"Ġëħ":1604,"ìŀĦ":1605,"Ġclass":1606,"iness":1607,"Ġnumber":1608,"ross":1609,"Ġproduct":1610,",âĢĿ":1611,"oms":1612,"acter":1613,"íĥĢ":1614,"Ġnow":1615,"Ġexample":1616,"Ġbeh":1617,"hers":1618,"ished":1619,"íģ¬":1620,"ĠëıĻ":1621,"Ġtest":1622,"ental":1623,"ì°¨":1624,"This":1625,"Ġgu":1626,"ë°©":1627,"Ġdr":1628,"ven":1629,"Ġmet":1630,"Ġser":1631,"Ġequ":1632,"Ġprof":1633,"day":1634,"âĢĶ":1635,"ters":1636,"ĠìĦ¸":1637,"Ġeas":1638,"Ġíĥ":1639,"uss":1640,"els":1641,"íĶĦ":1642,"ĠìĺĪ":1643,".,":1644,"Ġplay":1645,"Ġmaterial":1646,"Ġappro":1647,"ĠSc":1648,"Ġest":1649,"Ġstart":1650,"Ġsym":1651,"ead":1652,"ources":1653,"Ġland":1654,"¶Į":1655,"Ġop":1656,"rent":1657,"ury":1658,"Ġiss":1659,"Ġeng":1660,"ization":1661,"ights":1662,"ared":1663,"ries":1664,"ëĵ¤ìĿ´":1665,"ĠêµŃ":1666,"ĠíĬ":1667,"Ġë¶Ħ":1668,"Ġconst":1669,"Ġgreat":1670,"ave":1671,"Ġlearn":1672,"Ġë¬¸":1673,"Ġdevelopment":1674,"ee":1675,"Ġaw":1676,"aj":1677,"Ġgovern":1678,"Ġsaf":1679,"ids":1680,"self":1681,"ëŀĮ":1682,"ĺĲ":1683,"Ġsocial":1684,"ption":1685,"Ġsignific":1686,"¤Ģ":1687,"Ġthree":1688,"Ġìĺģ":1689,"Ġmight":1690,"½Ķ":1691,"ĠìĦ±":1692,"Ġlarge":1693,"ined":1694,"iversity":1695,"Ġchang":1696,"Ġknown":1697,"Ġident":1698,"ethod":1699,"ets":1700,"ash":1701,"ìĹĲê²Į":1702,"ify":1703,"ull":1704,"iven":1705,"ĠBut":1706,"ê°ģ":1707,"ì¤ĳ":1708,"Ġphys":1709,"reen":1710,"ìłģìĿ¸":1711,"Ġprovide":1712,"ected":1713,"ains":1714,"Ġtem":1715,"ĠThere":1716,"ults":1717,"ination":1718,"orts":1719,"line":1720,"Ġide":1721,"Ġright":1722,"Ġpur":1723,"Ġwithin":1724,"ration":1725,"Ġcaus":1726,"Ġproject":1727,"Ĩł":1728,"Ġrisk":1729,"ger":1730,"ouse":1731,"Ġpos":1732,"ëłĪ":1733,"conom":1734,"ner":1735,"ĠNew":1736,"iod":1737,"Ġve":1738,"Ġdem":1739,"Ġwithout":1740,"ĠëĲĺ":1741,"tt":1742,"Ġchange":1743,"Ġbenef":1744,"Ġinclude":1745,"Ġstand":1746,"ert":1747,"oci":1748,"Ġcult":1749,"ĠëĦ":1750,"Ġquest":1751,"Ġcour":1752,"Ġê±°":1753,"Ġsom":1754,"Ġìĭ¤":1755,"ah":1756,"Ġlearning":1757,"ense":1758,"Ġpublic":1759,"íĨµ":1760,"Ġstill":1761,"Ġthough":1762,"Ġhim":1763,"Ġimm":1764,"Ġthink":1765,"Ġplace":1766,"ĠëįĶ":1767,"Ġbre":1768,"Ġì§Ħ":1769,"Ġair":1770,"oh":1771,"Ġwrit":1772,"ially":1773,"erest":1774,"ills":1775,"Ġbest":1776,"Ġanal":1777,"ĠAnd":1778,"Ġwant":1779,"Ġcap":1780,"Ġë§İ":1781,"ior":1782,"Ġresult":1783,"íĸĪ":1784,"ëĤľ":1785,"iver":1786,"ìĭ¬":1787,"Ġproper":1788,"ìĿ´ëĿ¼":1789,"...":1790,"Â·":1791,"Ġmat":1792,"Ġíģ":1793,"angu":1794,"agn":1795,"ëª¨":1796,"Ġmark":1797,"íĹĺ":1798,"ëįĺ":1799,"Ġê·":1800,"less":1801,"Ġdid":1802,"ĠAd":1803,"Ġens":1804,"Ġfew":1805,"íı¬":1806,"ë¥¸":1807,"ĠHowever":1808,"Ġmus":1809,"Ġpain":1810,"ìĹĪëĭ¤":1811,"âĢĵ":1812,"íķĺê²Į":1813,"íķĺìĹ¬":1814,"Ġess":1815,"ì²ľ":1816,"ank":1817,"Ġhome":1818,"Ġnat":1819,"íķľëĭ¤":1820,"Ġperform":1821,"ording":1822,"Ġdon":1823,"Ġbetter":1824,"Ġindu":1825,"Ġimpact":1826,"Ġmeas":1827,"ĠëĨ":1828,"Ġmethod":1829,"Ġkeep":1830,"ining":1831,"Ġcalled":1832,"bs":1833,"ccess":1834,"orn":1835,"ë°ľ":1836,"ateg":1837,"Ġprom":1838,"Ġblood":1839,"Ġìŀ¥":1840,"ĠìĤ¬ìļ©":1841,"sp":1842,"íĭ":1843,"outh":1844,"Ġbus":1845,"ason":1846,"Ġdisease":1847,"sc":1848,"Ġê¹":1849,"me":1850,"ìłĲ":1851,"ë°ĺ":1852,"alk":1853,"lish":1854,"Ġcontrol":1855,"Ġì´":1856,"de":1857,"Ġsit":1858,"Ġpresent":1859,"Ġopp":1860,"Ġinfl":1861,"Ġfin":1862,"Ġsignificant":1863,"Ġlight":1864,"ĠìĤ":1865,"Ġinvol":1866,"Ġbecome":1867,"Ġant":1868,"osed":1869,"bers":1870,"íĳľ":1871,"ìĨį":1872,"It":1873,"Ġoper":1874,"ê¹Įì§Ģ":1875,"Ġdirect":1876,"Ġprevent":1877,"Ġret":1878,"ological":1879,"Ġreal":1880,"What":1881,"ĠIs":1882,"ĠëĮĢíķľ":1883,"Ġdev":1884,"oid":1885,"ients":1886,"Ġaccess":1887,"Ġê°Ļ":1888,"ì¢":1889,"ĠEx":1890,"ìłģìľ¼ë¡ľ":1891,"Ġleg":1892,"Ġfeel":1893,"Ġpass":1894,"Ġcause":1895,"Ġê²°":1896,"ë§¤":1897,"Ġcreat":1898,"ĠêµĲ":1899,"ats":1900,"Ġeconom":1901,"ocus":1902,"ĠëĶ°":1903,"rodu":1904,"ified":1905,"ĠEng":1906,"ield":1907,"ê±´":1908,"ê»":1909,"ogn":1910,"Ġrest":1911,"ways":1912,"Ġcost":1913,"ently":1914,"gen":1915,"ource":1916,"Ġlow":1917,"Ġ15":1918,"Ġaffect":1919,"Ġsever":1920,"Ġarea":1921,"ision":1922,"ìĹĲëĬĶ":1923,"ĠìķĮ":1924,"ĠëĺĲ":1925,"ertain":1926,"Ġë©":1927,"Ġpotential":1928,"ĠíĻķ":1929,"eed":1930,"Ġmove":1931,"Ġ&":1932,"ì²Ń":1933,"Ġtre":1934,"Ġinterest":1935,"Ġì¶Ķ":1936,"atic":1937,"Ġbelie":1938,"Ġanother":1939,"Ġwomen":1940,"íĤ":1941,"ê²©":1942,"inc":1943,"ëĵł":1944,"ĠìĽĲ":1945,"ĠWh":1946,"Ġê°ķ":1947,"Ġsl":1948,"Ġaddition":1949,"ĠDe":1950,"ìłĢ":1951,"ived":1952,"Ġbas":1953,"ention":1954,"ris":1955,"Ġplant":1956,"Ġmaking":1957,"icle":1958,"Ġíİ":1959,"Ġ[":1960,"ë²Ī":1961,"Ġconn":1962,"Ġ:":1963,"ê¶Į":1964,"Ġ12":1965,"ards":1966,"ern":1967,"par":1968,"ìĦ¤":1969,"Ġparticular":1970,"to":1971,"ìķ½":1972,"Ġtreatment":1973,"ĠíĺĦ":1974,"Ġmeans":1975,"agement":1976,"ances":1977,"Ġanim":1978,"ajor":1979,"ĠìłĢ":1980,"Ġ0":1981,"Ġavail":1982,"Ġdel":1983,"ploy":1984,"Ġele":1985,"ling":1986,"Ġreport":1987,"Ġë¶Ī":1988,"ories":1989,"ples":1990,"Ġtop":1991,"Ġcond":1992,"ëĶĶ":1993,"Ġearly":1994,"illion":1995,"Ġindust":1996,"íķĺê¸°":1997,"Ġlangu":1998,"Ġhig":1999,"Ġìŀ¬":2000,"Ġprogram":2001,"Ġíķł":2002,"Ġtoo":2003,"íĽĦ":2004,"Ġì¦":2005,"ë³¸":2006,"ik":2007,"±ħ":2008,"Ġcal":2009,"az":2010,"Ġeffective":2011,"ton":2012,"Ġsystems":2013,"ĠWhen":2014,"arc":2015,"ĠíĽĦ":2016,"Ġê³Ħ":2017,"ĠìľĦíķ´":2018,"ìķĺ":2019,"ĠRe":2020,"ote":2021,"man":2022,"ìĪł":2023,"ĠSh":2024,"Ġagainst":2025,"Ġhistory":2026,"ug":2027,"Ġë§¤":2028,"Ġfac":2029,"Ġlim":2030,"hor":2031,"eral":2032,"cle":2033,"view":2034,"uture":2035,"Ġareas":2036,"ication":2037,"ìļ¸":2038,"Ġfocus":2039,"Ġpossible":2040,"Ġseveral":2041,"Ġmean":2042,"ians":2043,"Ġfore":2044,"ĠUniversity":2045,"Ġvarious":2046,"Ġcho":2047,"here":2048,"Ġlaw":2049,"Ġet":2050,"Ġable":2051,"ĠìĤ¬ëŀĮ":2052,"ê¸ī":2053,"Ġfamily":2054,"elf":2055,"ë¸":2056,"Ġoccur":2057,"urther":2058,"Ġbeg":2059,"Ġhapp":2060,"Ġold":2061,"Ġter":2062,"Ġtechnology":2063,"Ġcreate":2064,"ĠPl":2065,"Ġperiod":2066,"Ġlevels":2067,"ĠAmerican":2068,"Ġtru":2069,"Ġstruct":2070,"Ġnatural":2071,"ĠCl":2072,"Ġgovernment":2073,"ortun":2074,"Ġì¢ĭ":2075,"Ġhere":2076,"ends":2077,"ì¸":2078,"Ġothers":2079,"ĠTo":2080,"ĠìĦ¤":2081,"Ġê°Ĳ":2082,"Ġìłģ":2083,"Ġbased":2084,"12":2085,"ĠRes":2086,"work":2087,"Ġexperience":2088,"Ġë°Ľ":2089,"Ġìŀĳ":2090,"Ī¬":2091,"Ġorder":2092,"ĠQ":2093,"ì¹´":2094,"ê»ĺ":2095,"Ġwar":2096,"ì¦Ŀ":2097,"Ġdesc":2098,"Ġmajor":2099,"ww":2100,"ĠâĢĶ":2101,"Ġmil":2102,"Ġopen":2103,"amp":2104,"Ġspecific":2105,"ots":2106,"Ġcurrent":2107,"Ġdue":2108,"Ġtool":2109,"Ġchall":2110,"orth":2111,"ission":2112,"Ġê²½ìļ°":2113,"use":2114,"Ġnon":2115,"Ġgroup":2116,"lished":2117,"por":2118,"Ġimprove":2119,"ë¶ĢíĦ°":2120,"Ġthings":2121,"be":2122,"Ġinvest":2123,"Ġsecond":2124,"ìĦĿ":2125,"ëł¨":2126,"Ġìŀħ":2127,"ì§ģ":2128,"Ġtype":2129,"idence":2130,"Ġel":2131,"ë©´ìĦľ":2132,"Ġmult":2133,"íĺķ":2134,"Ġíı¬":2135,"omp":2136,"Ġ.":2137,"ator":2138,"Ġfre":2139,"Ġbusiness":2140,"Ġpress":2141,"Ġneeds":2142,"How":2143,"Ġsuccess":2144,"Ġë°°":2145,"ran":2146,"Ġopt":2147,"íĨł":2148,"abor":2149,"ë°Ķ":2150,"Ġëĭ¹":2151,"Ġintern":2152,"Ġavailable":2153,"Ġbehav":2154,"Ġlast":2155,"If":2156,"ì²ĺ":2157,"ended":2158,"Ġspecies":2159,"Ġamong":2160,"Ġcertain":2161,"18":2162,"over":2163,"ilar":2164,"ression":2165,"ìĺĢ":2166,"ĠEn":2167,"port":2168,"sy":2169,"Ġconsum":2170,"ë¦°":2171,"ì¤Ģ":2172,"ina":2173,"Ġ199":2174,"ledge":2175,"ì´":2176,"rist":2177,"Ġëħ¸":2178,"ĠíĶĦ":2179,"Ġfunction":2180,"Ġapplic":2181,"íķ©":2182,"icult":2183,"ĠíĬ¹":2184,"pect":2185,"Ġcome":2186,"ique":2187,"ĠëĬ":2188,"Ġconditions":2189,"Ġflow":2190,"ë²Ħ":2191,"Ġprofess":2192,"ptoms":2193,"erc":2194,"ĠCan":2195,"urop":2196,"Ġlo":2197,"Ġunt":2198,"Ġmar":2199,"Ġrole":2200,"Ġë°ĺ":2201,"ì¢ħ":2202,"Ġfuture":2203,"Ġtimes":2204,"Ġfollowing":2205,"Ġhy":2206,"ĠíļĮ":2207,"ì§Ī":2208,"Ġproblems":2209,"Ġassoci":2210,"ê²ł":2211,"Ġfree":2212,"Ġage":2213,"Ġenc":2214,"Ġorig":2215,"ones":2216,".\"":2217,"ole":2218,"Ġlocal":2219,"Ġsay":2220,"Ġscient":2221,"ency":2222,"Ġëĵ¤":2223,"Ġì¶ľ":2224,"Ġhard":2225,"osp":2226,"We":2227,"´ĳ":2228,"Ġcountry":2229,"Ġproblem":2230,"11":2231,"ĠZ":2232,"ëĭĺ":2233,"Ġëĭ¨":2234,"ê°Ĳ":2235,"ëĳĲ":2236,"ilities":2237,"Ġsince":2238,"Ġnear":2239,"ĠUnited":2240,"Ġkey":2241,"Ġhead":2242,"âĢ¦":2243,"ret":2244,"Ġë¹":2245,"ests":2246,"Ġeducation":2247,"Ġrun":2248,"ë£¨":2249,"Ġbi":2250,"ised":2251,"Ġcase":2252,"atory":2253,"asing":2254,"ox":2255,"Ġsw":2256,"Ġwee":2257,"ĠTe":2258,"ending":2259,"olution":2260,"Ġessential":2261,"Ġmonth":2262,"íĺĦ":2263,"Ġpost":2264,"Ġrece":2265,"ĠCol":2266,"ĠìļĶ":2267,"As":2268,"Ġobject":2269,"Ġincrease":2270,"ape":2271,"Ġcomb":2272,"Ġ30":2273,"icro":2274,"ring":2275,"ĠGod":2276,"utions":2277,"ames":2278,"aper":2279,"Ġcommunity":2280,"Ġmen":2281,"une":2282,"irc":2283,"ìĿ´íĬ¸":2284,"Ġlist":2285,"íĮĮ":2286,"though":2287,"ê²°":2288,"ë¦½":2289,"ecially":2290,"Ġì°¨":2291,"--":2292,"Ġdig":2293,"acy":2294,"Ġtemper":2295,"Ġdam":2296,"Ġpoint":2297,"ë¡ł":2298,"Ġ17":2299,"Ġvir":2300,"'t":2301,"ĠComm":2302,"50":2303,"Ġcrit":2304,"of":2305,"ëŁ°":2306,"ately":2307,"Ġname":2308,"Ġbro":2309,"Ġbir":2310,"ope":2311,"ê°ķ":2312,"Ġdeterm":2313,"Ġcomput":2314,"Ġcells":2315,"Ġfil":2316,"obal":2317,"Ġlanguage":2318,"Ġput":2319,"int":2320,"Ġpercent":2321,"ething":2322,"ĠBy":2323,"Ġacross":2324,"Ġgr":2325,"ĠSe":2326,"ators":2327,"Ġrepres":2328,"Ġview":2329,"Ġrespons":2330,"Ġcy":2331,"aster":2332,"ĠíķĦ":2333,"ĠìĪ":2334,"Ġchanges":2335,"oring":2336,"Ġnecess":2337,"íķ¨":2338,"Ġlikely":2339,"Ġlet":2340,"Ġsays":2341,"Ġvol":2342,"ëĤ¨":2343,"Ġdifficult":2344,"urope":2345,"Ġyoung":2346,"ëįĶ":2347,"especially":2348,"íĻĺ":2349,"Ġcontrib":2350,"ably":2351,"Ġsens":2352,"ured":2353,"Ġteam":2354,"íĥľ":2355,"Ġnet":2356,"Ġshort":2357,"Ġrele":2358,"ides":2359,"Ġey":2360,"Ġê²Į":2361,"Ġstep":2362,"Ġprotect":2363,"Ġresults":2364,"Ġheart":2365,"ĠWhat":2366,"Ġquality":2367,"Ġfour":2368,"Ġnut":2369,"Ġ16":2370,"ëĵ¤ìĿĢ":2371,"Ġê±´":2372,"ĠëĪ":2373,"Ġspace":2374,"íĭ°":2375,"ìľ¡":2376,"Ġreduce":2377,"Ġplants":2378,"30":2379,"ĠíĮĮ":2380,"Ġalways":2381,"ì¼":2382,"urity":2383,"Ġsymptoms":2384,"Ġhigher":2385,"face":2386,"Ġconsider":2387,"Ġclear":2388,"af":2389,"Ġíķ¨":2390,"Ġbrain":2391,"Ġphysical":2392,"Ġìļ°ë¦¬":2393,"Ġturn":2394,"chie":2395,"etic":2396,"ĠAt":2397,"ëĭ¤ëĬĶ":2398,"Ġspecial":2399,"Ġskills":2400,"Ġsugg":2401,"Ġtypes":2402,"Ġlittle":2403,"ëħ¸":2404,"Ġpare":2405,"Ġwhy":2406,"ĠíĨµíķ´":2407,"Ġways":2408,"ĢìĿ´":2409,"ĠStates":2410,"ĠëĤ¨":2411,"//":2412,"ë°°":2413,"Ġfar":2414,"St":2415,"Ġstrong":2416,"Ġë¨":2417,"ware":2418,"ires":2419,"ĠBl":2420,"not":2421,"Ġtoday":2422,"Ġsomething":2423,"Ġgrowth":2424,"ĠUS":2425,"lement":2426,"ĠSo":2427,"Ġê³¼":2428,"aging":2429,"Ġespecially":2430,"Ġunderstanding":2431,"Ġalong":2432,"íĶ¼":2433,"Ġworks":2434,"ĠAf":2435,"ored":2436,"oks":2437,"ours":2438,"ĠEurope":2439,"Ġ11":2440,"ê·¼":2441,"Ġusually":2442,"íĥĿ":2443,"Ġeffects":2444,"Ġworking":2445,"Ġmind":2446,"There":2447,"Ġì»":2448,"Ġâ":2449,"ibility":2450,"ëĵ¤ìĿĺ":2451,"ë³µ":2452,"ruction":2453,"Ġteac":2454,"Ġcharacter":2455,"Ġdra":2456,"Ġdays":2457,"aces":2458,"Ġinflu":2459,"Ġissues":2460,"oney":2461,"Ġcontain":2462,"Ġtoget":2463,"Ġcourse":2464,"Ġtogether":2465,"Ġì°¸":2466,"aps":2467,"Ġbook":2468,"Ġmot":2469,"Ġknowledge":2470,"Ġgive":2471,"Ġeffic":2472,"aken":2473,"ìħĺ":2474,"ysis":2475,"Ġobs":2476,"ĠCent":2477,"Ġmaintain":2478,"atures":2479,"ĠOr":2480,"ety":2481,"Ġdiscuss":2482,"ode":2483,"Ġcancer":2484,"Ġpast":2485,"orld":2486,"hem":2487,"Ġemploy":2488,"ember":2489,"Ġrelations":2490,"ns":2491,"Ġrad":2492,"Ġuntil":2493,"Ġindividuals":2494,"ont":2495,"Ġappear":2496,"Ġsing":2497,"ĠPh":2498,"://":2499,"Ġgiven":2500,"Ġactivities":2501,"Ġill":2502,"ither":2503,"Ġer":2504,"aring":2505,"Ġpolit":2506,"iting":2507,"Ġconcer":2508,"omes":2509,"leep":2510,"Ġproduction":2511,"atch":2512,"fact":2513,"Ġpatients":2514,"ables":2515,"Ġcountries":2516,"ĠAll":2517,"Ġtry":2518,"Ġsimilar":2519,"ìĶ":2520,"Ġë¬¼":2521,"iation":2522,"Ġrange":2523,"Ġprev":2524,"ĠWith":2525,"Ġexist":2526,"Ġself":2527,"ivity":2528,"raph":2529,"ì§ĳ":2530,"amm":2531,"stit":2532,"Ġlater":2533,"Ġachie":2534,"oura":2535,"pr":2536,"ĠOn":2537,"aves":2538,"apt":2539,"ems":2540,"íĿ":2541,"Ġproducts":2542,"Ġstrateg":2543,"íĤ¤":2544,"Ġresources":2545,"app":2546,"Ġê°ĢëĬ¥":2547,"br":2548,"ĠNational":2549,"istic":2550,"Ġensure":2551,"Ġgre":2552,"izing":2553,"for":2554,"rug":2555,"Ġmakes":2556,"oot":2557,"duct":2558,"min":2559,"ë¦Ħ":2560,"ĠBe":2561,"21":2562,"Ġbegin":2563,"Ġcirc":2564,"Ġaddress":2565,"Ġchem":2566,"ì»":2567,"Ġauthor":2568,"ired":2569,"Ġstress":2570,"Ġê²ĥìĿ´":2571,"Ġcomplete":2572,"Ġlot":2573,"Ġwords":2574,"selves":2575,"Ġnext":2576,"ler":2577,"ë¹ĦìĬ¤":2578,"ĠChrist":2579,"Ġprim":2580,"Ġìłľê³µ":2581,"ym":2582,"ĠMed":2583,"Ġloss":2584,"ëĭ¬":2585,"ush":2586,"Ġfurther":2587,"ìĽĮ":2588,"Ġestab":2589,"Ġhealthy":2590,"ĠíķĻ":2591,"Ġ$":2592,"±Ħ":2593,"Ġlower":2594,"íķĺì§Ģ":2595,"acc":2596,"Ġdeath":2597,"ried":2598,"15":2599,"aching":2600,"ì½Ķ":2601,"Ġresearc":2602,"ì¦Ī":2603,"Ġrecord":2604,"ification":2605,"Ġëį°":2606,"Ġcases":2607,"ëĬĶëį°":2608,"ĠíĻľ":2609,"ë³Ħ":2610,"Ġìļ´":2611,"sw":2612,"idd":2613,"ĠìĿ´ìļ©":2614,"ned":2615,"bon":2616,"Ġside":2617,"Ġaway":2618,"ë¦¬ê³ł":2619,"Ġsure":2620,"ĠëĳĲ":2621,"Ġenough":2622,"utes":2623,"Ġpolic":2624,"ĠíķĺëĬĶ":2625,"Ġexperien":2626,"Ġask":2627,"Ġmanagement":2628,"Ġê¹Ģ":2629,"Ġtradition":2630,"ìĨ¡":2631,"ĠIm":2632,"16":2633,"Ġtoward":2634,"When":2635,"ray":2636,"ĠíĶ¼":2637,"ëĸ":2638,"Ġ14":2639,"ĠëķĮë¬¸":2640,"Ġmedical":2641,"ĠíĿ":2642,"Ġline":2643,"Ġpred":2644,"Ġmaterials":2645,"Ġkind":2646,"Ġfull":2647,"iple":2648,"Ġclimate":2649,"ìľ¼ë©°":2650,"ĠìĹŃ":2651,"Ġchalleng":2652,"ĠSome":2653,"Ġmarket":2654,"Ġpopulation":2655,"let":2656,"ëŀĳ":2657,"Ġcomplex":2658,"Ġprop":2659,"Ġfund":2660,"Ġamount":2661,"Ġopportun":2662,"isc":2663,"Ġmillion":2664,"Ġmov":2665,"Ġìĺ¬":2666,"ĠAfric":2667,"thing":2668,"Ġsoil":2669,"ë¥ĺ":2670,"Ġì§ģ":2671,"Ġrecogn":2672,"íİ¸":2673,"Ġleast":2674,"Ġsal":2675,"ãħ":2676,"Ġwhether":2677,"Ġvalue":2678,"ëª©":2679,"ĠìĥĿê°ģ":2680,"For":2681,"mit":2682,"Ġabove":2683,"side":2684,"Ġê¸Ī":2685,"Ġhaving":2686,"Ġeff":2687,"Ġterm":2688,"Ġ100":2689,"Ġfactors":2690,"Ġbenefits":2691,"Ġdiet":2692,"Ġstudies":2693,"Ġcolle":2694,"íķŃ":2695,"An":2696,"by":2697,"ĠHealth":2698,"17":2699,"Ġgoing":2700,"ĠEar":2701,"ane":2702,"ged":2703,"ëŁī":2704,"Ġactivity":2705,"ipp":2706,"Ġlive":2707,"Ġmodel":2708,"ìŀĪ":2709,"ilt":2710,"Ġdescrib":2711,"Ġcentury":2712,"Ġíĸī":2713,"most":2714,"Ġpersonal":2715,"Ġbig":2716,"·¨":2717,"ĠìķĦëĭĪ":2718,"ãĢ":2719,"Ġhelps":2720,"ìĻ¸":2721,"anced":2722,"Ġrecomm":2723,"ê²ĥ":2724,"ges":2725,"str":2726,"Ġparticip":2727,"bo":2728,"Ġnorm":2729,"ream":2730,"ì¡±":2731,"Ġability":2732,"Ġtext":2733,"Ġskin":2734,"Ġsubject":2735,"aut":2736,"ëĭ¤ê³ł":2737,"ī´":2738,"ications":2739,"Ġapproach":2740,"Ġcru":2741,"Ġz":2742,"ëŀĢ":2743,"Ġneg":2744,"Ġsitu":2745,"sych":2746,"Ġë³Ģ":2747,"rim":2748,"Ġëĭ¬":2749,"cul":2750,"Ġbat":2751,"Ġground":2752,"Ġavoid":2753,"ument":2754,"osis":2755,"Ġnever":2756,"ë¨":2757,"Ġleft":2758,"íİĺ":2759,"Ġrepresent":2760,"edi":2761,"ips":2762,"NA":2763,"Ġgeneral":2764,"Ġhowever":2765,"Ġpressure":2766,"Ġur":2767,"Ġëª©":2768,"verage":2769,"ready":2770,"Ġbuilding":2771,"Ġdog":2772,"ites":2773,"22":2774,"Ġarticle":2775,"ìĺĪ":2776,"ery":2777,"Ġservices":2778,"ĠGo":2779,"Ġinit":2780,"íļ":2781,"ung":2782,"Ġíķ¨ê»ĺ":2783,"amin":2784,"nts":2785,"lo":2786,"ëĦ¤":2787,"ĠìĥĪ":2788,"Ġsum":2789,"rel":2790,"Ġscience":2791,"ëĵ±":2792,"Ġhouse":2793,"ĠìĹ´":2794,"Ġì¹´":2795,"Ġsust":2796,"ë°ķ":2797,"14":2798,"Ġassociated":2799,"Ġrelationship":2800,"ĠOne":2801,"Ġfield":2802,"Ġoil":2803,"Ġindic":2804,"Ġwind":2805,"Ġpay":2806,"Ġreason":2807,"Ġpractice":2808,"Ġclean":2809,"íĸ¥":2810,"Ġtherap":2811,"ê°Ŀ":2812,"Ġnature":2813,"Ġprovides":2814,"Ġdetail":2815,"ample":2816,"Ġexerc":2817,"ëıĦë¡Ŀ":2818,"Ġquick":2819,"nal":2820,"Ġwide":2821,"Ġíıī":2822,"Ġíĺ¸":2823,"Ġ13":2824,"Ġë¦":2825,"Ġglobal":2826,"Ġstory":2827,"ĠBrit":2828,"íĮħ":2829,"alf":2830,"Ġcollect":2831,"Ġcity":2832,"ĠíķĺëĤĺ":2833,"Ġsustain":2834,"Ġremain":2835,"Ġ/":2836,"ney":2837,"rams":2838,"Ġalready":2839,"Ġquestion":2840,"Ġcut":2841,"Ġcomes":2842,"Ġsource":2843,"Ġclose":2844,"Ġcondition":2845,"ìĦ¸ìļĶ":2846,"Ġfrequ":2847,"Ġquestions":2848,"Ġë¸":2849,"Ġfall":2850,"êµ°":2851,"Ġcoll":2852,"Ġgroups":2853,"ëł¹":2854,"Ġì½Ķ":2855,"Ġflu":2856,"yn":2857,"Ġsoft":2858,"Ġmeet":2859,"ches":2860,"Ġstat":2861,"Ġseen":2862,"ued":2863,"org":2864,"Ġpaper":2865,"oman":2866,"Ġabs":2867,"13":2868,"ìłĪ":2869,"ening":2870,"omet":2871,"ê¸°ë¥¼":2872,"fer":2873,"ĠMan":2874,"ands":2875,"Ġwr":2876,"Ġdone":2877,"Wh":2878,"aim":2879,"Ġengine":2880,"Ġinteract":2881,"Ġincreased":2882,"Ġassess":2883,"ĠíķľêµŃ":2884,"Ġsleep":2885,"Ġfri":2886,"ë¸Į":2887,"ĠThat":2888,"Ġlay":2889,"ĠíĻĶ":2890,"Ġsize":2891,"ĠAI":2892,"Ġnecessary":2893,"ott":2894,"Ġrate":2895,"200":2896,"Ġdeg":2897,"Ġreally":2898,"roll":2899,"Ġfeed":2900,"Ġcontent":2901,"ask":2902,"verse":2903,"íĮĲ":2904,"Ġindustry":2905,",\"":2906,"Ġbelow":2907,"ëĵ¤ìĿĦ":2908,"rect":2909,"__":2910,"reng":2911,"Ķëĭ¤":2912,"Ġonline":2913,"Ġsun":2914,"Ġsafe":2915,"ëĭ´":2916,"Ġsound":2917,"Ġaccording":2918,"chan":2919,"ancial":2920,"ĠLe":2921,"Ġemot":2922,"¤Ħ":2923,"ĠWorld":2924,"Ġsurface":2925,"Ġrather":2926,"To":2927,"Ġtraining":2928,"based":2929,"ĠìĤ´":2930,"usion":2931,"Ġbecame":2932,"ëŁ¼":2933,"Ġëªħ":2934,"Ġevent":2935,"Ġdeveloped":2936,"Ġsimple":2937,"icial":2938,"ystem":2939,"ird":2940,"Ġsingle":2941,"ĠíķĦìļĶ":2942,"ĠëĶ°ëĿ¼":2943,"iol":2944,"Ġenvironmental":2945,"esc":2946,"ival":2947,"ae":2948,"Ġred":2949,"Ġweight":2950,"Ġrepl":2951,"put":2952,"Ġê°Ħ":2953,"Ġ50":2954,"Ġëª»":2955,"Ġfail":2956,"Ġëĵľ":2957,"ER":2958,"Ġconsidered":2959,"Ġmach":2960,"Ġìŀĺ":2961,"ĠGerm":2962,"Ġìĸ´ëĸ":2963,"Ġresearchers":2964,"Ġdrug":2965,"Ġhold":2966,"Ġintrodu":2967,"ĠEnglish":2968,"Ġinteg":2969,"Ġmass":2970,"Ġneeded":2971,"ĠíĶĦë¡ľ":2972,"ensive":2973,"Ġenh":2974,"Ġfru":2975,"ì±ħ":2976,"rict":2977,"lying":2978,"Ġphot":2979,"ĠíĻĺ":2980,"Ġeconomic":2981,"Ġrequired":2982,"Ġansw":2983,"ĠíĹ":2984,"pro":2985,"emic":2986,"ĠWar":2987,"Ġdoct":2988,"Ġfat":2989,"Ġmicro":2990,"Ġbal":2991,"Ġregular":2992,"reme":2993,"Ġliving":2994,"Ġonce":2995,"íĶĮ":2996,"Ġpurp":2997,"erence":2998,"Ġmodern":2999,"Ġëĭ¤ë¥¸":3000,"Ġë³¸":3001,"Ġpopular":3002,"ĠGen":3003,"ĠëĮĢíķ´":3004,"Ch":3005,"ump":3006,"go":3007,"Ġaccount":3008,"Ġut":3009,"ĠJoh":3010,"Ġhtt":3011,"earch":3012,"Ġwhole":3013,"Ġdom":3014,"Ġanalysis":3015,"ley":3016,"ections":3017,"Ġì§ĢëĤľ":3018,"Ġincreasing":3019,"ustom":3020,"Ġmoney":3021,"ĠAm":3022,"overed":3023,"ĠëĨĴ":3024,"ĠWhile":3025,"Ġgreen":3026,"Ġtar":3027,"ìĥī":3028,"ĠIntern":3029,"Ġobserv":3030,"Ġprote":3031,"ìĸµ":3032,"Ġthemselves":3033,"Ġsafety":3034,"Ġëģ":3035,"sequ":3036,"Ġeither":3037,"Ġcreated":3038,"Ġrelated":3039,"ule":3040,"ĠëĲľ":3041,"Ġanimals":3042,"Ġpattern":3043,"ĠDr":3044,"acks":3045,"unt":3046,"Ġì¦Ŀ":3047,"Ġparts":3048,"augh":3049,"ufact":3050,"alu":3051,"ĠìĻ¸":3052,"Ġlif":3053,"Ġword":3054,"ëĲĺëĬĶ":3055,"Ġhistor":3056,"Ġë¦¬":3057,"Ġ=":3058,"Ġidentify":3059,"Ġcompany":3060,"ĠStud":3061,"like":3062,"ann":3063,"Ġì§ĳ":3064,"ëĥ":3065,"epend":3066,"Ġcannot":3067,"Ġmental":3068,"Ġnational":3069,"yle":3070,"Ġë§İìĿĢ":3071,"way":3072,"ëĦĪ":3073,"ìĹĲìĦľëĬĶ":3074,"Ġjob":3075,"Ġwhite":3076,"Ġpath":3077,"vere":3078,"Ġmembers":3079,"Ġíİ¸":3080,"Ġpositive":3081,"Ġevidence":3082,"ising":3083,"You":3084,"ĠìłĲ":3085,"aged":3086,"ë¹":3087,"ëĤł":3088,"ences":3089,"Ġheat":3090,"ĠAss":3091,"Ġfamil":3092,"ĠShe":3093,"Ġsuggest":3094,"íħĮ":3095,"ĠCar":3096,"íĻ©":3097,"Ġcat":3098,"ìĬ¤íĬ¸":3099,"Ġì´Ī":3100,"ĠX":3101,"aily":3102,"Ġpriv":3103,"ë¦¼":3104,"Ġhab":3105,"light":3106,"erve":3107,"Ġtaken":3108,"Ġmethods":3109,"hold":3110,"Ġstudent":3111,"elling":3112,"ĠíĪ¬":3113,"ores":3114,"Ġê°ĻìĿĢ":3115,"Ġstreng":3116,"ëĿ¼ê³ł":3117,"Ġvers":3118,"Ġíķľëĭ¤":3119,"hing":3120,"ales":3121,"Ġcheck":3122,"Ġ198":3123,"Ġtot":3124,"ibr":3125,"Ġprob":3126,"lt":3127,"ĠëĿ":3128,"Ġann":3129,"Ġentire":3130,"Ġfish":3131,"Ġìłķë³´":3132,"astic":3133,"Ġì¹ĺ":3134,"Ġì¢ħ":3135,"Ġoffer":3136,"AS":3137,"oints":3138,"ë§Ŀ":3139,"ison":3140,"Ġfive":3141,"Ġunique":3142,"Ġtools":3143,"ograph":3144,"Ġbehavior":3145,"ëģ":3146,"Ġspe":3147,"íĻľ":3148,"Ġperformance":3149,"Ġìĭľìŀĳ":3150,"Ġê°Ģìŀ¥":3151,"ìĿ´ëĤĺ":3152,"Ġproduce":3153,"Ġdoc":3154,"Ġreact":3155,"Ġport":3156,"íķĺë©°":3157,"ĠìĹĲ":3158,"Ġìķ½":3159,"Ġtaking":3160,"Ġsense":3161,"Ġtemperature":3162,"Ġweek":3163,"nces":3164,"illed":3165,"ì¶Ķ":3166,"oses":3167,"Ġarch":3168,"Ġchemical":3169,"Ġ25":3170,"Ġê²Ģ":3171,"Ġthroughout":3172,"Ġactually":3173,"erous":3174,"Ġbreak":3175,"ĠMar":3176,"ID":3177,"Ġgas":3178,"ĠìĦľë¹ĦìĬ¤":3179,"ĠAb":3180,"Ġparents":3181,"Ġdiagn":3182,"ulations":3183,"iency":3184,"Ġìĭľê°Ħ":3185,"Ġinj":3186,"Ġrights":3187,"ĠCO":3188,"Ġdeep":3189,"Ġmeasure":3190,"Ġcompon":3191,"Ġdest":3192,"ĠSouth":3193,"Ġë¬¸ìłľ":3194,"nov":3195,"eds":3196,"ĠDo":3197,"onse":3198,"aced":3199,"ë§Ĳ":3200,"Ġdamage":3201,"ĠìĹħ":3202,"ĠìľĦíķľ":3203,"reg":3204,"Ġconduct":3205,"rad":3206,"ĠComp":3207,"Ġë¡":3208,"Ġdesigned":3209,"sh":3210,"ai":3211,"Ġpolitical":3212,"urch":3213,"ĠìĤ°":3214,"itud":3215,"ivil":3216,"23":3217,"Ġencoura":3218,"ront":3219,"Ġstates":3220,"Ġsite":3221,"olic":3222,"Ġcompan":3223,"Ġeasy":3224,"Ġsent":3225,"Ġidea":3226,"Ġlink":3227,"ronic":3228,"Ġreturn":3229,"ì¶ľìŀ¥":3230,"aling":3231,"ìĤ":3232,"ming":3233,"Ġallows":3234,"Ġblack":3235,"urs":3236,"Ġjour":3237,"Ġcolor":3238,"Ġfinancial":3239,"Ġlab":3240,"Ġlives":3241,"lex":3242,"Ġharm":3243,"ĠCont":3244,"Ġìĭ¬":3245,"Ġrelig":3246,"Ġì²ĺ":3247,"Ġdisord":3248,"ze":3249,"Ġec":3250,"ĠCal":3251,"ìĹĲëıĦ":3252,"hib":3253,"Ġbar":3254,"Ġmonths":3255,"oon":3256,"Ġì²´":3257,"Al":3258,"itation":3259,"Ġver":3260,"Ġë§ŀ":3261,"ging":3262,"ìł¸":3263,"istance":3264,"Ġprec":3265,"Ġì²Ń":3266,"Ġfarm":3267,"ëłĩ":3268,"Ġaction":3269,"Ġìĸĳ":3270,"Ġëª¨ëĵł":3271,"Ġla":3272,"rior":3273,"gest":3274,"Ġsuper":3275,"ĠTr":3276,"uel":3277,"ĠAct":3278,"ublic":3279,"Ġsociety":3280,"ĠAmerica":3281,"Ġimplement":3282,"ë´":3283,"Ġthought":3284,"ì¶ķ":3285,"Ġstructure":3286,"Ġsuff":3287,"ĠAust":3288,"Ġwin":3289,"ively":3290,"Ġemerg":3291,"Ġvariety":3292,"íķĺë©´":3293,"Ġprinc":3294,"Ġce":3295,"ì¸ł":3296,"het":3297,"ê´ĳ":3298,"Ġincludes":3299,"ĠEm":3300,"Ġì°¾":3301,"ply":3302,"Ġsecurity":3303,"Ġwriting":3304,"ccording":3305,"Ġcompl":3306,"Ġmeaning":3307,"Ġcauses":3308,"Ġservice":3309,"ropri":3310,"íķ´ìķ¼":3311,"Ġcarbon":3312,"ĠNorth":3313,"Ġtarget":3314,"Ġregard":3315,"Ġlonger":3316,"ë¦¬ëĬĶ":3317,"Ġever":3318,"Ġë§Įëĵ¤":3319,"fully":3320,"ĠíĴ":3321,"25":3322,"Ġreading":3323,"Ġdeb":3324,"Ġparticularly":3325,"ows":3326,"Ġmanufact":3327,"Ġcrucial":3328,"ì£":3329,"Ġitself":3330,"ext":3331,"ë³ĳ":3332,"Ġëĭ¤ìĸĳ":3333,"ĠìķĦìĿ´":3334,"Ġfoods":3335,"Ġstop":3336,"pts":3337,"cient":3338,"ES":3339,"aving":3340,"pid":3341,"Ġste":3342,"rast":3343,"ĠíĮĲ":3344,"Ġupon":3345,"mber":3346,"ened":3347,"ĠëĶĶ":3348,"ĠRep":3349,"iam":3350,"Ġ24":3351,"ĠGe":3352,"ìĺ¨":3353,"Ġì§Ħíĸī":3354,"ëĲĺìĸ´":3355,"Ġmechan":3356,"Ġpublished":3357,"iques":3358,"ules":3359,"):":3360,"istics":3361,"oph":3362,"ĠSoc":3363,"itary":3364,"ĠMay":3365,"Ġpoll":3366,"Ġge":3367,"Ġíģ¬":3368,"ners":3369,"Ġcomputer":3370,"ìµľ":3371,"Ġbring":3372,"ĠìĿ´ìĥģ":3373,"asc":3374,"Ġspread":3375,"Ġelectric":3376,"Ġë©Ķ":3377,"ìĬ¹":3378,"Ġtalk":3379,"ë¶ģ":3380,"Ġaware":3381,"Ġliter":3382,"Ġfire":3383,"Ġcame":3384,"Ġregion":3385,"Ġmor":3386,"Ġrev":3387,"Ġhours":3388,"Ġarg":3389,"Ġcaused":3390,"aches":3391,"ĠSu":3392,"Ġtraditional":3393,"Ġalmost":3394,"Ġterms":3395,"gar":3396,"Ġê²ĥìľ¼ë¡ľ":3397,"24":3398,"Ġnetwork":3399,"Ġface":3400,"ĠEarth":3401,"oll":3402,"iction":3403,"Ġcontact":3404,"Ġcop":3405,"ises":3406,"icles":3407,"Ġbacter":3408,"ĠìĨĲ":3409,"AR":3410,"Ġíĳľ":3411,"Ġê°ģ":3412,"Ġemb":3413,"Ġcustom":3414,"ëĨ":3415,"Ġminim":3416,"ma":3417,"osing":3418,"Ġvide":3419,"AT":3420,"Ġrecent":3421,"Ġìĺ¨":3422,"ĠGu":3423,"ì´Ī":3424,"Ġsubst":3425,"cies":3426,"Ġsources":3427,"Ġlove":3428,"60":3429,"Ġtravel":3430,"Ġthreat":3431,"ĠIndia":3432,"ricult":3433,"Ġmonit":3434,"oor":3435,"Ġshows":3436,"Ġculture":3437,"Ġattention":3438,"Ġsat":3439,"ìĿ´ëĿ¼ê³ł":3440,"inary":3441,"atives":3442,"Ġyet":3443,"ìĿ´ì§Ģ":3444,"íķĺëĭ¤":3445,"ë³Ģ":3446,"isions":3447,"ëıħ":3448,"ê¸¸":3449,"Ġmusic":3450,"Ġcr":3451,"Ġcompet":3452,"uted":3453,"enn":3454,"Ġëĵ¤ìĸ´":3455,"ĠìŀĪìĸ´":3456,"Ġmatter":3457,"Ġbur":3458,"iber":3459,"ĠëĿ¼":3460,"ê±°ëĤĺ":3461,"ĠYour":3462,"Ġcritical":3463,"abet":3464,"Ġposition":3465,"ese":3466,"Ġwild":3467,"Ġdaily":3468,"Ġarr":3469,"ograp":3470,"Ġsepar":3471,"Ġoverall":3472,"hood":3473,"Ġprevious":3474,"ĠPr":3475,"Ġheav":3476,"eter":3477,"artment":3478,"Ģë¡ľ":3479,"Ġwebs":3480,"Ġshare":3481,"Ġê´Ģëł¨":3482,"ĠìĻĦ":3483,"Ġë²Ī":3484,"Ġresponse":3485,"uck":3486,"ì§ĢëĬĶ":3487,"Ġì§ĢìĽĲ":3488,"į¼":3489,"Ġprograms":3490,"ender":3491,"Ġhalf":3492,"ëłĪìĿ´":3493,"ĠìĨį":3494,"ë©Ķ":3495,"Ġgain":3496,"Ġconsist":3497,"ë³´ëĭ¤":3498,"ë¶Ī":3499,"Ġë°Ŀ":3500,"imately":3501,"iable":3502,"Ġpatient":3503,"Ġevents":3504,"Ġsurv":3505,"new":3506,"Ġaccur":3507,"ĠDep":3508,"Ġbra":3509,".)":3510,"Ġchallenges":3511,"issions":3512,"joy":3513,"Ġanaly":3514,"mon":3515,"Ġdeveloping":3516,"Ġpsych":3517,"Ġgrowing":3518,"ĠApp":3519,"Ġslow":3520,"Ġdigital":3521,"ume":3522,"Ġê²ĥìĿĦ":3523,"Ġuses":3524,"Ġtell":3525,"Ġìķŀ":3526,"ëĿ½":3527,"ĠìĿĮ":3528,"Ġeat":3529,"Ġbuilt":3530,"Ġschools":3531,"aries":3532,"iddle":3533,"ĠAfter":3534,"ĠìŀĲìĭł":3535,"ĠPe":3536,"Ġhyd":3537,"osure":3538,"Ġ197":3539,"Ġcoun":3540,"Ġetc":3541,"ëĿ¼ëĬĶ":3542,"Ġachieve":3543,"Ġpractices":3544,"Ġleading":3545,"aff":3546,"ĠHis":3547,"rown":3548,"Ġì§ĢìĹŃ":3549,"ìĺĢëĭ¤":3550,"lor":3551,"íħĶ":3552,"ils":3553,"eb":3554,"Ġvisit":3555,"Ġexc":3556,"Ġ40":3557,"ĠFr":3558,"ĠìĭĿ":3559,"Ġissue":3560,"ì½":3561,"apan":3562,"Ġmedia":3563,"Ġprovided":3564,"igure":3565,"Ġexperim":3566,"ties":3567,"Ġremov":3568,"Ġmovement":3569,"ctions":3570,"Ġcommunities":3571,"Ġbegan":3572,"duc":3573,"mb":3574,"minist":3575,"Ġclaim":3576,"Ġtotal":3577,"Ġstandard":3578,"irm":3579,"vey":3580,"Ġthing":3581,"Ġsomet":3582,"Ġê²ĥìĿ´ëĭ¤":3583,"Ġtook":3584,"Ġreview":3585,"Ġshown":3586,"ban":3587,"ades":3588,"Ġgreater":3589,"ìĸ¸":3590,"Ġlack":3591,"Ġcompanies":3592,"Ġled":3593,"Ġaspect":3594,"set":3595,"íļį":3596,"ober":3597,"orks":3598,"Ġíŀ":3599,"Ġexplain":3600,"fort":3601,"Ġíļ":3602,"Ġcontinue":3603,"Ġinvolved":3604,"Ġsex":3605,"Ġmultiple":3606,"care":3607,"Ġtax":3608,"Ġë°ķ":3609,"Ġaim":3610,"ĠCanad":3611,"room":3612,"term":3613,"Ġvit":3614,"Ġguid":3615,"ched":3616,"ĠCo":3617,"Ġdoing":3618,"IS":3619,"Ġapplications":3620,"ologies":3621,"Ġë°©ë²ķ":3622,"Ġgard":3623,"Ġtrue":3624,"Ġrespect":3625,"ìķł":3626,"fect":3627,"Ġvacc":3628,"ene":3629,"ĠëĺĲëĬĶ":3630,"Ġstay":3631,"ĠëķĮë¬¸ìĹĲ":3632,"Ġíķ©ëĭĪëĭ¤":3633,"Ġsimply":3634,"know":3635,"Ġëł":3636,"Ġê²ĥìĿĢ":3637,"ĠResearch":3638,"icine":3639,"Ġox":3640,"Ġtechniques":3641,"ë¦¬ë¥¼":3642,"Ġrout":3643,"ëŀľ":3644,"overy":3645,"ìķĺëĭ¤":3646,"Ġaverage":3647,"Ġdemon":3648,"ĠPar":3649,"Ġlooking":3650,"Ġselect":3651,"arily":3652,"Ġcommunication":3653,"ĠíĻķìĿ¸":3654,"Ġëĭ¤ìĸĳíķľ":3655,"ĠState":3656,"Ġcorrect":3657,"Ġdevices":3658,"Ġsolar":3659,"ãģ":3660,"ëħĢ":3661,"Ġgetting":3662,"Ġprep":3663,"Ġdistrib":3664,"40":3665,"Ġextreme":3666,"Ġsometimes":3667,"hens":3668,"Ġreflect":3669,"Ġeasily":3670,"Ġconc":3671,"Ġspeed":3672,"dom":3673,"Ġforms":3674,"ëī´":3675,"ĠJohn":3676,"Ġsix":3677,"Ġê¸°ìŀĲ":3678,"Ġenjoy":3679,"Ġdoesn":3680,"Ġdiseases":3681,"Ġveget":3682,"Ġsomeone":3683,"ĠCons":3684,"ì¡Į":3685,"Ġcreating":3686,"ervation":3687,"Ġprogress":3688,"Ġcommit":3689,"Ġë²ķ":3690,"Ġappl":3691,"Ġproviding":3692,"ëĮĢë¡ľ":3693,"Ġdraw":3694,"Ġtowards":3695,"Ġseem":3696,"ĠìŀĦ":3697,"Ġviol":3698,"Ġoutside":3699,"ĠSchool":3700,"Ġaud":3701,"ĠInt":3702,"Ġir":3703,"Ġbelieve":3704,"Ġfem":3705,"Ġlog":3706,"Ġwaste":3707,"Ġquickly":3708,"eration":3709,"osition":3710,"ĠìłľíĴĪ":3711,"Ġful":3712,"ìłĳ":3713,"Ġappropri":3714,"estern":3715,"ìľ¨":3716,"Ġì·¨":3717,"ĠYork":3718,"ĠBritish":3719,"irit":3720,"Ġnormal":3721,"Ġserious":3722,"Ġprior":3723,"Ġcapt":3724,"Ã©":3725,"Ġcra":3726,"Ĳëĭ¤":3727,"Ġsoftware":3728,"Ġë³µ":3729,"ìĤ¬ë¥¼":3730,"Ġtypically":3731,"Ġimage":3732,"Ġimportance":3733,"ê²¬":3734,"Ġrelative":3735,"oles":3736,"One":3737,"íĪ¬":3738,"Ġideas":3739,"ĠPre":3740,"ĠQu":3741,"íıī":3742,"ìĭľê°Ħ":3743,"Ġì±Ħ":3744,"vant":3745,"my":3746,"ë¡ľìļ´":3747,"rought":3748,"But":3749,"Ġpoor":3750,"ĠÂ":3751,"ĠHist":3752,"Ġpan":3753,"Ġdispl":3754,"Ġkids":3755,"ster":3756,"Ġrequires":3757,"ìĭŃ":3758,"Ġaccept":3759,"ĠíĶĮ":3760,"Ġaff":3761,"IN":3762,"Ġprimary":3763,"Ġmess":3764,"Ġfeatures":3765,"Ġbasic":3766,"ìŀĲê°Ģ":3767,"www":3768,"Ġrefer":3769,"Ġexercise":3770,"Ġwood":3771,"Ġprocesses":3772,"ĠNo":3773,"ĠJapan":3774,"ounts":3775,"Ġì´Ŀ":3776,"ĠMe":3777,"Ġëĸ":3778,"iot":3779,"Ġevalu":3780,"Ġconcept":3781,"asons":3782,"Ġbab":3783,"ground":3784,"ĠMany":3785,"ength":3786,"ĠSec":3787,"ĠPres":3788,"Ġadapt":3789,"izations":3790,"Ġeye":3791,"Ġvirus":3792,"Ġtakes":3793,"wh":3794,"Ġìĸ¸":3795,"Ġíħ":3796,"Ġnegative":3797,"Łģ":3798,"ister":3799,"Ġple":3800,"ëĬĺ":3801,"lands":3802,"Ġgenerally":3803,"Ġteachers":3804,"ê¸Ģ":3805,"uge":3806,"cell":3807,"Ġdry":3808,"ĠëĪĦ":3809,"Ġexpress":3810,"Ġeth":3811,"Ġcompared":3812,"oes":3813,"Ġaltern":3814,"Ġdetermine":3815,"Ġlat":3816,"ift":3817,"Ġorigin":3818,"yond":3819,"Ġscientists":3820,"ads":3821,"ĠJew":3822,"Ġleaders":3823,"Ġblock":3824,"Ġcultural":3825,"Ġcamp":3826,"Ġì¤Ģ":3827,"ĠëıĮ":3828,"Ġ,":3829,"ìĹĪìĬµëĭĪëĭ¤":3830,"ëĲ©ëĭĪëĭ¤":3831,"Ġanimal":3832,"Ġdifference":3833,"Ġtree":3834,"ĠíķŃ":3835,"ĠInstit":3836,"Ġprofessional":3837,"ìĦ¼":3838,"ulate":3839,"rition":3840,"Ġinternational":3841,"Ġsupply":3842,"ĠAustral":3843,"Ġearth":3844,"ĠHere":3845,"íĿ¬":3846,"Ġê°Ģì§Ģ":3847,"Ġfram":3848,"Ġindepend":3849,"rated":3850,"ension":3851,"ĠReg":3852,"ĠChina":3853,"Ġdang":3854,"Ġhighly":3855,"Ġê·¼":3856,"Ġautom":3857,"Ġforest":3858,"Ġcosts":3859,"tery":3860,"Ġcover":3861,"ĠëĬĲ":3862,"ipment":3863,"abetes":3864,"Ġnight":3865,"Ġstra":3866,"ederal":3867,"Ġtur":3868,"ĠPer":3869,"Ġmagn":3870,"Ġoriginal":3871,"Ġë¡ľ":3872,"ev":3873,"ê¸°ìĹĲ":3874,"Ġsevere":3875,"ì¹¨":3876,"Ġveh":3877,"Ġdecre":3878,"Ġinnov":3879,"ëĿ¼ìĿ¸":3880,"Ġadditional":3881,"ì³":3882,"orpor":3883,"amed":3884,"ìĦ±ìĿĦ":3885,"ĠMore":3886,"bol":3887,"Ġpolicy":3888,"Ġì¶©":3889,"ellig":3890,"Ġproced":3891,"Ġwarm":3892,"Ġextra":3893,"umb":3894,"Ġproduced":3895,"ops":3896,"Ġreported":3897,"vention":3898,"ider":3899,"Ġdirectly":3900,"ript":3901,"Ġwritten":3902,"Ġtiss":3903,"Ġì±ħ":3904,"Ġforce":3905,"Ġtrees":3906,"ĠMin":3907,"ìŁģ":3908,"Ġprotection":3909,"Ġattack":3910,"ancy":3911,"Ġê·¸ëŁ¬":3912,"Ġtransport":3913,"Ġì§Ī":3914,"ĠUs":3915,"ief":3916,"Ġpict":3917,"Ġstar":3918,"Ġë¨¹":3919,"Ġi":3920,"Ġseek":3921,"Ġê±¸":3922,"fl":3923,"Ġconcent":3924,"Ġhumans":3925,"ls":3926,"Ġtherapy":3927,"itable":3928,"Ġtend":3929,"rs":3930,"Ġinstit":3931,"íķ´ìĦľ":3932,"Ġelements":3933,"izes":3934,"Ġfa":3935,"Ġinside":3936,"ìĽĢ":3937,"Ġë²Ħ":3938,"Ġinstead":3939,"ĠScience":3940,"ĠìĦ¸ê³Ħ":3941,"Ġnumbers":3942,"ì°°":3943,"ucle":3944,"just":3945,"Ġhar":3946,"Ġìĭ¶":3947,"Ġactive":3948,"Ġ21":3949,"Ġstarted":3950,"Ġimmedi":3951,"ĠII":3952,"oming":3953,"ana":3954,"ìŀĲëĬĶ":3955,"Ġdecision":3956,"ì¡´":3957,"Ġoptim":3958,"Ġíķĺê³ł":3959,"Ġpoints":3960,"Ġreve":3961,"Ġprojects":3962,"Ġbehind":3963,"ying":3964,"ìķħ":3965,"Ġcard":3966,"Ġap":3967,"uries":3968,"Ġë¯¸êµŃ":3969,"avor":3970,"Ġacid":3971,"Ġinfection":3972,"Ġsil":3973,"Ġteeth":3974,"ë°±":3975,"Ġì°½":3976,"ĠAg":3977,"ĠKing":3978,"Ġwall":3979,"ha":3980,"ĠìĤ¬ìĹħ":3981,"ĠíĥĢ":3982,"Ġê´ĳ":3983,"Ġpack":3984,"oud":3985,"Ġinfluence":3986,"icated":3987,"Ġfoot":3988,"Ġsqu":3989,"rench":3990,"Ġfeet":3991,"ography":3992,"Ġdefin":3993,"Ġlate":3994,"AN":3995,"Ġê·¸ë¦¬ê³ł":3996,"\".":3997,"idge":3998,"Ġbroad":3999,"Ġìĭľìŀ¥":4000,"Ġlarger":4001,"Ġattem":4002,"Ġclin":4003,"rial":4004,"Ġconnect":4005,"arr":4006,"erson":4007,"Ġìº":4008,"Ġapplication":4009,"Ġinstall":4010,"Ġdrink":4011,"Ġadvant":4012,"Ġdemand":4013,"Ġvalues":4014,"Ġinvestig":4015,"ĠëĲł":4016,"Ġusers":4017,"Ġseries":4018,"Ġdemonstr":4019,"na":4020,"ding":4021,"aly":4022,"ê¸°ëıĦ":4023,"Ġincluded":4024,"Ġefficient":4025,"ached":4026,"Ġê°ľìĿ¸":4027,"íĺĳ":4028,"ĠEduc":4029,"right":4030,"Ġíģ°":4031,"Ġadded":4032,"Ġhot":4033,"ino":4034,"ecause":4035,"hel":4036,"ĠëĤ´ìļ©":4037,"Ġbreat":4038,"Ġdisp":4039,"ellow":4040,"ìķ¡":4041,"Ġprotein":4042,"Ġtesting":4043,"Ġíĺķ":4044,"Ġcit":4045,"ounds":4046,"Ġstrategies":4047,"Ġexpect":4048,"isms":4049,"Ġscientific":4050,"yl":4051,"ĠíĬ¸":4052,"Ġwalk":4053,"Ġquant":4054,"On":4055,"Ġimpl":4056,"ìĶ¨":4057,"Ġtherefore":4058,"rig":4059,"name":4060,"Ġyourself":4061,"ľ´":4062,"While":4063,"Ġlimited":4064,"Ġëĭ´":4065,"Ġdou":4066,"ëĪ":4067,"ching":4068,"Ġëª¨ëĳĲ":4069,"Ġë¯¼":4070,"ëŀ¨":4071,"Ġsolution":4072,"Ġdoctor":4073,"Ġgame":4074,"come":4075,"Ġones":4076,"itude":4077,"where":4078,"oly":4079,"ĠëłĪ":4080,"Ġcross":4081,"Ġbeaut":4082,"Ġbehavi":4083,"Ġpurpose":4084,"equ":4085,"ëĵ¤ìĹĲê²Į":4086,"âĢ¢":4087,"uth":4088,"Ġcolon":4089,"Ġtransform":4090,"ED":4091,"Ġìĵ":4092,"ë°Ľ":4093,"ĠìĦľìļ¸":4094,"Ġcred":4095,"ĠìĤ¬íļĮ":4096,"à¤":4097,"ì§Ģë¥¼":4098,"Ġmother":4099,"Ġexplore":4100,"Ġspeak":4101,"Ġfast":4102,"Ġquite":4103,"ror":4104,"Ġdocument":4105,"Ġmom":4106,"ĠRec":4107,"ĠEuropean":4108,"ëĵĿ":4109,"ìĪľ":4110,"Ġoffers":4111,"anks":4112,"ĠìĪľ":4113,"Ġadop":4114,"Ġthus":4115,"Ġequipment":4116,"inks":4117,"ĠëĤł":4118,"Ġthinking":4119,"ĠGl":4120,"Ġanswer":4121,"ìłķë³´":4122,"ĠëĮĢíĳľ":4123,"ê·ľ":4124,"coh":4125,"itis":4126,"Ġpage":4127,"Ġfamilies":4128,"ON":4129,"den":4130,"itect":4131,"time":4132,"80":4133,"Ġvideo":4134,"ìĹĨ":4135,"Ġcapac":4136,"Ġstrength":4137,"Ġstru":4138,"uous":4139,"ê¹Ģ":4140,"Ġbit":4141,"So":4142,"ìŀĪëĬĶ":4143,"Ġleaves":4144,"AC":4145,"Ġë°Ŀíĺ":4146,"Ġestim":4147,"ĠëĪĪ":4148,"Ġreach":4149,"Ġíļ¨":4150,"Ġê³łê°Ŀ":4151,"Ġsituation":4152,"Ġìłĳ":4153,"Ġnutri":4154,"Ġlegal":4155,"ìĦľëĬĶ":4156,"ĠíĸĪëĭ¤":4157,"Ġuseful":4158,"Ġê·ľ":4159,"Ġsea":4160,"ë¸Ķ":4161,"Ġëıħ":4162,"Ġefforts":4163,"Ġappropriate":4164,"rogen":4165,"ĠíĸĪ":4166,"bre":4167,"Ġteaching":4168,"ĠëĦĪ":4169,"Ġfit":4170,"Ġdiv":4171,"Ġpromot":4172,"Ġë§İìĿ´":4173,"Ġì¤Ħ":4174,"IC":4175,"Ġbooks":4176,"Ġìī":4177,"Ġult":4178,"ĠAc":4179,"Ġbacteria":4180,"Ġagricult":4181,"ëŁ½":4182,"Ġbad":4183,"ĠìĹ¬ëŁ¬":4184,"Ġcentral":4185,"Ġsugar":4186,"ĠArt":4187,"gn":4188,"These":4189,"Ġast":4190,"âĢĿ.":4191,"rate":4192,"Ġvisual":4193,"ĠOf":4194,"Ġuser":4195,"Ġsteps":4196,"Ġanx":4197,"ĠëĴ":4198,"Ġchoose":4199,"back":4200,"Ġcool":4201,"att":4202,"íħľ":4203,"Ġmeasures":4204,"Ġgoal":4205,"Ġrates":4206,"Ġwebsite":4207,"Ġcivil":4208,"ìĿµ":4209,"íĸĪìĬµëĭĪëĭ¤":4210,"Ġresid":4211,"Ġmodels":4212,"Ġsn":4213,"Ġê¸°ìĪł":4214,"Ġì»¤":4215,"ĠMost":4216,"ë¨¸":4217,"vest":4218,"ëĲł":4219,"ëĲľëĭ¤":4220,"inct":4221,"ĠíĨł":4222,"Ġhabit":4223,"Ġearl":4224,"ĠëĺĲíķľ":4225,"Ġëĭ¤ìĿĮ":4226,"Ġsignificantly":4227,"Ġê²ĮìŀĦ":4228,"Ex":4229,"iers":4230,"ĠTra":4231,"Ġinsp":4232,"ĠSm":4233,"Ġopportunities":4234,"Ġestablished":4235,"Ġrob":4236,"Ġ2020":4237,"Ġbecomes":4238,"Ġconstruction":4239,"Ġhands":4240,"ĠHar":4241,"By":4242,"OR":4243,"Ġthird":4244,"elt":4245,"Ġprobably":4246,"Ġworkers":4247,"odies":4248,"Ġsurround":4249,"Ġcele":4250,"Ġê³³":4251,"Ġì¢ĭìĿĢ":4252,"ĠFrom":4253,"val":4254,"ĠPart":4255,"Ġeating":4256,"ê²¨":4257,"Ġminutes":4258,"Ġthous":4259,"cles":4260,"ì§¸":4261,"Ġoptions":4262,"Ġdark":4263,"lection":4264,"Ġhor":4265,"ìĿ´ê³ł":4266,"fficient":4267,"ĠìĦłíĥĿ":4268,"Ġìļ´ìĺģ":4269,"ĠWill":4270,"Ġancient":4271,"atform":4272,"ceed":4273,"Ġago":4274,"Ġmilitary":4275,"Ġtheory":4276,"bor":4277,"Ġlabor":4278,"Ġadults":4279,"Ġbenefit":4280,"Ġsearch":4281,"Ġê¸°ìĹħ":4282,"Ġbirth":4283,"Ġresponsible":4284,"olar":4285,"Ġ#":4286,"Ġì¤ĳìļĶ":4287,"Ġrespond":4288,"Ġnation":4289,"Ġhost":4290,"Ġ2016":4291,"Ġemp":4292,"Ġsold":4293,"Ġseason":4294,"Ġfront":4295,"ê·¸ëŀ¨":4296,"ĠìĹ°êµ¬":4297,"Ġexperiences":4298,"icate":4299,"ĠNe":4300,"Ġremains":4301,"ields":4302,"resh":4303,"mar":4304,"ĠNot":4305,"Ġ2017":4306,"Ġestablish":4307,"Ġdevice":4308,"ìŀĲìĿĺ":4309,"ì²ĺëŁ¼":4310,"rehens":4311,"Ġsou":4312,"ĠBo":4313,"ëł¥ìĿĦ":4314,"cean":4315,"Ġmix":4316,"ĠLear":4317,"Ġtri":4318,"ê·¹":4319,"Ġnews":4320,"ì°½":4321,"illing":4322,"ĠAfrica":4323,"Ġsoon":4324,"Ġ2015":4325,"cil":4326,"Ġbeyond":4327,"ĠIndian":4328,"ĠEd":4329,"Ġíĺĳ":4330,"ëĭĪê¹Į":4331,"Ġinterp":4332,"Ġcollabor":4333,"Ġë°ľìĥĿ":4334,"Ġ60":4335,"Ġreducing":4336,"Ġmis":4337,"ĠìĹĨëĬĶ":4338,"Ġmemory":4339,"Ġtests":4340,"Ġrapid":4341,"Ġtrack":4342,"Ġbalance":4343,"ª½":4344,"ipl":4345,"Ġì½":4346,"ë¡Ģ":4347,"ĠChild":4348,"ĠKe":4349,"Ġë´":4350,"Ġinvolves":4351,"ĠTechn":4352,"Ġexact":4353,"Ġpatterns":4354,"haps":4355,"abilities":4356,"He":4357,"Ġobtain":4358,"Ġexposure":4359,"Ġfight":4360,"Ġë¸Į":4361,"Ġmachine":4362,"Ġfriends":4363,"Ġcomponents":4364,"Ġíģ´":4365,"Ġsustainable":4366,"cks":4367,"useum":4368,"ĠCom":4369,"ĠRuss":4370,"ĠMon":4371,"ĠCenter":4372,"ĠEl":4373,"Ġìķł":4374,"ĠêµĲìľ¡":4375,"Ġbase":4376,"ius":4377,"Ġeyes":4378,"Ġimages":4379,"ĠJes":4380,"Ġrecommend":4381,"Ġcarry":4382,"Ġíĸ¥":4383,"ĠOther":4384,"cohol":4385,"asks":4386,"Ġ2018":4387,"ê¸°ê°Ģ":4388,"ìľ¼ë©´":4389,"Ġproperty":4390,"Ġsolutions":4391,"Ġheld":4392,"istry":4393,"axim":4394,"Ad":4395,"life":4396,"Ġì¡":4397,"Ġprivate":4398,"ĠInstitute":4399,"Ġcontains":4400,"Ġrich":4401,"ìłķìĿĦ":4402,"iance":4403,"Ġtechnologies":4404,"Ġë²ł":4405,"Ġrisks":4406,"bit":4407,"ĠJan":4408,"su":4409,"ĠìłĦë¬¸":4410,"Ġcapital":4411,"Ġeveryone":4412,"Ġcode":4413,"Ġegg":4414,"Ġ2019":4415,"Ġ23":4416,"Ġstage":4417,"sect":4418,"Ġopportunity":4419,"ĠìłĪ":4420,"Ġsect":4421,"Ġsigns":4422,"Ġpowerful":4423,"ille":4424,"Ġweb":4425,"Ġweeks":4426,"ĠìķĬëĬĶ":4427,"Ġreasons":4428,"Ġtable":4429,"Ġwa":4430,"oke":4431,"Ġspirit":4432,"Ġshape":4433,"pe":4434,"Ġcrop":4435,"Ġang":4436,"Ġreceive":4437,"Ġwrite":4438,"íį¼":4439,"hest":4440,"ëłĩê²Į":4441,"Ġbeginning":4442,"Ġweather":4443,"Ġprin":4444,"amic":4445,"ĠCount":4446,"ĠDay":4447,"ĠìłķëıĦ":4448,"Ġtown":4449,"27":4450,"Ġcold":4451,"Ġund":4452,"ìŀ¥ìĿĦ":4453,"ĠAfrican":4454,"With":4455,"uary":4456,"ashing":4457,"Ġíŀĺ":4458,"Ġ194":4459,"Ġofficial":4460,"standing":4461,"Ġfra":4462,"Ġì¹ľ":4463,"Ġaffected":4464,"Ġutil":4465,"ulated":4466,"Ġfuel":4467,"iforn":4468,"enge":4469,"EN":4470,"ĠìķĦëĭĪëĿ¼":4471,"Ġdiabetes":4472,"ĠFrench":4473,"Ġstandards":4474,"Ġê°ľë°ľ":4475,"Ġimmune":4476,"ĠAug":4477,"sec":4478,"Ġgoals":4479,"ĠSw":4480,"Ġcalcul":4481,"Ġproperties":4482,"ì»¤":4483,"Ġadminist":4484,"Ġplaces":4485,"iles":4486,"Ġmob":4487,"26":4488,"Ġemail":4489,"Ġ...":4490,"mission":4491,"Ġlength":4492,"ĠJu":4493,"rical":4494,"imin":4495,"Ġeverything":4496,"ìĿĳ":4497,"Ġsection":4498,"Ġagree":4499,"iece":4500,"Ġexamples":4501,"Ġalthough":4502,"Ġeffectively":4503,"ĠInternational":4504,"âĢĺ":4505,"iples":4506,"Ġstri":4507,"Ġdepend":4508,"Pro":4509,"IT":4510,"ĠìĥģíĻ©":4511,"Ġlost":4512,"Ġconsequ":4513,"wise":4514,"Ġpurch":4515,"ìĹ´":4516,"water":4517,"ription":4518,"undred":4519,"ancing":4520,"Ġcommonly":4521,"Ġëĭ¤ìĭľ":4522,"ios":4523,"uman":4524,"íķĻêµĲ":4525,"ees":4526,"ìĿ´ëĬĶ":4527,"ception":4528,"med":4529,"Ġperfect":4530,"ë§ī":4531,"Ġorganization":4532,"Ġsymbol":4533,"head":4534,"ìĿ´ëĿ¼ëĬĶ":4535,"ĠMus":4536,"pper":4537,"ĠHer":4538,"Ġchoice":4539,"Ġenhance":4540,"Ġconflic":4541,"ìŀ¥ìĿĢ":4542,"At":4543,"Ġcontext":4544,"ìĤ¬ì§Ģ":4545,"phas":4546,"Ġlines":4547,"Ġscreen":4548,"Ġê²°ê³¼":4549,"Ġroom":4550,"iar":4551,"¨ìĸ´":4552,"Ġcontroll":4553,"And":4554,"ifornia":4555,"Ġmill":4556,"ĠAlthough":4557,"ĠìĿ´ë²Ī":4558,"oration":4559,"Ġcry":4560,"example":4561,"inese":4562,"Ġisn":4563,"ëĬĲ":4564,"Ġefficiency":4565,"----":4566,"ĠInc":4567,"Ġcook":4568,"Ġmention":4569,"Ġlocated":4570,"Ġemissions":4571,"ĠOur":4572,"Ġanti":4573,"ĠFirst":4574,"Ġdecisions":4575,"Ġìļ©":4576,"Ġdecl":4577,"Ġrare":4578,"ĠInst":4579,"Ġeconomy":4580,"Ġâĸ":4581,"Ġlargest":4582,"Ġëĵ±ìĿĦ":4583,"co":4584,"Ġlocation":4585,"Ġep":4586,"ĠServ":4587,"Ġ2014":4588,"Ġconce":4589,"Ġgives":4590,"Ġ<":4591,"ëł¸":4592,"Ġelse":4593,"Ġvirt":4594,"load":4595,"Ġtransl":4596,"Ġsuccessful":4597,"Ġrequirements":4598,"ìĿ´íĦ°":4599,"Ġmount":4600,"iring":4601,"Ġmole":4602,"Ġpregn":4603,"Ġíı¬íķ¨":4604,"Ġplatform":4605,"Ġswe":4606,"Ġcommer":4607,"Ġhope":4608,"Ġhealthcare":4609,"Ġpet":4610,"Ġ196":4611,"ë²Į":4612,"Ġìĸ¼":4613,"ĠSystem":4614,"uro":4615,"Ġ22":4616,"Ġíķ©":4617,"ided":4618,"ëķĮ":4619,"ìĥģìĿĦ":4620,"Ġguide":4621,"Ġfear":4622,"Ġgradu":4623,"Ġê´Ģê³Ħ":4624,"ĠMy":4625,"ĠAnt":4626,"Ġcam":4627,"gy":4628,"eal":4629,"thern":4630,"Ġsett":4631,"Ġdeal":4632,"Ġstrugg":4633,"Ġíĥľ":4634,"ĠìŀĪìĿĦ":4635,"Ġlimit":4636,"Ġê¶Į":4637,"Ġimag":4638,"íĻĶë¥¼":4639,"'re":4640,"more":4641,"Ġsummer":4642,"Ġgot":4643,"iate":4644,"Ġconstant":4645,"pril":4646,"arian":4647,"Ġjud":4648,"Ġord":4649,"estic":4650,"ĠUse":4651,"íĻķ":4652,"Ġemotional":4653,"ĠWest":4654,"Ġë§ĪìĿĮ":4655,"Ġacad":4656,"Ġfinal":4657,"vert":4658,"Ġseems":4659,"ĠDevelop":4660,"Ġsmaller":4661,"used":4662,"Ġ2012":4663,"Ġtrade":4664,"Ġrise":4665,"Ġorganizations":4666,"ĠDepartment":4667,"ilos":4668,"ĠJesus":4669,"Ġintellig":4670,"ype":4671,"Ġwent":4672,"Ġë¬´ë£Į":4673,"rie":4674,"rec":4675,"orage":4676,"ìľĦìĽĲ":4677,"ĠGerman":4678,"Ġconsumption":4679,"ĠìĿ´ìĸ´":4680,"Ġing":4681,"Ġreduced":4682,"ĠìķĦëĭ":4683,"Ġexpected":4684,"Ġnucle":4685,"ìĺ¬":4686,"Ġgarden":4687,"Ġx":4688,"ĠGree":4689,"Ġmanage":4690,"ĠChar":4691,"ì£ł":4692,"ĠRed":4693,"íķĺìĭľ":4694,"70":4695,"Ġeducational":4696,"ìĦ¼íĦ°":4697,"Ġbrought":4698,"raft":4699,"Ġpen":4700,"Ġë³¼":4701,"force":4702,"Ġcitiz":4703,"ĠëĦĺ":4704,"ìĤ´":4705,"íĬ¹":4706,"being":4707,"ensity":4708,"hern":4709,"Ġanxiety":4710,"Ġolder":4711,"aid":4712,"lim":4713,"Ġreceived":4714,"Ġactions":4715,"28":4716,"¿Ĳ":4717,"Ġ2013":4718,"uk":4719,"Ġshall":4720,"Ġcontribute":4721,"PA":4722,"ìĸ´ìļĶ":4723,"Ġhistorical":4724,"iter":4725,"Ġ2010":4726,"ĠCalifornia":4727,"ĠëĦ¤":4728,"Ġroot":4729,"Ġvict":4730,"Ġobjects":4731,"Ġwhose":4732,"Ġjoin":4733,"Ġdead":4734,"29":4735,"ì³Ĳ":4736,"Ġbul":4737,"Ġinstance":4738,"Ġreligious":4739,"Ġbasis":4740,"wide":4741,"Ġscale":4742,"aste":4743,"Ġoccurs":4744,"ĠDis":4745,"Ġasse":4746,"Ġsites":4747,"Ġnearly":4748,"ĠMarch":4749,"Ġbott":4750,"ĠFl":4751,"amb":4752,"Ġplanning":4753,"Ġcou":4754,"Ġhous":4755,"ĠëĴ¤":4756,"Ġcapacity":4757,"encies":4758,"uments":4759,"ì±Ħ":4760,"Ġarchitect":4761,"Ġinstru":4762,"omy":4763,"Ġ+":4764,"Ġë¶ģ":4765,"Ġteacher":4766,"Ġrules":4767,"ëĲĺê³ł":4768,"Ġconvers":4769,"ĠíĮ¨":4770,"Ġdifferences":4771,"ĠíĺĦìŀ¬":4772,"íı°":4773,"Ġassist":4774,"ì°©":4775,"OS":4776,"Ġë§ĲíĸĪëĭ¤":4777,"Ġpresence":4778,"ëĭµ":4779,"Ġrain":4780,"ira":4781,"aught":4782,"ocol":4783,"Ġcenter":4784,"ĠìĿ´íĽĦ":4785,"ony":4786,"Ġë¹ł":4787,"ditionally":4788,"year":4789,"ructure":4790,"Ġì¶Ķê°Ģ":4791,"ĠProg":4792,"ë¦¬ê°Ģ":4793,"mosp":4794,"Ġhundred":4795,"ula":4796,"Ġê²ĥìŀħëĭĪëĭ¤":4797,"IV":4798,"ĠEducation":4799,"Ġvia":4800,"ĠCanada":4801,"ĠSim":4802,"Ġdat":4803,"Ġanything":4804,"Ġeffort":4805,"Ġplastic":4806,"amples":4807,"Ġcateg":4808,"Ġë°ĿíĺĶëĭ¤":4809,"Ġtrust":4810,"Ġlaws":4811,"Ġdescribed":4812,"Ġvari":4813,"ĠMod":4814,"Ġbaby":4815,"Ġê·¸ëŁ°":4816,"ogen":4817,"Ġmaxim":4818,"Ġcompletely":4819,"Ġdetect":4820,"ĠAssoci":4821,"Ġcurrently":4822,"Ġhttps":4823,"ĠìĿ´ìķ¼":4824,"ìĤ¬ëĬĶ":4825,"âĸ":4826,"ìĦ±ìĿ´":4827,"related":4828,"oday":4829,"ĠTw":4830,"ĠAccording":4831,"ocks":4832,"Ġcomprehens":4833,"che":4834,"!!":4835,"Ġremember":4836,"ĠìĥĪë¡ľìļ´":4837,"Ġalone":4838,"ĠBar":4839,"ĠOct":4840,"ĠCommun":4841,"Ġhosp":4842,"Ġvital":4843,"ĠBlack":4844,"ogle":4845,"Ġexcess":4846,"Ġtrying":4847,"Ġì¦Ĳ":4848,"ĠChinese":4849,"įëĭĪëĭ¤":4850,"Ġillness":4851,"ĠíħĮ":4852,"Ġgoes":4853,"Ġfully":4854,"Ġ26":4855,"Ġbirds":4856,"rael":4857,"ë§ģ":4858,"ê¸°ëĬĶ":4859,"Ġhair":4860,"Ġeasier":4861,"EC":4862,"Ġfruit":4863,"Ġë°Ķë¡ľ":4864,"Ġhyp":4865,"Ġwon":4866,"Ġmo":4867,"ê°ĢëĬĶ":4868,"Ġtou":4869,"itch":4870,"ĠGra":4871,"ĠTrans":4872,"Ġdegree":4873,"ê±¸":4874,"orthern":4875,"Ġìłķë¶Ģ":4876,"Ġincreases":4877,"Ġì§Ģê¸Ī":4878,"ĠSch":4879,"Ġhttp":4880,"Ġ2011":4881,"Ġplanet":4882,"ournal":4883,"ĠPark":4884,"ĠHigh":4885,"Ġadjust":4886,"Ġnote":4887,"Ġìĸ´ëĸ¤":4888,"ĠìĤ¬ìĭ¤":4889,"Ġgenetic":4890,"ë¦Ń":4891,"Ġcelebr":4892,"Ġstim":4893,"Ġë¸Ķ":4894,"Ġsaw":4895,"Ġwond":4896,"Some":4897,"ĠEven":4898,"arent":4899,"Ġmuscle":4900,"Ġlandsc":4901,"Ġattempt":4902,"ìĬ¤íħľ":4903,"ĠAmericans":4904,"Ġexec":4905,"ë²ł":4906,"Ġwinter":4907,"Ġtrial":4908,"Ġemphas":4909,"Ġallowing":4910,"Ġdyn":4911,"gery":4912,"Ġfresh":4913,"Ġ28":4914,"Ġmouth":4915,"ĠìĦ¤ëªħ":4916,"Ġleave":4917,"Ġpoly":4918,"Ġtold":4919,"airs":4920,"Ġfunctions":4921,"Ġresistance":4922,"Ġtox":4923,"Ġdrugs":4924,"ë²Ķ":4925,"ì¹ľ":4926,"book":4927,"ĠJune":4928,"Ġenter":4929,"ĠAre":4930,"íķĺë©´ìĦľ":4931,"Ġvary":4932,"Ġshap":4933,"ëĦ·":4934,"ĠìŀĪìľ¼ë©°":4935,"Ġpow":4936,"Ġ27":4937,"Ġder":4938,"Ġabsor":4939,"ĠìŀĪëıĦë¡Ŀ":4940,"Ġmal":4941,"Ġmiddle":4942,"90":4943,"Ġcollection":4944,"ternal":4945,"Ġborn":4946,"ìĤ¬ìĹħ":4947,"Ġexisting":4948,"ìĹ¼":4949,"Ġroad":4950,"Ġalg":4951,"Ġdate":4952,"Ġalcohol":4953,"ĊĊ":4954,"rote":4955,"rees":4956,"Ġpromote":4957,"ê²Ģ":4958,"ĠTheir":4959,"Ġvision":4960,"Ġprofession":4961,"Ġprice":4962,"Ġcommercial":4963,"ibly":4964,"Ġball":4965,"ë¦´":4966,"Ġnutrition":4967,"Ġice":4968,"Ġrecently":4969,"ë¥ł":4970,"Ġfert":4971,"Ġê¸°ëĬ¥":4972,"ĠAugust":4973,"Ġaspects":4974,"eech":4975,"Ġsequ":4976,"Ġapplied":4977,"Ġë°±":4978,"ognitive":4979,"Ġì¤ĳêµŃ":4980,"ament":4981,"ĠFin":4982,"rupt":4983,"ĠìĿ´ë¯¸":4984,"ĠIS":4985,"Ġstories":4986,"Ġmiss":4987,"ì£¼ìĿĺ":4988,"Ġtask":4989,"ĠRiver":4990,"Ġbelief":4991,"ĠHistory":4992,"Ġfollowed":4993,"cious":4994,"ĠUK":4995,"Ġinflamm":4996,"ìĹĶ":4997,"ĠSept":4998,"bl":4999,"Ġfile":5000,"Ġmoment":5001,"Ġfactor":5002,"Ġincorpor":5003,"Ġperspect":5004,"Ġcontract":5005,"Ġteach":5006,"rick":5007,"iveness":5008,"ĠApril":5009,"35":5010,"ê³³":5011,"Ġhon":5012,"uild":5013,"ĠChristian":5014,"itor":5015,"Ġcomfort":5016,"ilit":5017,"odes":5018,"Ġstatus":5019,"ĠìĤ¼":5020,"ords":5021,"ĠRead":5022,"ì²ł":5023,"Ġattract":5024,"nds":5025,"Ġdisplay":5026,"Ġtasks":5027,"ero":5028,"Ġê°ĸ":5029,"Ġexpand":5030,"ìª½":5031,"uff":5032,"ĠìĥģíĴĪ":5033,"Ġrock":5034,"Ġqual":5035,"Ġforces":5036,"Ġasked":5037,"ĠWater":5038,"Ġantib":5039,"ica":5040,"Ġadvanced":5041,"ĠìĿ´ìľł":5042,"Ġforward":5043,"ibrary":5044,"Ġrelationships":5045,"iful":5046,"Ġstructures":5047,"ëĵ¤ê³¼":5048,"Ġacqu":5049,"Is":5050,"Ġworth":5051,"ought":5052,"igen":5053,"irection":5054,"ĠSur":5055,"Ġnothing":5056,"Ġmig":5057,"Ġidentified":5058,"ëŀľëĵľ":5059,"ĠëıĻìķĪ":5060,"ĠUnder":5061,"Ġiniti":5062,"ĠDuring":5063,"Ġdepression":5064,"Ġtissue":5065,"Ġmid":5066,"ìĤ¬ê°Ģ":5067,"ygen":5068,"Ġallowed":5069,"ĠìĿ¸íĦ°":5070,"que":5071,"Ġremove":5072,"see":5073,"Ġfather":5074,"Ġchallenge":5075,"SA":5076,"ĠëĨį":5077,"Ġtooth":5078,"ĠíĹĪ":5079,"Ġregions":5080,"aur":5081,"Ġíķĺì§Ģë§Į":5082,"ëħĲ":5083,"íĮ¨":5084,"ãħĭ":5085,"âĢĿ,":5086,"EM":5087,"Ġcities":5088,"ĠProf":5089,"Ġbillion":5090,"Ġíİĺ":5091,"ĠìķĪìłĦ":5092,"vious":5093,"Ġcoming":5094,"Ġten":5095,"Ġvo":5096,"Ġitems":5097,"ama":5098,"Ġfair":5099,"ux":5100,"asts":5101,"Ġtransfer":5102,"Ġconnection":5103,"ifically":5104,"Ġê¸¸":5105,"Ġrecommended":5106,"Ġvalu":5107,"Ġ80":5108,"ĠEngland":5109,"ĠíĻľëıĻ":5110,"ĠRet":5111,"ĠThen":5112,"urance":5113,"Ġgold":5114,"Ġcommand":5115,"Ġdetails":5116,"ĠGovern":5117,"ĠIsrael":5118,"ì¸µ":5119,"works":5120,"omb":5121,"ëĿ¼ìĿ´":5122,"ĠDav":5123,"Ġneigh":5124,"Ġë³´ê³ł":5125,"Ġoperations":5126,"Ġincome":5127,"Ġinteresting":5128,"Ġstaff":5129,"ìŀĲë¥¼":5130,"PS":5131,"Ġserve":5132,"ste":5133,"ìĭľìķĦ":5134,"ĠAut":5135,"Ġassign":5136,"lin":5137,"aled":5138,"Ġdogs":5139,"Ġpeace":5140,"Ġfeature":5141,"icip":5142,"Ġtit":5143,"ĠJuly":5144,"isl":5145,"Ġmoving":5146,"Ġstorage":5147,"oe":5148,"ìŀĲìĿ¸":5149,"bal":5150,"rew":5151,"Ġfriend":5152,"Ġwoman":5153,"Ġbusinesses":5154,"Ġëª¨ìĬµ":5155,"Ġgiving":5156,"Ġapprox":5157,"Ġatmosp":5158,"ĠìĤ¬ì§Ħ":5159,"Ġplaced":5160,"Ġurban":5161,"apter":5162,"Ġcoast":5163,"Ġdisorder":5164,"Ġoption":5165,"Ġfederal":5166,"Ġmember":5167,"Ġapply":5168,"Ġnorth":5169,"Ġstyle":5170,"ëĲĲëĭ¤":5171,"Ġnav":5172,"33":5173,"íĨ":5174,"Ġrat":5175,"ìļ±":5176,"Ġplans":5177,"Ġensuring":5178,"Ġearlier":5179,"ĠDNA":5180,"house":5181,"unch":5182,"ocr":5183,"DA":5184,"ĠPat":5185,"Ġìĵ°":5186,"Ġglass":5187,"Ġchronic":5188,"ico":5189,"ĠìĬ¹":5190,"ĠMc":5191,"Ġweak":5192,"ĠêµŃëĤ´":5193,"Ġhear":5194,"ëī´ìĬ¤":5195,"Ġì°¸ìĹ¬":5196,"Ġrule":5197,"Ġindustrial":5198,"ĠOver":5199,"osystem":5200,"ĠCity":5201,"Ġvul":5202,"ì¼Ģ":5203,"ara":5204,"ĠBra":5205,"ĠìĤ¬ìĿ´":5206,"Ġblue":5207,"off":5208,"hab":5209,"ĠGreat":5210,"į¨":5211,"Ġmetal":5212,"known":5213,"Ġexpert":5214,"Ġpiece":5215,"Ġinstruct":5216,"Ġmajority":5217,"ĠíĤ":5218,"iest":5219,"edom":5220,"Ġhimself":5221,"Ġconcerns":5222,"Ġrunning":5223,"formation":5224,"Ġoccup":5225,"Ġmilk":5226,"Ġtemperatures":5227,"ingu":5228,"eding":5229,"ĠPeople":5230,"Ġê°Ģê²©":5231,"Ġfindings":5232,"ìĭľìĺ¤":5233,"ĠVal":5234,"Ġdied":5235,"AL":5236,"ros":5237,"Ġupd":5238,"Ġelectricity":5239,"Ġtrig":5240,"can":5241,"anish":5242,"Ġdiscovered":5243,"Ġdisorders":5244,"elines":5245,"Ġbecoming":5246,"Ġëħ¼":5247,"ĠíĶĦë¡ľê·¸ëŀ¨":5248,"Ġconstit":5249,"Ġreality":5250,"Ġking":5251,"Ġpolicies":5252,"....":5253,"comes":5254,"ondon":5255,"ĠProt":5256,"ashington":5257,"aul":5258,"ĠLet":5259,"ĠíĽ":5260,"Ġsave":5261,"Ġcompar":5262,"»ê²Į":5263,"Ġcycle":5264,"Ġchance":5265,"Ġgeneration":5266,"Ġalternative":5267,"Ġê´Ģë¦¬":5268,"isation":5269,"ĠAlso":5270,"gin":5271,"Ġhelping":5272,"Ġrot":5273,"Ġnumerous":5274,"Ġclinical":5275,"Ġsch":5276,"hemat":5277,"Ġsouth":5278,"Ġrelatively":5279,"Ġresource":5280,"ìĭĿìĿĦ":5281,"ĠEach":5282,"Ġsetting":5283,"Ġbound":5284,"ham":5285,"Ġwid":5286,"ĠìĿ¼ë³¸":5287,"rome":5288,"Ġfix":5289,"Ġcausing":5290,"Ġdepending":5291,"Ġì£":5292,"Ġhorm":5293,"ĠChurch":5294,"ìĤ¬ìĿĺ":5295,"Ġê³Ħíļį":5296,"enty":5297,"Ġded":5298,"Ġinsect":5299,"Ġ--":5300,"esign":5301,"Ġtopic":5302,"Ġshowed":5303,"iny":5304,"Ġprocessing":5305,"Ġdivers":5306,"Ġson":5307,"aign":5308,"ĠJournal":5309,"inated":5310,"Ġbone":5311,"iding":5312,"ĠVir":5313,"Ġsuppl":5314,"tenance":5315,"ìĿ´ìĬ¤":5316,"Ġadvance":5317,"Ġbed":5318,"íĨµëł¹":5319,"ëŀµ":5320,"Ġbox":5321,"Ġencourage":5322,"ĠëģĿ":5323,"Ġillust":5324,"clusion":5325,"ulum":5326,"Ġelement":5327,"Ġsusp":5328,"ession":5329,"However":5330,"ses":5331,"change":5332,"Ġawareness":5333,"iences":5334,"Ġunit":5335,"Ġì¤Ģë¹Ħ":5336,"Ġflex":5337,"Ġnamed":5338,"Ġfemale":5339,"ĠìĭľìĦ¤":5340,"Ġparent":5341,"Un":5342,"Ġcontinued":5343,"Ġmedicine":5344,"ĠPol":5345,"ìħĶ":5346,"Ġì²«":5347,"Ġprepar":5348,"Ġvitamin":5349,"Ġì²ľ":5350,"ford":5351,"ĠAustralia":5352,"Ġê¸Ģ":5353,"Ġê¼":5354,"ĠìĿ´ëŁ°":5355,"Ġliqu":5356,"Ġwatch":5357,"Ġìµľê³ł":5358,"urg":5359,"ube":5360,"Ġhuge":5361,"men":5362,"ĠëĤĺíĥĢ":5363,"mitted":5364,"Ġ70":5365,"era":5366,"ĠSince":5367,"ëĦĲ":5368,"Ġclassroom":5369,"Ġmiles":5370,"AM":5371,"ĠAv":5372,"cember":5373,"zz":5374,"Ġdidn":5375,"ĠPresident":5376,"Ġ2009":5377,"Ġcombination":5378,"Ġexcell":5379,"ĠJust":5380,"Ġgames":5381,"ìĿ´ë©°":5382,"Ġbodies":5383,"reet":5384,"Ġchanging":5385,"êµĲìľ¡":5386,"ĠBecause":5387,"Ġconstruct":5388,"Ġversion":5389,"ĠNow":5390,"Ġproperly":5391,"Ġorganic":5392,"Ġevol":5393,"Ġwrote":5394,"Ġinfections":5395,"Ġchanged":5396,"Im":5397,"ĠPress":5398,"¿ł":5399,"ê°Ģì§Ģ":5400,"ĠCong":5401,"urt":5402,"ĠëĦĪë¬´":5403,"Ġê·¸ëŀĺ":5404,"ë§ĮìĽĲ":5405,"last":5406,"Ġpartners":5407,"erences":5408,"ìĭŃìĭľìĺ¤":5409,"Ġcharacteristics":5410,"Ġgir":5411,"hetic":5412,"Ġlayer":5413,"Ġdestro":5414,"Ġhappen":5415,"Ġpick":5416,"Ġpredict":5417,"urally":5418,"ê²łìĬµëĭĪëĭ¤":5419,"Ġheavy":5420,"Ġconsult":5421,"Ġbank":5422,"ĠEast":5423,"Ġevolution":5424,"Ġrepe":5425,"100":5426,"eces":5427,"Ġiron":5428,"Ġden":5429,"ì·¨":5430,"ĠJanuary":5431,"Ġsuggests":5432,"craft":5433,"Ġfrequently":5434,"Ġvaluable":5435,"Ġdistance":5436,"Ġë§Įëĵ¤ìĸ´":5437,"Ġdirection":5438,"Ġ2008":5439,"ĠBi":5440,"aters":5441,"Ġexhib":5442,"Ġmut":5443,"Ġë§Ľ":5444,"Ġscen":5445,"ë·":5446,"ĠEnvironment":5447,"Ġconnected":5448,"ET":5449,"ê¸°ìĹħ":5450,"Ġdrive":5451,"Ġíķ´ëĭ¹":5452,"ovember":5453,"ĠCour":5454,"íĥģ":5455,"hyd":5456,"Ġë³Ħ":5457,"¾¸":5458,"Ġinvolve":5459,"ëĭ¤ë©´":5460,"Ġcourt":5461,"ĠSeptember":5462,"Ġformer":5463,"opy":5464,"Ġphilos":5465,"____":5466,"rastructure":5467,"Ġformed":5468,"Ġfavor":5469,"Ġstream":5470,"VID":5471,"Ġìķ¼":5472,"Ġspect":5473,"ĠìĿĢ":5474,"Ġimproved":5475,"Ġdri":5476,"ously":5477,"ë°Ģ":5478,"Ġhomes":5479,"rief":5480,"ificial":5481,"ĠRo":5482,"ĠWilliam":5483,"ĠRoman":5484,"Ġêµ¬ë§¤":5485,"ĠNet":5486,"do":5487,"Ġwidely":5488,"Ġfeeling":5489,"Ġstore":5490,"Ġoxygen":5491,"ĠíĻľìļ©":5492,"ĠTherefore":5493,"ĠëĮĢìĥģ":5494,"Ġprefer":5495,"Ġthr":5496,"Ġassessment":5497,"ĠPC":5498,"char":5499,"ìľµ":5500,"ĠCor":5501,"Ġextremely":5502,"Ġvulner":5503,"Ġprinciples":5504,"Ġnutrients":5505,"Ġwrong":5506,"Ġdecades":5507,"Ġíĺ¸íħĶ":5508,"Ġbuy":5509,"ìĹĩ":5510,"Ġacademic":5511,"Ġ29":5512,"Ġê²½ìłľ":5513,"Ġrelevant":5514,"36":5515,"Ġì§ģìłĳ":5516,"Ġì¸":5517,"alt":5518,"íģ¼":5519,"Ġkid":5520,"Ġresulting":5521,"ĠCoun":5522,"ĠìĤ¬ëŀĳ":5523,"unction":5524,"ĠOctober":5525,"Ġtreated":5526,"Ġparticipants":5527,"ĠArch":5528,"ĠêµŃê°Ģ":5529,"ĠìĺĪìłķ":5530,"Ġëľ":5531,"Ġobserved":5532,"ĠLaw":5533,"Ġagg":5534,"ky":5535,"Ġì¶ķ":5536,"Ġbelieved":5537,"Ġready":5538,"Ġexperts":5539,"ì§ķ":5540,"ares":5541,"Ġeight":5542,"Ġtechnique":5543,"Ġthousands":5544,"ĠFeb":5545,"After":5546,"Ġcitizens":5547,"Ġworked":5548,"Ġrelease":5549,"pris":5550,"Ġinjury":5551,"Why":5552,"ĠWashington":5553,"íķľêµŃ":5554,"Ġseeds":5555,"porary":5556,"ìĹĲìĦľëıĦ":5557,"Ġphen":5558,"Ġstarting":5559,"ST":5560,"Ġrecy":5561,"Ġbud":5562,"place":5563,"Ġexperienced":5564,"Ġêµ°":5565,"Ġcris":5566,"ĠìĹ¬íĸī":5567,"ressive":5568,"ĠInter":5569,"ì§Ģëħ¸":5570,"They":5571,"atin":5572,"Ġequal":5573,"Ġnative":5574,"iant":5575,"ĠMex":5576,"Ġjourney":5577,"Ġ90":5578,"ishing":5579,"anging":5580,"Ġfields":5581,"ìĤ¬ìĿ´íĬ¸":5582,"Ġpicture":5583,"Ġbuildings":5584,"Ġtour":5585,"Ġreplace":5586,"Ġimmediately":5587,"ì¡Įëĭ¤":5588,"Â°":5589,"efore":5590,"BC":5591,"Ġmanufacture":5592,"ê°Ī":5593,"resp":5594,"All":5595,"Ġdiverse":5596,"Ġreports":5597,"Ġtim":5598,"ëŁ¬íķľ":5599,"Ġhighest":5600,"íİĺìĿ´ì§Ģ":5601,"Ġmission":5602,"Ġspring":5603,"Ġ2021":5604,"amental":5605,"ìķĪë§Ī":5606,"Ġboard":5607,"Ġë¶ĦìĦĿ":5608,"Ġmap":5609,"Ġë¶Ģë¶Ħ":5610,"met":5611,"Ġecosystem":5612,"Ġconducted":5613,"01":5614,"Ġë³ĳ":5615,"Ġcore":5616,"Ġcand":5617,"ĠíĮĲë§¤":5618,"ĠLondon":5619,"ĠWork":5620,"Ġforeign":5621,"oma":5622,"ĠSan":5623,"45":5624,"omic":5625,"Ġstrategy":5626,"Ġdefined":5627,"íĥĦ":5628,"Ġdistinct":5629,"Ġsurvey":5630,"ĠìķĮëł¤":5631,"onds":5632,"Ġdistribution":5633,"cers":5634,"AP":5635,"Ġêµ¬ìĦ±":5636,"Ġoffic":5637,"ë¡ľëĤĺ":5638,"ager":5639,"ìŀ¥ìĿ´":5640,"ping":5641,"lev":5642,"Ġmonitoring":5643,"Ġinternal":5644,"Ġjournal":5645,"Ġnames":5646,"Ġsmart":5647,"ĠConf":5648,"Ġoffice":5649,"Ġdivid":5650,"ĠChe":5651,"Ġhousehold":5652,"ifying":5653,"Ġìī½":5654,"ĠGermany":5655,"bed":5656,"Ġideal":5657,"Ġpractical":5658,"ë¦½ëĭĪëĭ¤":5659,"Ġë¨¸":5660,"ĠìĿ¼ë°ĺ":5661,"Ġpollution":5662,"Sp":5663,"Ġì¡´":5664,"rab":5665,"íļĮìĿĺ":5666,"ëĺĲ":5667,"Ġgave":5668,"Ġcontinues":5669,"ĠDon":5670,"Ġìĸ´ëĸ»ê²Į":5671,"uting":5672,"Ġleads":5673,"Ġinitial":5674,"Ġimpacts":5675,"Ġê·Ģ":5676,"Ġgraph":5677,"emy":5678,"edia":5679,"Ġeventually":5680,"Ġsurgery":5681,"Ġperhaps":5682,"Ġdigest":5683,"Ġê±´ê°ķ":5684,"Ġspeech":5685,"ĠUnion":5686,"uration":5687,"Ġrenew":5688,"Ġmotiv":5689,"Ġchurch":5690,"uses":5691,"ĠSy":5692,"ĠPlan":5693,"Sh":5694,"ë´ī":5695,"Ġappears":5696,"gypt":5697,"ĠIts":5698,"Ġoutcomes":5699,"ĠUN":5700,"Ġtreatments":5701,"Ġsac":5702,"Ġfigure":5703,"ĠìķĬê³ł":5704,"Ġbackground":5705,"ken":5706,"hors":5707,"Ġlearned":5708,"ë¦¬ìĬ¤":5709,"Ġgender":5710,"Ġsav":5711,"Ġtips":5712,"ĠíĤ¤":5713,"ĠíĻĺê²½":5714,"raw":5715,"ìĨĲ":5716,"ĠìŀĲëıĻ":5717,"cont":5718,"wards":5719,"iment":5720,"Ġslight":5721,"Ġconcepts":5722,"Ġ2000":5723,"Ġê²½íĹĺ":5724,"rep":5725,"Ġelimin":5726,"Ġowners":5727,"ê¸´":5728,"Ġfailure":5729,"Ġìŀ¡":5730,"Ar":5731,"Ġpip":5732,"ĠRem":5733,"Here":5734,"zing":5735,"Ġvill":5736,"asion":5737,"orial":5738,"Ġê·¸ê²ĥ":5739,"íħĲ":5740,"ĠBr":5741,"Ġmoist":5742,"ĠíĻį":5743,"38":5744,"Ġpassed":5745,"Ġsituations":5746,"tical":5747,"ĠFood":5748,"Ġsecure":5749,"Ġseparate":5750,"Ġpopulations":5751,"Ġload":5752,"riculum":5753,"Ġmaintaining":5754,"gment":5755,"ï¼":5756,"Ġê¸°ì¤Ģ":5757,"Ġëĭ¹ìĭł":5758,"íĺ¼":5759,"ĠìŀĪìĹĪ":5760,"ĠìĹĨëĭ¤":5761,"ĠëĬĺ":5762,"Ġexperiment":5763,"Ġinfluen":5764,"ĠëĮĢíĨµëł¹":5765,"99":5766,"âĢĻ,":5767,"Ġfaith":5768,"ĠHouse":5769,"Con":5770,"olid":5771,"Ġpul":5772,"ruary":5773,"erate":5774,"Ġsexual":5775,"Ġbran":5776,"Ġìµľê·¼":5777,"Ġcarried":5778,"Ġgets":5779,"ĠDecember":5780,"Ġelectrical":5781,"pped":5782,"Ġvegetables":5783,"Ġìłģìļ©":5784,"Ġ195":5785,"Ġtrib":5786,"Ġpric":5787,"ographic":5788,"Ġbreast":5789,"Ġcognitive":5790,"ĠData":5791,"Ġmale":5792,"ĠëĲľëĭ¤":5793,"II":5794,"mal":5795,"Ġcreation":5796,"Ġcomprehensive":5797,"Ġhappens":5798,"ëĥĲ":5799,"Ġshared":5800,"Ġengineering":5801,"Ġdesp":5802,"ì¹ĺë¥¼":5803,"CO":5804,"ĠSpec":5805,"Ġintroduced":5806,"ĠEv":5807,"Ġdangerous":5808,"Ġadvantage":5809,"ĠìĿĺë¯¸":5810,"Ġves":5811,"Ġaccurate":5812,"Ġlinked":5813,"ĠDevelopment":5814,"AD":5815,"Ġperformed":5816,"Ġregarding":5817,"erved":5818,"Ġoutput":5819,"ocal":5820,"imens":5821,");":5822,"orith":5823,"ĠOnce":5824,"Ġburn":5825,"Ġsolid":5826,"ieties":5827,"Ġdrop":5828,"Ġflood":5829,"Ġìĸ´ëł¤":5830,"05":5831,"ias":5832,"ĠPal":5833,"ëĦ¤ìļĶ":5834,"According":5835,"Ġhearing":5836,"ingly":5837,"Ġnovel":5838,"Ġfinding":5839,"Ġintelligence":5840,"Ġamounts":5841,"ams":5842,"Ġassum":5843,"ĠSocial":5844,"rapy":5845,"Ġfilm":5846,"udd":5847,"ĠGreen":5848,"atically":5849,"Ġíļ¨ê³¼":5850,"ìĥĪ":5851,"Ġëĵ±ìĿĺ":5852,"Ġanyone":5853,"Ġfamous":5854,"ĠCounty":5855,"ean":5856,"ë¦¬ìķĦ":5857,"ĠAssociation":5858,"ìħ¨":5859,"ë³¼":5860,"Ġinput":5861,"ologist":5862,"Ġriver":5863,"Ġfig":5864,"ĠNovember":5865,"Ġtruth":5866,"ĠTest":5867,"ieces":5868,"ëĤĺëĬĶ":5869,"clus":5870,"Ġdental":5871,"Ġ>":5872,"ĠSociety":5873,"Ġë©´":5874,"ĠDec":5875,"uit":5876,"Ġbeautiful":5877,"order":5878,"Ġactual":5879,"Ġpresented":5880,"Ġinfrastructure":5881,"Ġisol":5882,"ê·ł":5883,"ëĳ":5884,"ĠìŀĪìĹĪëĭ¤":5885,"ĠíĪ¬ìŀĲ":5886,"ĠFrance":5887,"Ġthick":5888,"Ġmotor":5889,"Ġconservation":5890,"HE":5891,"Ġsector":5892,"Ġëī´":5893,"ĠEgypt":5894,"Ġrecords":5895,"going":5896,"Ġimproving":5897,"rows":5898,"ì£¼ëĬĶ":5899,"Ġrevolution":5900,"Ġinvestment":5901,"RE":5902,"ìĥµ":5903,"Ġjoint":5904,"Ġcounter":5905,"Ġì¹ĺë£Į":5906,"ĠìŀĪê³ł":5907,"ë¦¬ìĹĲ":5908,"Ġapproximately":5909,"Ġmist":5910,"Ġì°¾ìķĦ":5911,"Ġign":5912,"Ġopin":5913,"Ġtrad":5914,"ìº":5915,"Ġesc":5916,"ĠìķĬìĿĢ":5917,"ĠGeneral":5918,"ĠìµľëĮĢ":5919,"rum":5920,"Ġadult":5921,"ĠProgram":5922,"Ġcredit":5923,"vironments":5924,"Ġcert":5925,"ĠST":5926,"Ġviolence":5927,"37":5928,"othes":5929,"acing":5930,"Ġ2007":5931,"rant":5932,"Ġsynt":5933,"Ġmaintenance":5934,"ĠChildren":5935,"roid":5936,"Ġplays":5937,"Ġpotentially":5938,"ĠWestern":5939,"Our":5940,"ê²łëĭ¤":5941,"Ġunivers":5942,"ë¥´ë©´":5943,"Ġtail":5944,"Ġexcept":5945,"ĠOrgan":5946,"Ġë¬´ìĹĩ":5947,"ëį¸":5948,"Ġprofessionals":5949,"Ġcampaign":5950,"Ġspot":5951,"ĠAng":5952,"Ġsample":5953,"Ġpresc":5954,"Ġnotes":5955,"board":5956,"ĠCur":5957,"íĽ":5958,"ĠJewish":5959,"espite":5960,"Ġëĳ":5961,"Ġboost":5962,"Ġframew":5963,"Ġidentity":5964,"Ġkeeping":5965,"rete":5966,"ëıĦë¥¼":5967,"atural":5968,"Ġmag":5969,"orge":5970,"ĠíĬ¹íŀĪ":5971,"ì§Ģê³ł":5972,"Ġdiagnosis":5973,"Ġindependent":5974,"Ġhom":5975,"Ġcareer":5976,"Ġdiscover":5977,"Ġnotice":5978,"ĠMat":5979,"¶ģ":5980,"Ġconsequences":5981,"ĠRel":5982,"ĠìĭľìĬ¤íħľ":5983,"ìĿ¸ìĿ´":5984,"Ġaid":5985,"íģ´":5986,"Ġseven":5987,"ìķĻ":5988,"aint":5989,"34":5990,"onic":5991,"Ġmit":5992,"ĠìĽĶ":5993,"ij":5994,"king":5995,"Ġfine":5996,"estyle":5997,"ĠThus":5998,"ë²¤":5999,"Ġoral":6000,"Ġchemicals":6001,"Ġliterature":6002,"Ġíľ´":6003,"ĠíķĻìĥĿ":6004,"?âĢĿ":6005,"ĠInternet":6006,"Ġexcellent":6007,"ĠêµŃë¯¼":6008,"Ġlegisl":6009,"ìĭľëĬĶ":6010,"ĠâĢ¦":6011,"Ġcontrast":6012,"ĠColle":6013,"BS":6014,"enses":6015,"Ġmeat":6016,"Ġìĺ¨ëĿ¼ìĿ¸":6017,"Ġmanufacturing":6018,"Ġcircum":6019,"ĠJapanese":6020,"Ġê·¸ëŁ¬ëĤĺ":6021,"Ġexposed":6022,"ĠCOVID":6023,"Ġpal":6024,"Ġtrou":6025,"Ġessay":6026,"Ġì¶Ķì²ľ":6027,"âĹ":6028,"39":6029,"Ġreprodu":6030,"Ġëį°ìĿ´íĦ°":6031,"Ġconflict":6032,"íķĺì§Ģë§Į":6033,"Ġmessage":6034,"ĠAir":6035,"Ġmuscles":6036,"Ġocean":6037,"ĠLord":6038,"Ġìĸ»":6039,"Ġinflammation":6040,"Ġê°Ī":6041,"Ġemployees":6042,"Many":6043,"Res":6044,"Ġë§ī":6045,"ented":6046,"mat":6047,"Ġsand":6048,"Ġì²ĺìĿĮ":6049,"ĠAD":6050,"Ġfost":6051,"Ġcalc":6052,"Ġfaster":6053,"Ġseed":6054,"Ġìĥģíĥľ":6055,"Ġvessel":6056,"Ġê´Ģìĭ¬":6057,"Ġlung":6058,"Ġreleased":6059,"Ġreferred":6060,"ë¡¯":6061,"Ġregularly":6062,"ë¯Ģë¡ľ":6063,"CC":6064,"Ġinstitutions":6065,"ĠPublic":6066,"Ġfocused":6067,"Ġeggs":6068,"Ġoperation":6069,"oking":6070,"Ġfarmers":6071,"31":6072,"Ġunf":6073,"Ġinternet":6074,"Ġì¹¨":6075,"íķĳ":6076,"ìĬ¤ë¥¼":6077,"**":6078,"Ġbottom":6079,"Ġexactly":6080,"Ġvehicle":6081,"Ġaffects":6082,"mark":6083,"Ġfacilit":6084,"Ġphase":6085,"ortunately":6086,"Ġì¢ĭìķĦ":6087,"ëĿ¼ëıĦ":6088,"ĠëĨĴìĿĢ":6089,"Ġcontinuous":6090,"Ġmentioned":6091,"Ġincreasingly":6092,"Ġclearly":6093,"Ġìĭ¤ìłľ":6094,"ĠAdditionally":6095,"Ġestimated":6096,"Ġstatement":6097,"Ġminor":6098,"Ġdefic":6099,"Ġenvironments":6100,"Ġincl":6101,"Ġlandscape":6102,"Ġalt":6103,"ophy":6104,"Ġther":6105,"teries":6106,"ooth":6107,"rieved":6108,"umin":6109,"ologists":6110,"ĠPhil":6111,"cling":6112,"Ġrefers":6113,"ball":6114,"Ġfol":6115,"ì°¬":6116,"Ġrecovery":6117,"Ġfeelings":6118,"cular":6119,"Ġprepared":6120,"Ġcovered":6121,"Ġreduction":6122,"ulating":6123,"Ġappe":6124,"Ġhelped":6125,"ĠMark":6126,"Ġnuclear":6127,"itc":6128,"ĠFound":6129,"ìĽĲìĿ´":6130,"Ġfreedom":6131,"Ġterrit":6132,"ĠìĪĺëıĦ":6133,"ë¶Ģë¶Ħ":6134,"Ġtechnical":6135,"íķĺìĦ¸ìļĶ":6136,"essor":6137,"key":6138,"ĠìĹĨìĿ´":6139,"Ġvolume":6140,"Ġinterpret":6141,"Ġtum":6142,"Ġmaster":6143,"Ġexpression":6144,"Ġclasses":6145,"nes":6146,"ĠLearning":6147,"ĠìĤ¬ìĿ´íĬ¸":6148,"TS":6149,"500":6150,"Ġparty":6151,"ëĤ¬":6152,"Ġclick":6153,"Ġwel":6154,"Ġemergency":6155,"Ġë°©ë¬¸":6156,"ĠíıŃ":6157,"Ġalgorith":6158,"Ġmel":6159,"ĠìŀĲìĭłìĿĺ":6160,"Ġwealth":6161,"Ġpurposes":6162,"Ġìĺģíĸ¥":6163,"Ġcollege":6164,"Ġëªĩ":6165,"Ġì¸¡":6166,"ĠìĺģíĻĶ":6167,"ndrome":6168,"MS":6169,"ì´Ŀ":6170,"Ġinterested":6171,"ĠRev":6172,"Ġlov":6173,"ĠëĲĺëĬĶ":6174,"Ġë¬¸íĻĶ":6175,"eline":6176,"Ġdatab":6177,"ëĵľëĬĶ":6178,"Ġmostly":6179,"Ġhaz":6180,"ĠOff":6181,"Ġgrass":6182,"Ġthoughts":6183,"roup":6184,"bi":6185,"Ġëª¸":6186,"ë·°":6187,"Ġprocedure":6188,"Ġadvice":6189,"Ġë³´ìĹ¬":6190,"êµ´":6191,"Ġwear":6192,"antic":6193,"Ġengage":6194,"Ġbelong":6195,"Ġgene":6196,"ëŀįëĭĪëĭ¤":6197,"Ġê¸°ë¡Ŀ":6198,"ë§ĪíĬ¸":6199,"Ġconcern":6200,"Ġê¸°ëĮĢ":6201,"Ġsche":6202,"ìŀĳê¶Į":6203,"Ġë§¤ìļ°":6204,"Ġnavig":6205,"hether":6206,"Ġbattery":6207,"ĠGoogle":6208,"Ġdegrees":6209,"Ġìŀł":6210,"ìĿ´ìĸ´":6211,"ĠFebruary":6212,"ĠìĶ":6213,"omas":6214,"Ġbeneficial":6215,"ulf":6216,"athy":6217,"Ġallerg":6218,"ĠRef":6219,"Ġcomponent":6220,"Ġwanted":6221,"Ġletter":6222,"ĠHel":6223,"Ġfruits":6224,"ida":6225,"ĠìĨĮê°ľ":6226,"Ġfib":6227,"part":6228,"Ġreference":6229,"Ġrein":6230,"ìĪĻ":6231,"active":6232,"Ġì½ĺ":6233,"Ġì¦Ŀê°Ģ":6234,"Ġvictim":6235,"Ġdoub":6236,"rest":6237,"ĠìĿ´ë¦Ħ":6238,"ĠHuman":6239,"Ġspecifically":6240,"ald":6241,"Ġattacks":6242,"apers":6243,"ìĽĲìĿĦ":6244,"Ġvaccine":6245,"Ġcopy":6246,"íķĦ":6247,"Ġmedications":6248,"son":6249,"Ġlanguages":6250,"igenous":6251,"akers":6252,"04":6253,"ĠìĿ´íķ´":6254,"iling":6255,"Ġdestroy":6256,"ìĤ¬íļĮ":6257,"Ġsuitable":6258,"Ġíĭ":6259,"ĠìķĦëĭĮ":6260,"tion":6261,"ì¶©":6262,"Ġflowers":6263,"Another":6264,"Ġremoved":6265,"icians":6266,"Ġblog":6267,"ĠTV":6268,"Ġmetab":6269,"ĠìĿ´ë¥¼":6270,"Ġauthors":6271,"Ġreaction":6272,"65":6273,"Ġê³¨":6274,"Ġdeliver":6275,"Ġê±°ëŀĺ":6276,"ĠìľĦì¹ĺ":6277,"Ġingred":6278,"ìĭľìĹĲ":6279,"ĠWhy":6280,"Ġroutine":6281,"Ġclos":6282,"Ġgoods":6283,"Ġhelpful":6284,"rich":6285,"Ġradiation":6286,"Ġoperating":6287,"ĠìĹĦ":6288,"Ġplease":6289,"Ġsurrounding":6290,"Ġmath":6291,"Ġê³ĦìĨį":6292,"\",":6293,"Ġpieces":6294,"Ġdetailed":6295,"rates":6296,"Ġunc":6297,"ì¸¡":6298,"Ġprimarily":6299,"ĠPhys":6300,"ĠSupp":6301,"Ġmeeting":6302,"kin":6303,"Ġattrib":6304,"ĠëĲ©ëĭĪëĭ¤":6305,"íĮĢ":6306,"Ġannual":6307,"ĠìĦ¤ì¹ĺ":6308,"Ġextensive":6309,"lick":6310,"Ġyellow":6311,"Ġë°ľíĳľ":6312,"Ġheight":6313,"Ġpreviously":6314,"ĠìĿ´ëŁ¬íķľ":6315,"Ġatmosphere":6316,"Cl":6317,"Ġ35":6318,"ìĭľíĤ¤":6319,"ĠìŀĪëĭ¤ëĬĶ":6320,"Ġdrinking":6321,"ĠìķĮìķĦ":6322,"ĠFurther":6323,"rog":6324,"pen":6325,"Ġresponsibility":6326,"ĠCouncil":6327,"ìģ":6328,"Ġunits":6329,"75":6330,"Ġexternal":6331,"Ġdiscussion":6332,"Ġì²ł":6333,"íĺľ":6334,"Ġfundamental":6335,"ii":6336,"ĠMor":6337,"ĠCollege":6338,"78":6339,"08":6340,"Ġrace":6341,"ëģ¼":6342,"Ġupper":6343,"ped":6344,"Ġmoved":6345,"ĠGreek":6346,"Ġemotions":6347,"Ġjobs":6348,"uing":6349,"Įĵ":6350,"Now":6351,"Ġsignal":6352,"ìĿ´ìĹĪëĭ¤":6353,"ĠMary":6354,"Ġëĸł":6355,"Ġcoord":6356,"Ġvast":6357,"ĠMich":6358,"Ġdriving":6359,"Ġharmful":6360,"Ġconver":6361,"ĠìĹ¬ìĦ±":6362,"Ġstraight":6363,"down":6364,"Ġboy":6365,"ìĽĲìĿĢ":6366,"Ġliquid":6367,"ĠìłĦì²´":6368,"ĠProject":6369,"ressed":6370,"Ġlived":6371,"ãĤ":6372,"ĠEvery":6373,"ĠDi":6374,"Ġsem":6375,"ì¼ľ":6376,"ĠWeb":6377,"Ġìĭłì²Ń":6378,"Ġfrequency":6379,"Ġmathemat":6380,"EL":6381,"ĠAsia":6382,"cast":6383,"ë³´íĹĺ":6384,"leg":6385,"ëĪĦ":6386,"íĥĪ":6387,"32":6388,"rans":6389,"Ph":6390,"Ġmainly":6391,"199":6392,"tes":6393,"Ġbird":6394,"ey":6395,"iverse":6396,"eria":6397,"ĩ¼":6398,"eters":6399,"umn":6400,"oyal":6401,"Ġnoted":6402,"och":6403,"09":6404,"Ġconfirm":6405,"Ġturned":6406,"02":6407,"ĠìŀĪìľ¼":6408,"Ġcolors":6409,"ìį¨":6410,"ĠFore":6411,"Ġdiss":6412,"ĠëįĶìļ±":6413,"Ġsatis":6414,"Ġbarri":6415,"Ġformation":6416,"Ġdepends":6417,"ta":6418,"Ġdie":6419,"Ġarm":6420,"ĠTur":6421,"ë§ĪìĤ¬ì§Ģ":6422,"ìī":6423,"Ġspend":6424,"Ġheard":6425,"ĠCongress":6426,"ĠíĦ":6427,"ormal":6428,"Ġë²Į":6429,"Ġreb":6430,"Ġdetermined":6431,"abric":6432,"Ġlic":6433,"Ġdram":6434,"ĠCle":6435,"Ġtoxic":6436,"NS":6437,"Ġperspective":6438,"ë¬¸íĻĶ":6439,"Ġpref":6440,"ĠSpanish":6441,"Ġindicate":6442,"íĸĪëįĺ":6443,"Ġì£¼ìļĶ":6444,"Ġsong":6445,"Ġperiods":6446,"Ġhighlight":6447,"Ġsensitive":6448,"ags":6449,"Ġapproaches":6450,"Ġdescribe":6451,"Ġíıīê°Ģ":6452,"Ġmanner":6453,"ĠBen":6454,"ĠStudents":6455,"Ġshar":6456,"ĠSee":6457,"ĠëĬĲëĤ":6458,"Ġvehicles":6459,"lease":6460,"Ġnetworks":6461,"ipped":6462,"itage":6463,"Ġlifestyle":6464,"Ġbright":6465,"ãħĭãħĭ":6466,"anges":6467,"Ġliver":6468,"Ġê²°ìłķ":6469,"US":6470,"ĠEnergy":6471,"ĠWind":6472,"ĠìºĲ":6473,"ë²½":6474,"ĠìĿĳ":6475,"Ġpun":6476,"Although":6477,"Ġhospital":6478,"Ġ2006":6479,"ëĲĺì§Ģ":6480,"Ġìľłì§Ģ":6481,"ìŀ¡":6482,"Ġcharge":6483,"Ġgar":6484,"ìĿ¸ìĿĺ":6485,"Ġspiritual":6486,"ê³¡":6487,"Ġlooks":6488,"Ġparticles":6489,"idents":6490,"Ġcere":6491,"ĠìĤ°ìĹħ":6492,"ìĹĨìĿ´":6493,"Ġradio":6494,"ĠMuseum":6495,"Ġsounds":6496,"íļĮë¥¼":6497,"Ġmeant":6498,"Ġcardi":6499,"ibilities":6500,"ĠHy":6501,"Ġroots":6502,"Ġë§Īëł¨":6503,"Ġhyper":6504,"Pl":6505,"Ġyouth":6506,"otic":6507,"06":6508,"othing":6509,"rence":6510,"enth":6511,"ya":6512,"Ġìłķì±ħ":6513,"anted":6514,"ĠBel":6515,"Ġaren":6516,"gra":6517,"Ġnerv":6518,"Ġvent":6519,"ĠSun":6520,"ĠìĤ¶":6521,"Ġplaying":6522,"tee":6523,"RO":6524,"Ġintended":6525,"Ġê·¸ëĬĶ":6526,"hips":6527,"Ġtopics":6528,"ĠUsing":6529,"htt":6530,"Ġcrisis":6531,"lig":6532,"Ġsort":6533,"Ġvoice":6534,"Ġban":6535,"íķĺëł¤":6536,"Ġadding":6537,"ĠMet":6538,"DF":6539,"Ġê³¼ìłķ":6540,"ĠìĿ¼ë¶Ģ":6541,"ĠOb":6542,"Ġvalid":6543,"ĠMicro":6544,"Ġìĺ¤ëĬĺ":6545,"Ġkept":6546,"Ġagricultural":6547,"ĠTechnology":6548,"Ġdiversity":6549,"ĠìĬ¤íĥĢ":6550,"eper":6551,"Ġsteel":6552,"ffee":6553,"Ġì§ĢìĨį":6554,"Ġê¸ī":6555,"ĠëıĮìķĦ":6556,"Ġìħ":6557,"Ġrul":6558,"Ġë°ĽìķĦ":6559,"ë¨¼":6560,"Ġcombined":6561,"Ġgenes":6562,"Ġ2022":6563,"Ġpark":6564,"free":6565,"Ġbattle":6566,"Ġchallenging":6567,"inding":6568,"Ġconv":6569,"Ġvolunt":6570,"ĠDavid":6571,"Ġmobile":6572,"Ġcreative":6573,"celer":6574,"Ġdepth":6575,"Ġsyn":6576,"Ġsupported":6577,"Ġround":6578,"Ġì¼":6579,"Ġcurriculum":6580,"ìŀĲë£Į":6581,"44":6582,"ĠíķĦìļĶíķľ":6583,"Ġphenomen":6584,"Ġsaying":6585,"Ġchain":6586,"ĠRepublic":6587,"acters":6588,"Ġhour":6589,"riage":6590,"Ġregulations":6591,"Ġìĺ¬íķ´":6592,"Ġprocedures":6593,"Ġbegins":6594,"ĠJames":6595,"Ġcompleted":6596,"Ġchoices":6597,"Ġspent":6598,"ìĬ¤íģ¬":6599,"Ġarticles":6600,"pass":6601,"Ġpp":6602,"Ġroll":6603,"flow":6604,"Ġwet":6605,"ĠMal":6606,"inger":6607,"Ġclim":6608,"Ġcenturies":6609,"ĠSaf":6610,"Ġsports":6611,"Ġpregnancy":6612,"iat":6613,"Ġê¸Īì§Ģ":6614,"03":6615,"ĠVol":6616,"ault":6617,"ĠìĹĨìĬµëĭĪëĭ¤":6618,"ĠSer":6619,"arant":6620,"íļ¨":6621,"ascular":6622,"Ġparam":6623,"ded":6624,"Ġvot":6625,"Ġlesson":6626,"Ġfacilities":6627,"Ġfluid":6628,"Ġlatest":6629,"ĠKore":6630,"ĠGovernment":6631,"ears":6632,"wood":6633,"ìĿ¸ëį°":6634,"Ġê¸°ë³¸":6635,"Ġwonder":6636,"Ġpu":6637,"Ġserved":6638,"Ġalign":6639,"That":6640,"Ġì£½":6641,"Ġ2005":6642,"Ġgod":6643,"Ġphone":6644,"Ġsimpl":6645,"ê²½ìłľ":6646,"ishes":6647,"ë£¹":6648,"ìĻĦ":6649,"¤íĶĦ":6650,"Ġê°Ģì¡±":6651,"ĠìĥĿìĤ°":6652,"ĠManagement":6653,"ìĬ¤íĥĢ":6654,"Be":6655,"ìĽĲìĿĺ":6656,"ache":6657,"Ġisland":6658,"ë³´ê¸°":6659,"Ġgenerate":6660,"ĠSub":6661,"Ġfoss":6662,"ëıĮ":6663,"Ġgrade":6664,"ê°Ļ":6665,"Ġê°ĻìĿ´":6666,"ĠMake":6667,"ras":6668,"ëľ":6669,"ê´Ģë¦¬":6670,"Ġfertil":6671,"Ġdespite":6672,"Ġprecise":6673,"ĠëĲĺìĸ´":6674,"rust":6675,"ĠíķĺëĤĺëĭĺ":6676,"nel":6677,"aks":6678,"ĠRetrieved":6679,"Ġmort":6680,"ĠClass":6681,"Ġsufficient":6682,"ë¡Ń":6683,"alle":6684,"Ġmovements":6685,"07":6686,"Ġfamiliar":6687,"ointed":6688,"ĠFran":6689,"Ġindustries":6690,"Ġpret":6691,"ixt":6692,"Ġhit":6693,"Ġkilled":6694,"Ġcoal":6695,"Ġkill":6696,"Ġsamples":6697,"ì§ľ":6698,"Ġsalt":6699,"ĠëĶ°ë¥´ë©´":6700,"Ġreligion":6701,"Ġlose":6702,"ek":6703,"ìĽĢìĿ´":6704,"Do":6705,"ĠDem":6706,"Ġappearance":6707,"Ġoffering":6708,"ypes":6709,"itness":6710,"Ġprotected":6711,"osite":6712,"Ġmedication":6713,"Ġrecognize":6714,"Ġê³µê°ľ":6715,"ëı¼":6716,"Ġapprec":6717,"OT":6718,"col":6719,"ĠLa":6720,"Ġinterests":6721,"Ġë£":6722,"Ġproteins":6723,"Ġobvious":6724,"Ġnarr":6725,"Ġguidelines":6726,"Ġì¢Ģ":6727,"ĠTex":6728,"ĠíĴį":6729,"íķ´ì£¼":6730,"Ġê½":6731,"ëĨį":6732,"Ġplayed":6733,"Ġoffered":6734,"Ġresist":6735,"Ġíķ´ê²°":6736,"Ġdefinition":6737,"Ġdiam":6738,"ander":6739,"za":6740,"inate":6741,"uls":6742,"ĠëĶĶìŀĲìĿ¸":6743,"Ġê°Ģì§Ģê³ł":6744,"ĠãĢ":6745,"Ġrepresents":6746,"ì°¸":6747,"Ġnor":6748,"Ġconsistent":6749,"Ġcollected":6750,"ĠService":6751,"ëĶ©":6752,"ĠëŃ":6753,"ĠIsl":6754,"Ġfacts":6755,"ĠMount":6756,"Ġcast":6757,"Ġdecided":6758,"ĠPort":6759,"ì½ľ":6760,"Ġë°ĶëŀįëĭĪëĭ¤":6761,"ĠElect":6762,"Ġhop":6763,"ĠìĪĻ":6764,"Ġpump":6765,"More":6766,"nic":6767,"Ġê·¹":6768,"RI":6769,"ĠThrough":6770,"Ġstorm":6771,"Ġtransition":6772,"ĠTreat":6773,"Ġgovernments":6774,"48":6775,"Ġ31":6776,"Ġcloud":6777,"Ġlessons":6778,"Ġ500":6779,"Ġcontem":6780,"Ġmorning":6781,"stitution":6782,"Ġabuse":6783,"ĠëĮĢíķĻ":6784,"Ġadvoc":6785,"ĠIP":6786,"Ġintake":6787,"oughly":6788,"road":6789,"Ġperman":6790,"Ġcoin":6791,"Most":6792,"Ġmaximum":6793,"ĠìŀĳìĹħ":6794,"vis":6795,"Ġshowing":6796,"Te":6797,"ëĶĶìĸ´":6798,"gency":6799,"Ġlik":6800,"Ġcharacters":6801,"Ġinsights":6802,"ĠCourt":6803,"Ġcrops":6804,"ĠOut":6805,"íĺģ":6806,"Ġpaint":6807,"Ġì¦ī":6808,"Ġdecrease":6809,"âĢĻ.":6810,"No":6811,"Ġcontrolled":6812,"Ġkinds":6813,"Ġrecorded":6814,"Ġsubjects":6815,"oxide":6816,"ĠBas":6817,"ìĭľìŀ¥":6818,"Ġworldwide":6819,"Ġthin":6820,"ĠìķĦëŀĺ":6821,"Ġpush":6822,"Ġsquare":6823,"Ġmonitor":6824,"ician":6825,"Ġconclud":6826,"Ġprofessor":6827,"ĠÃ":6828,"Ġprepare":6829,"Ġdro":6830,"Ġtouch":6831,"Ġinjuries":6832,"Ġprices":6833,"ĠDise":6834,"Ġbow":6835,"Ġhabits":6836,"ĠWhite":6837,"ì§ĢìĹŃ":6838,"roke":6839,"Ġnaturally":6840,"íĬ¸ë¥¼":6841,"Ġsecret":6842,"ĠìĿ½":6843,"Us":6844,"ëłĮ":6845,"ria":6846,"osen":6847,"istan":6848,"ĠCentral":6849,"Ġelev":6850,"Ġauthority":6851,"Ġtraffic":6852,"Ġì¶Ķì§Ħ":6853,"ĩ´":6854,"ĠDef":6855,"Ġonto":6856,"ĠìĨĮë¹Ħ":6857,"alled":6858,"ĠInstead":6859,"ĠDirect":6860,"ossible":6861,"aker":6862,"Ġìłľìŀĳ":6863,"Ġmer":6864,"ëł¥ìĿ´":6865,"Ġextract":6866,"Ġenable":6867,"inent":6868,"ĠIsland":6869,"Ġmotion":6870,"oper":6871,"Ġê³µê°Ħ":6872,"Ġtaught":6873,"Ġskill":6874,"Ġju":6875,"ĠìĦ±ê³µ":6876,"Ġship":6877,"olute":6878,"ë¥´ëĬĶ":6879,"ëŀ«":6880,"Ġreached":6881,"Ġnit":6882,"ĠìĦ±ìŀ¥":6883,"Ġë²Ķ":6884,"ĠToday":6885,"Ġsubstant":6886,"Ġfoundation":6887,"gal":6888,"Ġê¿":6889,"umps":6890,"mp":6891,"Ġëĵ±ìĿ´":6892,"Ġbudget":6893,"Ġartificial":6894,"Ġwhom":6895,"Ġtrain":6896,"Ġexpensive":6897,"ĠPaul":6898,"ìłĲìĿĦ":6899,"ĠNAS":6900,"Ġcorresp":6901,"Ġharvest":6902,"From":6903,"well":6904,"Ġhandle":6905,"Ġë¶Ħìķ¼":6906,"ventional":6907,"Ġclosely":6908,"ìĽĢìĿĦ":6909,"Ġresil":6910,"inations":6911,"gl":6912,"Ġproposed":6913,"ĠEngine":6914,"ĠëıĪ":6915,"Ġcreates":6916,"Ġë³´íĺ¸":6917,"bing":6918,"erals":6919,"uilding":6920,"Ġê¸°ê°Ħ":6921,"DC":6922,"Ġagriculture":6923,"ìĿ¸ì§Ģ":6924,"Ġprevention":6925,"Ġë¨¼":6926,"ĠëĤ®":6927,"Ã¡":6928,"isher":6929,"Ġrapidly":6930,"Ġleader":6931,"inn":6932,"lements":6933,"Ġdoll":6934,"ĠëŁ":6935,"íķĺê±°ëĤĺ":6936,"Ġslightly":6937,"'ll":6938,"ago":6939,"ompl":6940,"Ġlargely":6941,"íħĲì¸ł":6942,"Ġadequ":6943,"ĠìĿ¸íĦ°ëĦ·":6944,"ometimes":6945,"faces":6946,"Ġrelax":6947,"Ġfelt":6948,"iced":6949,"Ġpages":6950,"Ġexplains":6951,"Ġformat":6952,"ĠìķĬìĬµëĭĪëĭ¤":6953,"ĠMac":6954,"Ġstages":6955,"ĠAcad":6956,"ìķĶ":6957,"Ġchann":6958,"ê³¨":6959,"imal":6960,"ĠCath":6961,"íķĺìĺĢ":6962,"ĠSpace":6963,"Ġframework":6964,"íı¬ì¸ł":6965,"55":6966,"Ġkn":6967,"Ġprint":6968,"ĠëĤľ":6969,"ht":6970,"Ġwire":6971,"inating":6972,"ìĹ°êµ¬":6973,"Ġfort":6974,"Ġvirtual":6975,"Ġë°ľìłĦ":6976,"Ġnations":6977,"ãĥ":6978,"Ġdouble":6979,"arrow":6980,"inder":6981,"ê¸°ë¡ľ":6982,"Ġcultiv":6983,"iated":6984,"Ġexchange":6985,"Ġneut":6986,"Ġinstrument":6987,"Ġdial":6988,"rations":6989,"Ġìłķë§Ĳ":6990,"CT":6991,"Ġimmun":6992,"Ġconcentration":6993,"oo":6994,"ĠLife":6995,"astern":6996,"ì¹ĺëĬĶ":6997,"New":6998,"Ġsupporting":6999,"Ġgrown":7000,"Ġ300":7001,"Ġleadership":7002,"Ġbehaviour":7003,"Ġinformed":7004,"ĠíĻĪ":7005,"ulin":7006,"Ġstone":7007,"Ġjustice":7008,"ìļ´ëį°":7009,"ĠìļĶêµ¬":7010,"ì¤":7011,"ĠíĬ¹ë³Ħ":7012,"Ġì¤ĳìĭ¬":7013,"Ġstem":7014,"Ġwalls":7015,"Ġgum":7016,"ounced":7017,"ëĵľë¥¼":7018,"aughter":7019,"Ġmedium":7020,"Ġê°ĢëĬ¥íķľ":7021,"Ġtypical":7022,"Ġcustomers":7023,"Ġhabitat":7024,"88":7025,"Ġcertainly":7026,"ĠìĤ¬íķŃ":7027,"En":7028,"Ġrural":7029,"Ġcyber":7030,"Ġcutting":7031,"Ġdent":7032,"Ġconclusion":7033,"ĠGeorge":7034,"chers":7035,"olars":7036,"Ġfiles":7037,"Ġextent":7038,"Ġresidents":7039,"Ġì½Ķë¡ľëĤĺ":7040,"Ġsuffering":7041,"%)":7042,"ĠBoth":7043,"ĠDist":7044,"Ġsen":7045,"ĠMedical":7046,"Ġtested":7047,"Ġscenar":7048,"ĠìĥĿíĻľ":7049,"ĠHIV":7050,"Ġstock":7051,"Ġenab":7052,"Ġëĭµ":7053,"ĠCare":7054,"berg":7055,"ĠPower":7056,"Ġforced":7057,"Ġraised":7058,"Ġbiological":7059,"ðŁ":7060,"cel":7061,"rolog":7062,"Ġconscious":7063,"arsh":7064,"Ġfasc":7065,"Ġsignificance":7066,"Ġsend":7067,"ĠUp":7068,"ails":7069,"Ġremote":7070,"Ġafford":7071,"unk":7072,"íĦ´":7073,"Ġinterview":7074,"íĽĪ":7075,"Ġcircumst":7076,"HO":7077,"Ġglob":7078,"Ġotherwise":7079,"ĠMexico":7080,"rors":7081,"Ġstret":7082,"Ġraise":7083,"Ġexistence":7084,"ìĿ¸ìĿĦ":7085,"Ġbrief":7086,"Ġflat":7087,"ashion":7088,"Ġvisible":7089,"Ġrequest":7090,"Ġfabric":7091,"Ind":7092,"AI":7093,"Ġinstruction":7094,"ìĸ¼":7095,"ìĸ´ëĤĺ":7096,"Ġinnovation":7097,"ĠArab":7098,"Ġmeasured":7099,"Ġsubstance":7100,"ìĿ´ë²Ī":7101,"fall":7102,"==":7103,"ĠìĪĺì¤Ģ":7104,"Ġtraum":7105,"Ġsets":7106,"ĠëĤĺëĬĶ":7107,"ëıĦë¡ľ":7108,"Ġ45":7109,"itz":7110,"Ġë¬´ëĭ¨":7111,"Ġgather":7112,"Ġstation":7113,"ĠìķĬìķĺ":7114,"Ġfeedback":7115,"ìĦľìļ¸":7116,"Ġsouthern":7117,"Ġconsists":7118,"alysis":7119,"ĠMedicine":7120,"CS":7121,"ìłľë¥¼":7122,"hi":7123,"ifies":7124,"Ġnorthern":7125,"Ġfiber":7126,"asp":7127,"ĠSal":7128,"Ġwaters":7129,"Ġconsumers":7130,"ìĺ¤ëĬĶ":7131,"ë¬¼ìĿĦ":7132,"acific":7133,"ĠIT":7134,"Ġbill":7135,"Ġrecognized":7136,"ĠDesign":7137,"roc":7138,"Ġregul":7139,"Ab":7140,"with":7141,"Ġpig":7142,"isp":7143,"ĠKnow":7144,"omach":7145,"ĠÎ":7146,"riend":7147,"Ġbehaviors":7148,"Ġnurs":7149,"Ġfirm":7150,"pping":7151,"Ġfinally":7152,"stood":7153,"ado":7154,"ĠìķĶ":7155,"ê¸°ê´Ģ":7156,"Ġfunding":7157,"Ġcoffee":7158,"ìĬ¬":7159,"ĠìŀĲìĦ¸":7160,"verty":7161,"íĦ¸":7162,"Ġrecip":7163,"agers":7164,"Ġê°ľìĦł":7165,"Ġwildlife":7166,"pat":7167,"Ġleaving":7168,"ĠBook":7169,"ĠControl":7170,"Ġë¬¼ë¡ł":7171,"Can":7172,"Ġsan":7173,"Ġpoverty":7174,"utive":7175,"Ġsin":7176,"Ġsettings":7177,"Ġmere":7178,"Ġcorpor":7179,"Ġshift":7180,"osa":7181,"ups":7182,"ĠìŀĳìĦ±":7183,"Ġì¤ĳìļĶíķľ":7184,"asure":7185,"ìĿ¸ê°Ģ":7186,"ĠìĿ´ìłľ":7187,"Ġpand":7188,"icks":7189,"Ġera":7190,"Ġmachines":7191,"Ġod":7192,"ĠHol":7193,"making":7194,"ifications":7195,"ĠìĽ¹":7196,"Ġcourses":7197,"ivery":7198,"ìĬ¨":7199,"Ġì±ħìŀĦ":7200,"Ġconfidence":7201,"ĠFre":7202,"ĠRober":7203,"ĠêµŃìłľ":7204,"Ġsnow":7205,"inant":7206,"ĠStr":7207,"ĠëĤ´ê°Ģ":7208,"Ġsettle":7209,"indu":7210,"Ġreliable":7211,"idden":7212,"long":7213,"ĠOld":7214,"ìĿĮìĿĦ":7215,"ĠExpl":7216,"íĿ¥":7217,"ĠìŀĳíĴĪ":7218,"IP":7219,"Ġsurpris":7220,"which":7221,"Ġsweet":7222,"®¤":7223,"zy":7224,"Ġkil":7225,"Ġì»¨":7226,"Ġneuro":7227,"Ġmillions":7228,"ĠTexas":7229,"Ġcapable":7230,"ĠProv":7231,"Ġthor":7232,"ĠJews":7233,"ĠBC":7234,"ĠìĻľ":7235,"ĠëĨĵ":7236,"ndom":7237,"ĳ¸":7238,"Ġbreathing":7239,"Ġminimum":7240,"ì¹Ļ":7241,"Ġcommunicate":7242,"Sc":7243,"ĠíĴĪ":7244,"ë³´ê³ł":7245,"Ġsharing":7246,"iotics":7247,"Ġexplained":7248,"Ġunderlying":7249,"ĠìĹ°ê²°":7250,"ëł¸ëĭ¤":7251,"íĺĢ":7252,"ĠíļĮìĽĲ":7253,"ague":7254,"Ġparties":7255,"ĠìŀĪëĭ¤ê³ł":7256,"ĠFoundation":7257,"ìĦľë¹ĦìĬ¤":7258,"icted":7259,"Ġê²½ê¸°":7260,"ëıĦê°Ģ":7261,"Ġinteractions":7262,"ĠíĮĢ":7263,"Ġsupplement":7264,"ĠNews":7265,"ìĤ¼":7266,"Ġaudience":7267,"Ġíĺ¼":7268,"Ġfollows":7269,"íľ´":7270,"Ġaccessible":7271,"itors":7272,"ĠTem":7273,"ìľĦë¥¼":7274,"Ġreduces":7275,"ĠBet":7276,"ĠStand":7277,"Ġbrother":7278,"ìłĦíŀĪ":7279,"Ġë¿Ĳ":7280,"Ġsupports":7281,"ĠEU":7282,"Ġ*":7283,"Ġintegr":7284,"Ġaqu":7285,"ĠBritain":7286,"Ġstored":7287,"Ġë³ĢíĻĶ":7288,"la":7289,"ĠDisc":7290,"Ġble":7291,"Ġreaders":7292,"ĠMuslim":7293,"ĠSecond":7294,"Ġspl":7295,"Ġintervention":7296,"stream":7297,"Ġëĵ±ë¡Ŀ":7298,"Under":7299,"Ġgirls":7300,"Ġdivided":7301,"Ġguidance":7302,"aser":7303,"tage":7304,"Ġsurvival":7305,"ì§ĢìĽĲ":7306,"ëĵ¯":7307,"ĠAnother":7308,"ĠìŀĲìĹ°":7309,"Ġconnections":7310,"Ġê°ĲìĤ¬":7311,"Ġprem":7312,"ĠíĶ¼íķ´":7313,"Ġages":7314,"Ġlinks":7315,"Ġìķħ":7316,"Ġexplan":7317,"Ġsubsequ":7318,"ĠRussia":7319,"Ġsmooth":7320,"ION":7321,"exp":7322,"ĠJer":7323,"ëĮĢì¶ľ":7324,"ND":7325,"Ġmyth":7326,"Ġaccompl":7327,"ĠIr":7328,"Ġìłķë³´ë¥¼":7329,"Ġcultures":7330,"win":7331,"Äģ":7332,"Ġsyndrome":7333,"De":7334,"Ġassistance":7335,"Ġpil":7336,"ìĬ¤ëĬĶ":7337,"ĠíĥĦ":7338,"Ġstruggle":7339,"Ġìĸ´ë¦°":7340,"Ģë¡ľë²Į":7341,"ĠBible":7342,"Ġrestrict":7343,"ĠRich":7344,"Ġacceler":7345,"Ġprinciple":7346,"anguage":7347,"ìĸ´ìĦľ":7348,"ĠMart":7349,"ĠExp":7350,"Ġoccurred":7351,"ĠNASA":7352,"Ġproport":7353,"ĠLatin":7354,"].":7355,"Ġcollaboration":7356,"Ġadvantages":7357,"Ġletters":7358,"ìĿ´ìĹĲ":7359,"othe":7360,"Ġ2004":7361,"ìĪĺë¥¼":7362,"Ġcomment":7363,"Ġwors":7364,"osc":7365,"yth":7366,"Ġstick":7367,"Ġsolve":7368,"Ġsuffer":7369,"Ġspaces":7370,"During":7371,"ava":7372,"Ġraw":7373,"Ġëĥ":7374,"Ġhorse":7375,"ari":7376,"erent":7377,"Ġì¡°ê¸Ī":7378,"ĠWomen":7379,"Ġstarts":7380,"Ġproducing":7381,"Ġinfected":7382,"rian":7383,"Ġhappened":7384,"Ġcarefully":7385,"ventions":7386,"Dr":7387,"Ġlaun":7388,"ì¦ĺ":7389,"ĠìĹŃíķł":7390,"ellect":7391,"Ġtransportation":7392,"ĠìĿ´ìķ¼ê¸°":7393,"ĠCommission":7394,"rid":7395,"Ġdu":7396,"ìķĮ":7397,"Ġnoise":7398,"Ġtransp":7399,"Ġcars":7400,"Ġpaid":7401,"95":7402,"Ġseeking":7403,"Ġstudied":7404,"Ġultimately":7405,"Ġremained":7406,"íĥķ":7407,"Ġdocuments":7408,"Ġelectronic":7409,"Ġëª°":7410,"46":7411,"icious":7412,"Ġdiscrim":7413,"esity":7414,"Ġfloor":7415,"ë¥´ê²Į":7416,"Ġtransact":7417,"Ġinject":7418,"ĠHen":7419,"ìĤ°ìĹħ":7420,"Ġtoler":7421,"ĠBer":7422,"Ġmanaging":7423,"Ġdiscussed":7424,"Ġexercises":7425,"Ġconcerned":7426,"tering":7427,"Ġrespir":7428,"Ġviews":7429,"Ġdream":7430,"Ġê²Ģìĥī":7431,"Ġongoing":7432,"Ġsuggested":7433,"Ġfle":7434,"dent":7435,"ëĮĢë¥¼":7436,"ĠPract":7437,"ĠRussian":7438,"Ġfill":7439,"ĠCivil":7440,"ĠWell":7441,"umber":7442,"ca":7443,"Ġassemb":7444,"ì§Ģê°Ģ":7445,"Ġhundreds":7446,"Ġprotocol":7447,"band":7448,"Ġtalking":7449,"Ġpray":7450,"Ġachieved":7451,"aming":7452,"ë§Īëĭ¤":7453,"ĠExper":7454,"Ġdeaths":7455,"usiness":7456,"ĠFam":7457,"ĠìŀĲë£Į":7458,"Ġcurren":7459,"olester":7460,"ĠEconom":7461,"Ġinches":7462,"ì¤Ħ":7463,"ĠìĿ´ëłĩê²Į":7464,"Ġê¸°ì¡´":7465,"Ġ1990":7466,"ĠSen":7467,"ĠLike":7468,"Ġcats":7469,"Ġdut":7470,"Ġmoisture":7471,"dden":7472,"47":7473,"Ġdomestic":7474,"ĠGet":7475,"lastname":7476,"Ġrandom":7477,"asive":7478,"ĠClin":7479,"Ġinteraction":7480,"Ġpreventing":7481,"ye":7482,"Ġcleaning":7483,"Ġimplementation":7484,"ĠìĿ´ê²ĥ":7485,"Ġaccounts":7486,"what":7487,"Ġdedicated":7488,"Ġsatell":7489,"Ġsick":7490,"Ġdrain":7491,"Ġportion":7492,"DP":7493,"look":7494,"ĠDel":7495,"Ġshel":7496,"Ġhappy":7497,"ìľĦìĽĲíļĮ":7498,"lers":7499,"ĠíķĻêµĲ":7500,"ĠCam":7501,"Ġselected":7502,"Ġimmig":7503,"Ġgreatest":7504,"arter":7505,"ĠMil":7506,"osal":7507,"Over":7508,"apping":7509,"Ġresponses":7510,"ĠPost":7511,"Ġdust":7512,"Ġgenerated":7513,"Ġaer":7514,"Ġdisapp":7515,"Ġspeaking":7516,"Ġband":7517,"Ġtruly":7518,"Ġrub":7519,"Ġdiscovery":7520,"Ġsed":7521,"Ġtransmission":7522,"ĠìķĦë¬´":7523,"íıŃ":7524,"ĠQue":7525,"ĠVirgin":7526,"Ġtro":7527,"Ġmassive":7528,"Ġdeeper":7529,"ĠìĺĪìķ½":7530,"Ġpolice":7531,"ĠBay":7532,"dule":7533,"Ġsecondary":7534,"Ġbones":7535,"ĠAP":7536,"ëıĦìĿĺ":7537,"state":7538,"Ġlabel":7539,"ĠStudies":7540,"mic":7541,"oral":7542,"Ġtal":7543,"chain":7544,"ìĪĺê°Ģ":7545,"Ġpossess":7546,"Ġobtained":7547,"Ġphr":7548,"ĠEmp":7549,"Ġpresident":7550,"Ġleaf":7551,"Ġmechanisms":7552,"vity":7553,"Ġwest":7554,"ĠìĿ´ë£¨":7555,"lar":7556,"ĠAtl":7557,"olesterol":7558,"Ġplayers":7559,"ĠëĮĢë¶Ģë¶Ħ":7560,"Ġclaims":7561,"Bl":7562,"ĠíĿ¬":7563,"yles":7564,"Ġë¯¿":7565,"Ġtun":7566,"ê·¸ëŁ¬":7567,"Ġselection":7568,"ĠPsych":7569,"Ġcomputers":7570,"Ġpurchase":7571,"then":7572,"Ġì¶ľìŀ¥":7573,"Ġlooked":7574,"Ġëħ¸ëł¥":7575,"ĠìĻĢ":7576,"Ġintroduction":7577,"ĠInf":7578,"Ġsignals":7579,"Ġpromoting":7580,"Go":7581,"ĠMiss":7582,"hent":7583,"ìĿĺë¥¼":7584,"ml":7585,"Ġaccuracy":7586,"Ġë¯¸ëŀĺ":7587,"Ġstomach":7588,"Ġcontaining":7589,"iability":7590,"Ġë°©ìĭĿ":7591,"ĠLou":7592,"ĠKeep":7593,"ĠLand":7594,"atever":7595,"Ġê¸°ë°ĺ":7596,"Ġimprovement":7597,"Ġsudden":7598,"spect":7599,".âĢĻ":7600,"Ġapart":7601,"Ġimmediate":7602,"Ġdecline":7603,"certain":7604,"ìĻĶ":7605,"íĹĪ":7606,"ĠìĿ¸ê°Ħ":7607,"ìĬ¤íĦ°":7608,"Ġbrown":7609,"Ġìĥī":7610,"eck":7611,"Ġacts":7612,"Ġkm":7613,"raction":7614,"Ġ2003":7615,"ìĿ´ê°Ģ":7616,"ëįķ":7617,"ĠìĹŃìĭľ":7618,"Ġgrand":7619,"ĠSea":7620,"mm":7621,"urd":7622,"alse":7623,"ny":7624,"pre":7625,"Ġamb":7626,"Ġweap":7627,"ìĽĥ":7628,"Ġinsurance":7629,"Ġdatabase":7630,"Ġíķµ":7631,"ĠMain":7632,"Ġgut":7633,"Ġsides":7634,"Ġstars":7635,"Ġretain":7636,"izer":7637,"hyl":7638,"Ġperce":7639,"ĠSuch":7640,"Ġastron":7641,"Ġcouple":7642,"Ġrecognition":7643,"ìĥģìĿ´":7644,"Ġprogramming":7645,"Ġê´Ģíķľ":7646,"Ġvulnerable":7647,"Ġmarine":7648,"ĠDiff":7649,"ĠìĬ¬":7650,"Ġrenewable":7651,"Ġê°ķíĻĶ":7652,"struct":7653,"Ġvs":7654,"ëıĻìĿĦ":7655,"ING":7656,"77":7657,"ĠBudd":7658,"Ġë¹ĦêµĲ":7659,"ĠInformation":7660,"Ġengaging":7661,"Ġcandid":7662,"icit":7663,"Ġresol":7664,"ĠRights":7665,"Ġformal":7666,"Ġusage":7667,"Ġê°Ģìļ´ëį°":7668,"racy":7669,"Ġacids":7670,"49":7671,"66":7672,"ael":7673,"Ġinsects":7674,"ĠìŀĪëĬĶëį°":7675,"Ġarchitecture":7676,"ĠEnvironmental":7677,"ĠSk":7678,"organ":7679,"ê¸ĪìĿĦ":7680,"ensus":7681,"ìľ¤":7682,"Ġsuccessfully":7683,"Ġarmy":7684,"Ġìĸ´ëĬĲ":7685,"net":7686,"Ġcircumstances":7687,"ĠìĭľíĹĺ":7688,"cest":7689,"ĠëıĦìĭľ":7690,"ê°ĢëĬ¥":7691,"Ġtea":7692,"Ġìļ°ë¦¬ëĬĶ":7693,"field":7694,"Ġlocations":7695,"cules":7696,"DS":7697,"Ġì¡´ìŀ¬":7698,"Ġsustainability":7699,"Ġdiscipl":7700,"'ve":7701,"ëıĻìķĪ":7702,"ĠSou":7703,"Ġwindow":7704,"Ġcalls":7705,"mary":7706,"ĠBre":7707,"Ġstudying":7708,"Ġgenerations":7709,"Ġaccomp":7710,"ĠCommon":7711,"Ġmild":7712,"ìĹĪëįĺ":7713,"Ġensures":7714,"Gen":7715,"ĠìķĬìĿĦ":7716,"Ġcatch":7717,"Ġëª¨ëį¸":7718,"Ġë°©ìĨ¡":7719,"Ġcustomer":7720,"ĠFlor":7721,"Ġë³´ë©´":7722,"Ġdoctors":7723,"ëĭ¤ê°Ģ":7724,"ìĭľìĦ¤":7725,"Ġdistingu":7726,"Ġhunt":7727,"rag":7728,"ê¸°ìĪł":7729,"Ġwalking":7730,"ipping":7731,"Ġë°Ģ":7732,"li":7733,"Ġath":7734,"íı¼":7735,"ĠìķĮê³ł":7736,"ĠMiddle":7737,"ê°ĲìĿĦ":7738,"ĠSam":7739,"íıĲ":7740,"Ġtried":7741,"Ġpsychological":7742,"Ġanswers":7743,"Read":7744,"Ġpersist":7745,"Ġìľ¤":7746,"ĠìĿ¸íķ´":7747,"ĠTwo":7748,"Ġsell":7749,"ĠFe":7750,"ĠíĴĢ":7751,"Ġmood":7752,"prise":7753,"hemical":7754,"ĠAtt":7755,"Ġê·¸ìĿĺ":7756,"Ġworse":7757,"iled":7758,"Ġì¹ľêµ¬":7759,"van":7760,"Ġcrim":7761,"ĠìĤ¬ëŀĮìĿ´":7762,"Ġregional":7763,"Ġdifficulty":7764,"Ġcomposition":7765,"ĠNor":7766,"ëĮĢíķľ":7767,"Ġstated":7768,"Ġstands":7769,"Ġentirely":7770,"Ġrevealed":7771,"bra":7772,"ĠThomas":7773,"Ġfigures":7774,"ustain":7775,"ĠMass":7776,"Ġinnovative":7777,"ĠÐ":7778,"Ġimpossible":7779,"ĠVis":7780,"wing":7781,"Ġtaste":7782,"Ġìĸ¼ë§Ī":7783,"osph":7784,"2019":7785,"Ġreform":7786,"ĠìĨ¡":7787,"ê·Ģ":7788,"ĠSte":7789,"Ġcorrespond":7790,"Ġwife":7791,"ëĭĪìĬ¤":7792,"Ġabund":7793,"Ġimper":7794,"Ġrail":7795,"Ġtiny":7796,"íĤ¨":7797,"normal":7798,"ĠMem":7799,"ëĥ¥":7800,"Ġbeauty":7801,"ë°°íı¬":7802,"Ġuns":7803,".;":7804,"ĠLake":7805,"ì§ĢëıĦ":7806,"ĠPacific":7807,"ìĿĢíĸī":7808,"ĠGood":7809,"ë²Īíĺ¸":7810,"Ġofficials":7811,"Ġwave":7812,"rants":7813,"orrow":7814,"Ġguarant":7815,"ĠGlobal":7816,"ĠëħĦ":7817,"ka":7818,"Ġdownload":7819,"EP":7820,"oviet":7821,"west":7822,"Ġconcrete":7823,"Ġabsolute":7824,"Ġpure":7825,"Ġacknow":7826,"Ġê·¸ëħĢ":7827,"ìĬ¤ë¡ľ":7828,"ìĿ´ëĵľ":7829,"Ġforests":7830,"acts":7831,"ĠNature":7832,"Ġsod":7833,"word":7834,"Ġë¸Įëŀľëĵľ":7835,"Ġinstructions":7836,"Ġíķ´ìĻ¸":7837,"Ġmitig":7838,"Ġcalcium":7839,"Ġunlike":7840,"ĠLeg":7841,"ĠíĺĦëĮĢ":7842,"ëĵ¤ëıĦ":7843,"irus":7844,"ìĿ¼ìĿĦ":7845,"ëªħìĿ´":7846,"ìĭľíĹĺ":7847,"amins":7848,"Ġê²½ìŁģ":7849,"Ġë³Ģê²½":7850,"ìłķë¶Ģ":7851,"Ġdelivery":7852,"Ġbiod":7853,"Ġchildhood":7854,"Ġerror":7855,"Ġsurvive":7856,"Ġrecon":7857,"ì¦Į":7858,"Ġë§ĲìĶ":7859,"Ġroof":7860,"Ġdirector":7861,"Ġedge":7862,"Ġdesigns":7863,"ĠJud":7864,"Ġroles":7865,"Ġunderstood":7866,"Ġserves":7867,"Ġeffectiveness":7868,"Ġmoral":7869,"Int":7870,"ansion":7871,"orter":7872,"Ġstable":7873,"spec":7874,"ĠGroup":7875,"itivity":7876,"inking":7877,"Ġsubstances":7878,"Ġneighb":7879,"Ġfeeding":7880,"Ġeast":7881,"85":7882,"íĶĦíĬ¸":7883,"ëªħìĿĺ":7884,"ë°ĶìĿ´":7885,"ĠSat":7886,"ëĤĺìļĶ":7887,"Ġeveryday":7888,"Cont":7889,"ĠAdd":7890,"Ġëª©íĳľ":7891,"ĠìŀĪì§Ģë§Į":7892,"Ġhydrogen":7893,"Ġgreatly":7894,"Ġfif":7895,"ĠëĬ¥":7896,"ìĤ¬ìĻĢ":7897,"Other":7898,"LE":7899,"oding":7900,"ĠSol":7901,"Ġmechanism":7902,"ìĪĺëĬĶ":7903,"ëĵľë¦½ëĭĪëĭ¤":7904,"ëĶĶìĺ¤":7905,"íĻĺê²½":7906,"ĠìĹħë¬´":7907,"ãħİ":7908,"Ġì§ĢëĤľíķ´":7909,"ffective":7910,"Ġpreval":7911,"Ġë°ľê²¬":7912,"ocratic":7913,"Ġpossibility":7914,"Ġmanaged":7915,"íĭĢ":7916,"Ġfilled":7917,"Ġìłķì¹ĺ":7918,"Ġcolour":7919,"Ġfossil":7920,"lets":7921,"ë¿Ĳ":7922,"Ġê°ľìµľ":7923,"Ġaccum":7924,"amics":7925,"Ġremark":7926,"Ġfunctional":7927,"olf":7928,"Ġminerals":7929,"Ġwaves":7930,"bran":7931,"Ġexperiments":7932,"Ġseeing":7933,"Ġextended":7934,"Americ":7935,"Ġclosed":7936,"Ġìī½ê²Į":7937,"Ġë¶ģíķľ":7938,"Ġnerve":7939,"Ġëĸ¨ìĸ´":7940,"Ġconsumer":7941,"Ġdecide":7942,"Re":7943,"Ġingredients":7944,"ĠìŀĲìľł":7945,"Ġveter":7946,"Ġapparent":7947,"Ġargument":7948,"ìļķ":7949,"--------":7950,"Ġmulti":7951,"Ġdetection":7952,"Ġê³µëıĻ":7953,"Ġwestern":7954,"rus":7955,"Ġagreement":7956,"Ġproduces":7957,"Let":7958,"Ġtow":7959,"Ġbeliefs":7960,"Your":7961,"ĠìĤ¬ê±´":7962,"ĠCult":7963,"Ġthreats":7964,"Ġcircuit":7965,"ìĻķ":7966,"ì¼ĵ":7967,"Ġpersons":7968,"LA":7969,"ĠìĦľë¹ĦìĬ¤ë¥¼":7970,"ĠAS":7971,"ìłĦìĹĲ":7972,"Ġtitle":7973,"Ġprison":7974,"Ġflight":7975,"ìŀĲë¡ľ":7976,"Ġtrends":7977,"igital":7978,"idity":7979,"Ġconven":7980,"Ġnormally":7981,"iology":7982,"ĠLab":7983,"ĠNav":7984,"Ġindex":7985,"Ġcapture":7986,"ëĨĵ":7987,"mas":7988,"riting":7989,"Ġwitness":7990,"Ġplate":7991,"Ġmoon":7992,"ĠDet":7993,"Ġcompounds":7994,"íĬ¼":7995,"ĠAny":7996,"Ġappeared":7997,"ì§Ģë§ī":7998,"ctive":7999,"Ġbreath":8000,"Ġstability":8001,"level":8002,"Ġadopted":8003,")||":8004,"ĠíĻ©":8005,"Ġpull":8006,"Ġgluc":8007,"Ġnarrow":8008,"Ġdrawing":8009,"Ġmac":8010,"Ġëĳĺ":8011,"using":8012,"ato":8013,"Ġadministration":8014,"Ġlots":8015,"ìĥģìĿĺ":8016,"Ġdensity":8017,"íĶ½":8018,"ogue":8019,"agues":8020,"ìĨĮëħĦ":8021,"EO":8022,"Ġtank":8023,"ĠìŀĲì²´":8024,"Ġpandemic":8025,"HD":8026,"Ġcomfortable":8027,"Ġgall":8028,"ê°ľìĽĶ":8029,"íĴį":8030,"ĠSl":8031,"Ġaims":8032,"lines":8033,"Ġourselves":8034,"Ġreactions":8035,"ĠMr":8036,"%,":8037,"íĤ¹":8038,"Ġíķĺë£¨":8039,"íķĺìĭŃìĭľìĺ¤":8040,"Ġê·¸ëłĩ":8041,"Ġment":8042,"Ġindicates":8043,"ëªħìĿĦ":8044,"Ġlisten":8045,"Ġinvent":8046,"Ġlies":8047,"Ġoperate":8048,"Ġslowly":8049,"2017":8050,"Ġfewer":8051,"Ġparticipate":8052,"Ġrepair":8053,"ëĬĶëĭ¤":8054,"Ġmold":8055,"Ġìĺ¤íĽĦ":8056,"ìĭľë©´":8057,"Ġknew":8058,"ĠBat":8059,"gans":8060,"Ġcloser":8061,"oto":8062,"Ġëĭ¹ìĭľ":8063,"raining":8064,"umes":8065,"Ġaircraft":8066,"Ġwants":8067,"ëĤĺëĿ¼":8068,"Ġtrained":8069,"Ġ2001":8070,"Ġvessels":8071,"Ġahead":8072,"Ġratio":8073,"Ġconventional":8074,"Ġreturned":8075,"Ġdescribes":8076,"iform":8077,"ĠArmy":8078,"Ġrepeated":8079,"Ġdoor":8080,"Ġpup":8081,"itative":8082,"Ġvoc":8083,"Ġevaluation":8084,"Ġphotos":8085,"Ġê¸´":8086,"xid":8087,"anc":8088,"Ġbond":8089,"ë¡ľëĵľ":8090,"Ġinner":8091,"Ġopinion":8092,"Ġrely":8093,"Ġê²Įìĭľ":8094,"ĠìĿ´ëıĻ":8095,"ê´":8096,"Ġê·¸ëŀĺìĦľ":8097,"ĠCy":8098,"Ġcontamin":8099,"Ġagencies":8100,"Ġpretty":8101,"Ġintellect":8102,"ĠìłĦëŀµ":8103,"Ġì°©":8104,"Ġlimits":8105,"Ġfav":8106,"Ġ2002":8107,"2018":8108,"ĠWild":8109,"riendly":8110,"Ġauthorities":8111,"Ġcholesterol":8112,"ester":8113,"ona":8114,"Ġsuc":8115,"ditional":8116,"ropical":8117,"pet":8118,"ĠìĬ¤ë§ĪíĬ¸":8119,"Ġë²Īì§¸":8120,"imer":8121,"war":8122,"Ġmuseum":8123,"Ġfixed":8124,"ĠAbout":8125,"ĠíĦ°":8126,"Ġconsidering":8127,"Ġì¶ľìĭľ":8128,"Ġbiggest":8129,"ada":8130,"Ġnan":8131,"Ġmolecules":8132,"ĠAp":8133,"ĠSoviet":8134,"Ġopening":8135,"Stud":8136,"ĠMont":8137,"Ġserver":8138,"ìĨĮë¥¼":8139,"Ġmamm":8140,"Ġhousing":8141,"ê³Ħë¥¼":8142,"ĠCatholic":8143,"Ġuniverse":8144,"Ġë°°ìļ°":8145,"Ġlayers":8146,"ëĤ¸":8147,"Ġexcessive":8148,"Ġbroken":8149,"ĠìķĦì§ģ":8150,"Ġwarming":8151,"ĠìĦłìłķ":8152,"ì§ĢëĤľ":8153,"Ġbio":8154,"Ľ°":8155,"Ġhealing":8156,"Ġtwice":8157,"Not":8158,"ĠSum":8159,"Ġê³łëł¤":8160,"Ġë³´ëĤ´":8161,"Ġê²ĥëıĦ":8162,"Ġcrow":8163,"Ġsoldiers":8164,"ä¸":8165,"azing":8166,"Ġgrad":8167,"ĠJose":8168,"Ġplatforms":8169,"Ġneck":8170,"ìŀ¥ìĹĲìĦľ":8171,"Ġembra":8172,"íĸĪê³ł":8173,"Ġpoet":8174,"abul":8175,"Ġrhy":8176,"Ġfashion":8177,"Ġìľ¡":8178,"Ġpool":8179,"ìĥģíĴĪ":8180,"rin":8181,"Ġyield":8182,"hav":8183,"under":8184,"86":8185,"ĠëĦ£":8186,"Ġë¨¼ìłĢ":8187,"ëį°ìĿ´íĬ¸":8188,"Ġgun":8189,"Ġsky":8190,"ĠTime":8191,"add":8192,"Ġpossibly":8193,"Ġê¸Īìľµ":8194,"Ġax":8195,"ĠScient":8196,"Ġgreenhouse":8197,"isk":8198,"Ġìĭľë¯¼":8199,"Pe":8200,"Se":8201,"ĠìĶ¨":8202,"Ġ~":8203,"Lear":8204,"Ġmountain":8205,"ĠëĨĢ":8206,"Ġmarked":8207,"Ġëŀ":8208,"ĠDisease":8209,"ritis":8210,"ĠìĤ¬ëŀĮëĵ¤ìĿ´":8211,"Ġâĸ²":8212,"Ġremaining":8213,"ourage":8214,"ĠìĿ´ëĬĶ":8215,"ĠWhether":8216,"Ġshop":8217,"Ġcapabilities":8218,"76":8219,"ĠíĶĮëłĪìĿ´":8220,"ĵ¨":8221,"orous":8222,"Since":8223,"Ġlibrary":8224,"quality":8225,"eless":8226,"born":8227,"ĠProfessor":8228,"Ġmining":8229,"Ġë¹Ħìļ©":8230,"ìŀĲëĵ¤ìĿ´":8231,"sts":8232,"Ġelectron":8233,"alian":8234,"Ġíģ¬ê²Į":8235,"ĠíĳľíĺĦ":8236,"hand":8237,"ĠëĿ¼ìĿ´":8238,"ait":8239,"Ġchapter":8240,"ĠíĻķëĮĢ":8241,"ribed":8242,"Ġmeal":8243,"uke":8244,"Ġpermanent":8245,"Ġscholars":8246,"Ġíķĺì§Ģ":8247,"Ġhouses":8248,"ìĦłìĿĦ":8249,"Ġancest":8250,"ĠNations":8251,"ua":8252,"89":8253,"ìĻĶëĭ¤":8254,"ÃŃ":8255,"Ġfrequent":8256,"Ġenables":8257,"ëĲĲ":8258,"Ġë§ĲìĶĢ":8259,"ìĹĦ":8260,"otal":8261,"ìĦľë¥¼":8262,"Ġpictures":8263,"anged":8264,"ìĤ¬ì§Ħ":8265,"ĠíıĲ":8266,"Ġflo":8267,"Ġinhib":8268,"Ġfulf":8269,"Ġchick":8270,"Ġsmoking":8271,"ĠLong":8272,"Ġmixed":8273,"Ġlisted":8274,"Ġì£¼ë¬¸":8275,"ĠìĪĺíĸī":8276,"Ġelectro":8277,"ìĤ¬ìĹĲ":8278,"mes":8279,"liam":8280,"ĠìľĦíĹĺ":8281,"stone":8282,"IM":8283,"ctic":8284,"ĠìĿĮìĭĿ":8285,"Ġoptimal":8286,"RC":8287,"ìĵ":8288,"hma":8289,"Ġíķ´ìķ¼":8290,"Ġholds":8291,"ota":8292,"weight":8293,"íķĺìĺĢëĭ¤":8294,"gent":8295,"Ġopened":8296,"Ġincred":8297,"Ġaf":8298,"Ġdecade":8299,"Ġimplications":8300,"ĠAlex":8301,"Ġteams":8302,"Ġgap":8303,"rooms":8304,"ĬìĿĢ":8305,"ê¹ĮìļĶ":8306,"Ġprovider":8307,"Ġdesire":8308,"Ġinstitution":8309,"ĠíĹ¤":8310,"Ġpreparation":8311,"Ġë§ĮëĤĺ":8312,"Ġloved":8313,"Ġcommitment":8314,"âľ":8315,"ìĿ´ë¥¼":8316,"Ġequival":8317,"Ġshif":8318,"Ġdepos":8319,"ìłĿ":8320,"ĠëıĦìĽĢìĿ´":8321,"Ġìļ¸":8322,"Ġswim":8323,"irt":8324,"Ġaccepted":8325,"no":8326,"Ġchief":8327,"Ġtells":8328,"íķĺìĭ¤":8329,"body":8330,"Ġê³µê¸ī":8331,"ĠìĨĶ":8332,"ĠSmith":8333,"ĠThose":8334,"Ġbear":8335,"Ġunable":8336,"onal":8337,"ĠBank":8338,"ë¡ľê·¸":8339,"Ġchosen":8340,"Ġëĵ¯":8341,"Ġic":8342,"ĠForm":8343,"Ġethical":8344,"Ġderived":8345,"IA":8346,"ĠQuest":8347,"Ġattend":8348,"ìĭľê¸°":8349,"Ġëľ»":8350,"kes":8351,"ĠìĦ¤ìłķ":8352,"Ġrelief":8353,"Ġunless":8354,"Ġê³µìľł":8355,"ĠFranc":8356,"ĠOffice":8357,"Ġdebt":8358,"ĠKen":8359,"ĠíķŃê³µ":8360,"ì¿ł":8361,"ĠíĽĦë³´":8362,"Rec":8363,"Ġoriginally":8364,"Ġmarkets":8365,"gien":8366,"ĠìłĦêµŃ":8367,"itamin":8368,"Ġarms":8369,"Ġcos":8370,"ĠAcc":8371,"Ġmarriage":8372,"Ġfunds":8373,"Ġdistrict":8374,"Ġartists":8375,"Ġdynamic":8376,"ëłµ":8377,"ĠGold":8378,"Ġcrypt":8379,"ĠStep":8380,"Ġexpressed":8381,"Ġadequate":8382,"ĠCarol":8383,"Ġemployment":8384,"Ġfu":8385,"ìļ°ë¦¬":8386,"Once":8387,"holders":8388,"Ġinterf":8389,"Ġdeploy":8390,"Ġê¿Ī":8391,"BN":8392,"ribe":8393,"Ġclar":8394,"soft":8395,"ê¸°ê°Ħ":8396,"PC":8397,"Ġproductivity":8398,"inet":8399,"ĠTer":8400,"ĠHistor":8401,"Ġvolunte":8402,"ĠTake":8403,"espread":8404,"Ġ36":8405,"Ġshell":8406,"ì£Ħ":8407,"ìĿ¸ìĿĢ":8408,"ëŁ¬ìļ´":8409,"Ġspending":8410,"Ġzero":8411,"gu":8412,"Ġunknown":8413,"ĸìĹĲ":8414,"zen":8415,"ĠReview":8416,"Ġorganized":8417,"Ġbalanced":8418,"ĠâĢ¢":8419,"Ġlearners":8420,"ĠParis":8421,"ë¨¸ëĭĪ":8422,"ĠìķĪëĤ´":8423,"phone":8424,"Ġwish":8425,"ĠMo":8426,"ëŀĻ":8427,"Ġëĭ¤ìļ´":8428,"Ġbrings":8429,"ĠAustralian":8430,"luding":8431,"ĠìĺĪìĥģ":8432,"ĠRobert":8433,"Ġprompt":8434,"Ġ1980":8435,"ville":8436,"Ġfocuses":8437,"oga":8438,"Ġmedic":8439,"fulness":8440,"ìĶ©":8441,"Ġê´":8442,"Ġdemonstrate":8443,"Ġì»´":8444,"ê²ĮìŀĦ":8445,"aria":8446,"BT":8447,"Ġyounger":8448,"ê¾¸":8449,"itudes":8450,"Ġreven":8451,"anda":8452,"Ġ75":8453,"Ġaccident":8454,"top":8455,"Ġcompetition":8456,"Ġsurfaces":8457,"íĸĪëĭ¤ê³ł":8458,"Ġdesired":8459,"Ġê°Ģìŀħ":8460,"Ġrecommendations":8461,"ìłľë¡ľ":8462,"Ġfarming":8463,"ston":8464,"ĠCompany":8465,"ĠPers":8466,"ĠìĤ´ìķĦ":8467,"ĠìłķíĻķ":8468,"ìĹħì²´":8469,"ĠTHE":8470,"Ġinstruments":8471,"Ġrid":8472,"ìłľê°Ģ":8473,"earchers":8474,"cons":8475,"gers":8476,"liament":8477,"ocracy":8478,"Ġdisrupt":8479,"ê¸°ìĿĺ":8480,"dr":8481,"zed":8482,"Ġirrit":8483,"ĠíĶ¼ë¶Ģ":8484,"ĠMoreover":8485,"ì¼ĢìĿ´":8486,"ĠAccess":8487,"ĠTor":8488,"ĠíĥĪ":8489,"ĠAdv":8490,"astro":8491,"Ġ2023":8492,"ĠCanadian":8493,"ĠFlorida":8494,"ĠExt":8495,"ìŀĲìĹĲê²Į":8496,"Ġexplo":8497,"door":8498,"Ġworry":8499,"OC":8500,"ìĬĪ":8501,"Ġabilities":8502,"ĠUSA":8503,"Ġevaluate":8504,"Ġintegrated":8505,"Ġopposite":8506,"Ġsight":8507,"Ġtissues":8508,"Ġdamaged":8509,"Ġmechanical":8510,"ini":8511,"hist":8512,"Ġfly":8513,"Ġsentence":8514,"acu":8515,"Ġvoltage":8516,"ĠìłĦìĹĲ":8517,"2020":8518,"Ġíĺ¹":8519,"Ġsupplies":8520,"Ġgal":8521,"essions":8522,"Ġproviders":8523,"Ġfract":8524,"ê¼":8525,"ĠSym":8526,"ĠOF":8527,"Ġê·ľëª¨":8528,"Ġregist":8529,"Ġê¶ģ":8530,"hop":8531,"scale":8532,"ìķĦìļĶ":8533,"Ġrising":8534,"Ġê¸Ģë¡ľë²Į":8535,"fortunately":8536,"ì½ĺ":8537,"Ġwww":8538,"Ġobesity":8539,"Ġmagnetic":8540,"íĻį":8541,"Ġvillage":8542,"Ġconstantly":8543,"Ġcamera":8544,"ëŀ«íı¼":8545,"ë¦¬ì§Ģ":8546,"health":8547,"point":8548,"ĠëķĮë¬¸ìĿ´ëĭ¤":8549,"^^":8550,"ĠYet":8551,"ĠHam":8552,"Ġê°ķì¡°":8553,"Ġinsulin":8554,"Ġ32":8555,"ĠBro":8556,"ìĸµìĽĲ":8557,"Ġpercentage":8558,"Ġì¹´ì§Ģëħ¸":8559,"Ġì²ĺë¦¬":8560,"Ġassets":8561,"that":8562,"ĠWindows":8563,"iration":8564,"ovascular":8565,"ëĮĢíĳľ":8566,"Ġstake":8567,"inter":8568,"Ġê¹¨":8569,"ĠëĮĢë¹Ħ":8570,"ì¶ĺ":8571,"Ġlaboratory":8572,"Ġpron":8573,"Ġmanif":8574,"forcement":8575,"Ġfell":8576,"Ġdiagnosed":8577,"Ġë°ĶìĿ´":8578,"bert":8579,"ìłĦìĿĦ":8580,"Ġstanding":8581,"ìľ¼ëĤĺ":8582,"Ġìĺ¤ëĬĶ":8583,"Ġwilling":8584,"ĠCat":8585,"Ġrig":8586,"Ġcomparison":8587,"ĠBur":8588,"Ġintegration":8589,"ĠConstitution":8590,"Ġreject":8591,"Ġnecessarily":8592,"Ġrespiratory":8593,"ĠìĦ¼":8594,"Ġscan":8595,"Ġindependence":8596,"Ġcritic":8597,"ether":8598,"ioxid":8599,"ircle":8600,"Ġschedule":8601,"ìŀ¥ìĿĺ":8602,"ĠìĤ¬ìļ©íķł":8603,"ĠCheck":8604,"Ġauthent":8605,"Ġexperiencing":8606,"Ġtrend":8607,"Ġidentifying":8608,"Ġpharm":8609,"Ġmatch":8610,"Ġpartner":8611,"Ġlegs":8612,"ìŀĲìĻĢ":8613,"Ġbread":8614,"nect":8615,"ĠìĹ¬ê¸°":8616,"Ġheating":8617,"Ġsunlight":8618,"fish":8619,"Ġpanels":8620,"Ġsequence":8621,"Ġshapes":8622,"ena":8623,"han":8624,"ĠìŀĳìĿĢ":8625,"ĠFurthermore":8626,"RA":8627,"ëŁ¬ìĬ¤":8628,"icide":8629,"ë¡ľë¶ĢíĦ°":8630,"Ġ186":8631,"reed":8632,"My":8633,"Comm":8634,"ĠíĮĶ":8635,"ĠCharles":8636,"Ġkidney":8637,"ĠCa":8638,"Ġexamine":8639,"Ġtight":8640,"earing":8641,"Ġcooking":8642,"Ġwidespread":8643,"Ġteen":8644,"rons":8645,"roduction":8646,"Ġtex":8647,"Ġìłģê·¹":8648,"ĠìĹĶ":8649,"Ġengagement":8650,"Ġwhereas":8651,"42":8652,"ĠCreat":8653,"Ġreplaced":8654,"ora":8655,"ìĦ±ê³¼":8656,"ĠHome":8657,"ĠSet":8658,"ediat":8659,"Ġeld":8660,"ĠOnly":8661,"Ġ1970":8662,"Ġcart":8663,"burg":8664,"Ġpainting":8665,"Ġinfluenced":8666,"SS":8667,"Ġfailed":8668,"inity":8669,"Ġë§Įíģ¼":8670,"Ġresolution":8671,"Ġdioxide":8672,"Ġfacing":8673,"ĠClimate":8674,"hesis":8675,"Ġbrand":8676,"ĠëĪĦêµ¬":8677,"zil":8678,"Ġdin":8679,"ĠNatural":8680,"Ġparticipation":8681,"inction":8682,"Ġethnic":8683,"ĠRad":8684,"ighter":8685,"rene":8686,"Ġlands":8687,"ìĿ¸ëĭ¤":8688,"ĠPan":8689,"ĠëĽ°":8690,"Ġreserv":8691,"ĠMa":8692,"Ġì§Īë¬¸":8693,"Ġdistur":8694,"íĵ¨":8695,"agram":8696,"uts":8697,"ĠLabor":8698,"Ġcomplications":8699,"throp":8700,"Ġneighbor":8701,"ĠOx":8702,"Ġdelay":8703,"ocy":8704,"ĠOpen":8705,"struction":8706,"ĠVict":8707,"ested":8708,"ML":8709,"Ġìķ±":8710,"Ġdebate":8711,"Ġobjective":8712,"¢°":8713,"tic":8714,"oted":8715,"inally":8716,"Ġlatter":8717,"Ġcovers":8718,"ĠDan":8719,"Ġbot":8720,"Ġintense":8721,"43":8722,"ĠHenry":8723,"ĠSecurity":8724,"Ġreader":8725,"Ġtall":8726,"Ġë¹Ħë¡¯":8727,"ocation":8728,"ë§İ":8729,"aped":8730,"Ġmanip":8731,"uter":8732,"ìķķ":8733,"Ġanalyze":8734,"Ġdefine":8735,"Ġthy":8736,"ading":8737,"ĠFederal":8738,"ĠDiv":8739,"asters":8740,"OU":8741,"Ġtrials":8742,"itt":8743,"ĠìłĢìŀĳê¶Į":8744,"orses":8745,"Ġprinting":8746,"ãħł":8747,"ĠStudy":8748,"ìĥĿíĻľ":8749,"ĠVirginia":8750,"íķ´ë³´":8751,"Ġforget":8752,"Ġindeed":8753,"Ġfalse":8754,"Ġkne":8755,"ë¢°":8756,"Ġvitamins":8757,"Ġsole":8758,"irds":8759,"Ġadministr":8760,"ĠìĻķ":8761,"Ġbridge":8762,"igue":8763,"Ġwriter":8764,"Ġinstalled":8765,"ë³µì§Ģ":8766,"Ġuniversity":8767,"ĠLouis":8768,"Ġinvolving":8769,"Ġ150":8770,"utrition":8771,"Ġstroke":8772,"Ġsurve":8773,"íĤ¬":8774,"Ġblocks":8775,"ersonal":8776,"ella":8777,"Ġunus":8778,"Ġìĺģíĸ¥ìĿĦ":8779,"Ġprotecting":8780,"fit":8781,"ëĦĪì§Ģ":8782,"ĠStat":8783,"Ġplenty":8784,"Ġmetabol":8785,"ki":8786,"Ġzone":8787,"First":8788,"Ġtraditions":8789,"ĠLibrary":8790,"Ġbutter":8791,"Ġsmoke":8792,"Ðµ":8793,"Ġphilosophy":8794,"Ġ65":8795,"Ġearn":8796,"ican":8797,"Ġglucose":8798,"Ġmand":8799,"ĠìĽĮ":8800,"Ġtransc":8801,"ìłķìĿ´":8802,"Ġentry":8803,"ĠSing":8804,"Ġturns":8805,"Ġclothing":8806,"ĠEss":8807,"Ġreward":8808,"Ġêµ¬ì¡°":8809,"Ġnutrient":8810,"ĠCommit":8811,"Ġcareful":8812,"Ġconversation":8813,"ëł´":8814,"Ġìķŀìľ¼ë¡ľ":8815,"coming":8816,"Ġëķ":8817,"Ġìĭ¤ìĭľ":8818,"Ġorgans":8819,"Ġcav":8820,"Ġcolleagues":8821,"Ġrice":8822,"Ġfirstname":8823,"Ġíķĺë©´":8824,"Ġhoriz":8825,"erior":8826,"Ġends":8827,"ĠìłĦë§Ŀ":8828,"Ġìłľíķľ":8829,"Ġcorn":8830,"Ġ)":8831,"Ġtele":8832,"thritis":8833,"Ġtechnological":8834,"ĠRob":8835,"iotic":8836,"Ġbath":8837,"ê³¼ìĿĺ":8838,"Ġmos":8839,"41":8840,"Ġdoubt":8841,"airy":8842,"Ġcalories":8843,"Ġtract":8844,"Ġclust":8845,"ĠLG":8846,"Ġê¼Ń":8847,"Ġmeals":8848,"ĠCap":8849,"Ġì£¼ë¯¼":8850,"ĠëĬĲëĤĮ":8851,"Ġhero":8852,"ĠReport":8853,"Ġcategories":8854,"Ġdys":8855,"tra":8856,"Ġputting":8857,"Ġholid":8858,"Ġrepresented":8859,"Ġmembran":8860,"ĠEarly":8861,"Ġconsume":8862,"Ġturning":8863,"Ġìļ´ëıĻ":8864,"Ġorganisms":8865,"ĠìĿ¼ìĿ´":8866,"ĠCho":8867,"Ġvariable":8868,"ħëĭĪëĭ¤":8869,"Ġsensors":8870,"ĠImp":8871,"Ġcommitted":8872,"Ġdemonstrated":8873,"ĠRome":8874,"Ġcreativity":8875,"Ġexpansion":8876,"ľĺ":8877,"Ġrecept":8878,"Ġmeasurement":8879,"ĠHaw":8880,"Ġì¡°ì§ģ":8881,"Ġcontrols":8882,"Ġagency":8883,"ëĲĺìĹĪ":8884,"íĶĦë¡ľ":8885,"Ġìķķ":8886,"79":8887,"Qu":8888,"ita":8889,"Ġmode":8890,"Ġì§ĳì¤ĳ":8891,"ĠIN":8892,"Ġmatters":8893,"Ġsucceed":8894,"Ġinhab":8895,"Ġfighting":8896,"Ġbrush":8897,"Ġfever":8898,"Ġstimul":8899,"Ġìŀ¥ìķł":8900,"ê°ľìĿĺ":8901,"Ġfurn":8902,"ì¶ľìŀ¥ìĥµ":8903,"Ġfer":8904,"Ġdemands":8905,"ë¨¹":8906,"ĠOcean":8907,"Ġcenters":8908,"car":8909,"Ġimplemented":8910,"ĠCre":8911,"ì¹ł":8912,"Ġstronger":8913,"Ġë´ī":8914,"Ġped":8915,"Ġê´ĳê³ł":8916,"App":8917,"Ġrow":8918,"ë²¤íĬ¸":8919,"Ã¼":8920,"Ġencoun":8921,"Ġë¶ĢìĤ°":8922,"itter":8923,"Ġë°Ľê³ł":8924,"ì¹Ń":8925,"reland":8926,"icing":8927,"ëĮĢìĿĺ":8928,"??":8929,"ìłķíķľ":8930,"Ġíĺģ":8931,"Ġgone":8932,"ìļĶìĿ¼":8933,"Ġtreating":8934,"Ġê°ľìĿ¸ìłķë³´":8935,"ìĽł":8936,"Ġë¥":8937,"Ġstructural":8938,"Ġfaced":8939,"Step":8940,"Ġemployed":8941,"Ġoblig":8942,"IG":8943,"Ġcm":8944,"ĠAdminist":8945,"Ġê±°ìĿĺ":8946,"ĠCP":8947,"Ġbatteries":8948,"eli":8949,"ĠíĺĪ":8950,"friendly":8951,"ĠHave":8952,"ĠHall":8953,"Ġì§Ģë°©":8954,"Ġhus":8955,"itely":8956,"ediatric":8957,"Ġnearby":8958,"ì§ĢíĦ¸":8959,"ìĬ¤íĨł":8960,"Ġvisitors":8961,"aud":8962,"ê°ĳ":8963,"ĠìĿĺíķ´":8964,"ommod":8965,"Ġpositions":8966,"%.":8967,"Ġpresentation":8968,"Ġarrange":8969,"Ġcrime":8970,"Ġnervous":8971,"rite":8972,"ëĲĺìĹĪëĭ¤":8973,"Ġcup":8974,"ĠIndust":8975,"Ġcash":8976,"Ġbanks":8977,"Ġrefuge":8978,"Ġgradually":8979,"ĠìĹ¬ëŁ¬ë¶Ħ":8980,"Ġfilter":8981,"âĺ":8982,"Ġaddressing":8983,"rine":8984,"Ġë¬¸ìĿĺ":8985,"Ġstrain":8986,"íĺ¹":8987,"ìĽ¨ìĸ´":8988,"Ġremed":8989,"sis":8990,"abulary":8991,"usal":8992,"ìķĪìĿĦ":8993,"ê·¸ëŀĺ":8994,"such":8995,"ĠPM":8996,"Ġborder":8997,"ĠìĿ´ìĹĲ":8998,"ĠRevolution":8999,"Ġnine":9000,"ëĭĿ":9001,"ì¢Į":9002,"Ġpair":9003,"ĠìĿ´ëĤł":9004,"Ġsheet":9005,"Ġexpertise":9006,"Ġdescription":9007,"Su":9008,"ishment":9009,"Ġê°Ŀ":9010,"Ġadvert":9011,"ĠIll":9012,"Ġerrors":9013,"Ġexists":9014,"íĶĪ":9015,"Ġmessages":9016,"íĺĪ":9017,"Ġalgorithms":9018,"Ġreceiving":9019,"Ġstrengthen":9020,"ĠìĿĮìķħ":9021,"ĠìĹħì²´":9022,"hus":9023,".|":9024,"Ġsubs":9025,"ĠColor":9026,"Ġsales":9027,"Ġscore":9028,"Ġdietary":9029,"ĠGard":9030,"ĠìĿĺë£Į":9031,"ĠColumb":9032,"Ġcards":9033,"uality":9034,"ĠFrank":9035,"ĠìłĦë¬¸ê°Ģ":9036,"Ġremoval":9037,"Ġlights":9038,"Ġhun":9039,"Ġattached":9040,"Ġmeters":9041,"IL":9042,"osion":9043,"ĠìŀĲê¸°":9044,"ëĭĺìĿĺ":9045,"Ġuncertain":9046,"Ġpolitics":9047,"everal":9048,"Ġblo":9049,"elled":9050,"Ġexploration":9051,"Ġobjectives":9052,"Ġoccasion":9053,"ĠíĮ¬":9054,"ione":9055,"requ":9056,"ĠCancer":9057,"operation":9058,"ĠMars":9059,"ê°ľë°ľ":9060,"ĠFree":9061,"Ġhormone":9062,"ola":9063,"Ġcharacterized":9064,"Ġoverw":9065,"Ġprove":9066,"Ġstrict":9067,"ĠPlant":9068,"Ġfavorite":9069,"Ġcombat":9070,"ĠAC":9071,"ĠServices":9072,"ptions":9073,"Ġknows":9074,"ë°ĶìĿ¼":9075,"ì§Ħëĭ¤":9076,"ĠFace":9077,"Ġìĸ´ëĶĶ":9078,"ĠStreet":9079,"Ġrecycling":9080,"oned":9081,"outs":9082,"Ġíĺķíĥľ":9083,"Ġlaunched":9084,"ĠItaly":9085,"Ġterritory":9086,"Ġresulted":9087,"ĠEth":9088,"Ġparalle":9089,"Ġcontemporary":9090,"ë¡ľëĬĶ":9091,"urrent":9092,"cture":9093,"Ġì£¼ìŀ¥":9094,"Ġê¸°ìĸµ":9095,"ĠëĶ°ë¥¸":9096,"ĠEnd":9097,"Ġinterventions":9098,"rowing":9099,"Ġovercome":9100,"Comp":9101,"ĠUnderstanding":9102,"Ġswitch":9103,"ê±°ë¦¬":9104,"ì»´":9105,"Ġê¾¸":9106,"Ġoutcome":9107,"Ġwait":9108,"ĠSign":9109,"Ġthanks":9110,"Ġheritage":9111,"Ġengaged":9112,"ilation":9113,"Ġprivacy":9114,"Ġinteractive":9115,"Ġequivalent":9116,"ë¬¸ìłľ":9117,"Ġ400":9118,"Ġì½ĺíħĲì¸ł":9119,"Ġê³µë¶Ģ":9120,"ĠìĿ¸ì¦Ŀ":9121,"Ġepid":9122,"Ġframe":9123,"ala":9124,"Ġë³´íĹĺ":9125,"Ġexploring":9126,"Ġmeasurements":9127,"hered":9128,"Ġì§ĢëĤĺ":9129,"Ġpowers":9130,"Ġcorrectly":9131,"Ġhole":9132,"Ġì¡°ìĤ¬":9133,"idential":9134,"ĠResp":9135,"Ġknowing":9136,"Figure":9137,"aked":9138,"ĠSafety":9139,"Ġoutbre":9140,"59":9141,"alls":9142,"Ġì¿ł":9143,"Ġshut":9144,"ĠIreland":9145,"Ġdanger":9146,"stract":9147,"isdom":9148,"Even":9149,"Ġ1960":9150,"ĠÂ©":9151,"but":9152,"stein":9153,"íĮĮíĬ¸":9154,"Ġobservations":9155,"ìĬ¤ê°Ģ":9156,"ĠLanguage":9157,"56":9158,"Ġprincip":9159,"lights":9160,"while":9161,"ĠDespite":9162,"Ġíĸīë³µ":9163,"Ġê²°ìłľ":9164,"87":9165,"Ġstring":9166,"wo":9167,"Ġru":9168,"Ġsport":9169,"ĠìĺĪìłķìĿ´ëĭ¤":9170,"ĠMS":9171,"itan":9172,"onia":9173,"isters":9174,"Ġconstitution":9175,"Ġê³Ħìķ½":9176,"Ġcriteria":9177,"ĠSS":9178,"Ġwasn":9179,"Ġviruses":9180,"usive":9181,"ìĿ¸íĬ¸":9182,"Ġproven":9183,"Ġdealing":9184,"ĠìļĶì²Ń":9185,"amination":9186,"Ġsections":9187,"Ġfocusing":9188,"ĠíĶĮëŀ«íı¼":9189,"ĠMad":9190,"ëĿ¼ë§Ī":9191,"ë¥´ê³ł":9192,"ĠSouthern":9193,"Ġcryst":9194,"ĠEmpire":9195,"ìĿ¼ë¶ĢíĦ°":9196,"ìħĺìĿĦ":9197,"bohyd":9198,"ìĤ¬íķŃ":9199,"Ġê°Ĳëıħ":9200,"Ġaffecting":9201,"ĠDoes":9202,"Ġvibr":9203,"ìĬ¤ìĿĺ":9204,"ĠìłĦëĭ¬":9205,"Ġêµ¬ì¶ķ":9206,"comm":9207,"Ġpoison":9208,"ìķĦìĿ´":9209,"ĠPeter":9210,"Ġnewsp":9211,"opic":9212,"Ġëħ¸ëıĻ":9213,"Ġlistening":9214,"ĠBefore":9215,"à¥":9216,"Ġmaps":9217,"Ġresilience":9218,"eut":9219,"ĠNorthern":9220,"utch":9221,"ymph":9222,"erb":9223,"Ġvideos":9224,"Ġscene":9225,"Ġathlet":9226,"rovers":9227,"ìī¬":9228,"ĠCamp":9229,"Ġadds":9230,"ĠJoseph":9231,"Ġserving":9232,"bles":9233,"Ġaddiction":9234,"ĠNative":9235,"Ġâĸ³":9236,"Ġmissing":9237,"Ġgram":9238,"Ġholding":9239,"ìĭ±":9240,"Ġbabies":9241,"Ġburning":9242,"CD":9243,"Ġgained":9244,"Ġdifficulties":9245,"Ġwhatever":9246,"ĠìĬ¤íĬ¸":9247,"ĠìĦłìĪĺ":9248,"Ġphotograph":9249,"quit":9250,"Ġfounded":9251,"arn":9252,"Ġcooling":9253,"ĠìŀĪê²Į":9254,"Ġdestroyed":9255,"Ġgrew":9256,"Ġsupplements":9257,"Ġpresents":9258,"otton":9259,"ĠAcademy":9260,"Ġpanel":9261,"Ġpregnant":9262,"ĠìĦľë¡ľ":9263,"oven":9264,"Ġcomprom":9265,"',":9266,"MA":9267,"íļĮê°Ģ":9268,"Ġboundaries":9269,"rd":9270,"Pre":9271,"ĠJe":9272,"ĠìĿµ":9273,"nam":9274,"íĹĮ":9275,"Ġvariables":9276,"Ġcomputing":9277,"Ġasking":9278,"Ġregulation":9279,"Ġdistributed":9280,"Ġë³´ëĭ¤":9281,"Ġìļ°ë¦¬ê°Ģ":9282,"Ġcompare":9283,"Ġdepartment":9284,"Ġfacility":9285,"Ġìķ¡":9286,"ĠScot":9287,"Ġtargets":9288,"inson":9289,"Ġchrom":9290,"bur":9291,"Ġprotective":9292,"Ã³":9293,"Med":9294,"Ġille":9295,"roat":9296,"Ġowner":9297,"charge":9298,"ì§ĢìĹĲ":9299,"Ġdiscrimination":9300,"ëĮĢíķĻ":9301,"Ġëĵ±ìĹĲ":9302,"Ġintest":9303,"irty":9304,"Ġíį¼":9305,"Ġbringing":9306,"ëłī":9307,"ĠìŀĲë¦¬":9308,"Ġphenomenon":9309,"orders":9310,"Ġeliminate":9311,"ìľ¼ë¡ľìį¨":9312,"Ġantioxid":9313,"ëł¤ê³ł":9314,"etics":9315,"ì¶ľìŀ¥ìķĪë§Ī":9316,"Ġlegislation":9317,"Ġhygien":9318,"Ġintellectual":9319,"Ġìĸ¸ìłľ":9320,"Ġíĭ°":9321,"ëª°":9322,"Ġexamination":9323,"Every":9324,"ĠMag":9325,"ĠWood":9326,"Ġhypothes":9327,"Ġfold":9328,"Ġtexts":9329,"Ġmicrob":9330,"Ġthousand":9331,"ĠPub":9332,"Ġcopper":9333,"ĠAgricult":9334,"ĠBusiness":9335,"Ġrelation":9336,"Ġtut":9337,"ĠGuide":9338,"ëĺĲíķľ":9339,"Ġbreed":9340,"Ġvarieties":9341,"Ġunw":9342,"íķĺëĬĶëį°":9343,"herent":9344,"Ġnose":9345,"Ġ1999":9346,"ĠWhere":9347,"OL":9348,"Ġfrag":9349,"ĠìŀħëĭĪëĭ¤":9350,"Ġgrid":9351,"Ġcompost":9352,"Ġundert":9353,"ë¡ľìĦľ":9354,"Ġê´Ģê´ĳ":9355,"ĩĮ":9356,"Ġë¬¸ìłľê°Ģ":9357,"Ġìĺ¬ëĿ¼":9358,"Ġdomain":9359,"Ġflexibility":9360,"how":9361,"Ġmice":9362,"Ġestimates":9363,"ìłģìĿ´":9364,"Ġfest":9365,"Ġdoi":9366,"Ġìĩ¼":9367,"ĠíĶĦë¡ľìłĿ":9368,"íķĺëıĦë¡Ŀ":9369,"Ġfro":9370,"Ġprocessed":9371,"Ġassociation":9372,"BA":9373,"ĠíļĮìĤ¬":9374,"Ġvote":9375,"ëħķ":9376,"Ġmanufacturers":9377,"Ġsharp":9378,"ĠìĽĢ":9379,"ĠStart":9380,"Of":9381,"Ġfunctioning":9382,"Ġtub":9383,"Ġdaughter":9384,"Ġmm":9385,"Ġcomplicated":9386,"êµŃìĿĺ":9387,"Ġê·¸ëłĩê²Į":9388,"íķľëĭ¤ê³ł":9389,"See":9390,"ì´Į":9391,"ĠAnn":9392,"Ġmarketing":9393,"Ġworkshe":9394,"PT":9395,"Ġprofound":9396,"Ġtrip":9397,"Ġchoosing":9398,"Ġchances":9399,"Ġmic":9400,"Ġplanting":9401,"Ġminimize":9402,"Ġlighting":9403,"Ġthermal":9404,"sey":9405,"ushed":9406,"Ġaward":9407,"ìłľíĴĪ":9408,"ĠAvoid":9409,"Ġsession":9410,"ĠBrazil":9411,"ĠìķĦë¦Ħ":9412,"Ð¾":9413,"called":9414,"ogether":9415,"Ġinfect":9416,"ëĲĺë©°":9417,"Ġì¶©ë¶Ħ":9418,"Ġhazard":9419,"ĠìŀĲëıĻì°¨":9420,"ĠìķĬìķĦ":9421,"ĠSciences":9422,"abil":9423,"plant":9424,"ìĹĲìĦľìĿĺ":9425,"Ġapproved":9426,"Ġeducators":9427,"Ġissued":9428,"íķľëĭ¤ëĬĶ":9429,"Ġaccommod":9430,"Ġrecover":9431,"ibl":9432,"ruption":9433,"Ġruns":9434,"ĠìĤ¬ê³ł":9435,"Fi":9436,"amine":9437,"Ġcategory":9438,"Ġë¶Ģëĭ´":9439,"een":9440,"Ġliteracy":9441,"Ġinitiatives":9442,"ĠìĿĺê²¬":9443,"Ġflower":9444,"Ġìĭłê³ł":9445,"ĠNetwork":9446,"Ġnegot":9447,"Ġneur":9448,"ctor":9449,"ih":9450,"ëĭ¥":9451,"Ġabnormal":9452,"Ġoverwhel":9453,"Ġremind":9454,"Ġdecor":9455,"Ġecosystems":9456,"Ġracial":9457,"Ġtrauma":9458,"gs":9459,"Ġarrived":9460,"ĠëĤĺëĿ¼":9461,"Ġparas":9462,"ortion":9463,"Ġauton":9464,"Ġsubstantial":9465,"Ġtroops":9466,"ĠYear":9467,"Ġnest":9468,"Ġìĭľíĸī":9469,"ì²Ļ":9470,"íĨ¡":9471,"Ġanalys":9472,"Ġroute":9473,"Ġë°ĽìĿĢ":9474,"Ġê°Ģìł¸":9475,"ĠìĿ¸ìłķ":9476,"ĠBoard":9477,"Ġblow":9478,"ĠSpain":9479,"ìĩ":9480,"ë¦¬ìĿĺ":9481,"Ġcontained":9482,"ĠValley":9483,"ĠBig":9484,"Ġìĭľê°ĦìĿĦ":9485,"Ġpra":9486,"http":9487,"ìŀ¥ìĹĲ":9488,"ìĽĮíģ¬":9489,"ê¿":9490,"ìĿ´íģ¬":9491,"Ġë¹¨":9492,"Ġbreeding":9493,"Ġhistoric":9494,"Ġphysics":9495,"ĠWord":9496,"ĠëŁ¬":9497,"ëĮĢíķĻêµĲ":9498,"Ġë§Īì§Ģë§ī":9499,"ixture":9500,"Ġíķľë²Ī":9501,"Ġë¶Ļ":9502,"Ġcardiovascular":9503,"Ġíİ¸ìĿĺ":9504,"Ġefficiently":9505,"Ġartist":9506,"ëĤ¬ëĭ¤":9507,"Ġê¸°íĥĢ":9508,"ĠBab":9509,"Ġengineers":9510,"Ġcomments":9511,"Ġìĸ¼êµ´":9512,"Don":9513,"aired":9514,"ĠìķĬìķĺëĭ¤":9515,"Ġfung":9516,"heast":9517,"ì¶Ķì²ľ":9518,"Ġavailability":9519,"ĠRoyal":9520,"fts":9521,"Ġpapers":9522,"Ġsacr":9523,"anta":9524,"Ġblind":9525,"occ":9526,"Ġrivers":9527,"ĠNon":9528,"Ġhydro":9529,"ĠCommunity":9530,"Ġorient":9531,"Ġmineral":9532,"ĠLearn":9533,"ĠAge":9534,"ugh":9535,"Ġwebsites":9536,"Ġexciting":9537,"Ġë§Įëĵł":9538,"icago":9539,"Ġìĥģëĭ´":9540,"Ġê³łë¯¼":9541,"itals":9542,"ì¹´ì§Ģëħ¸":9543,"Ġrobust":9544,"Cons":9545,"pan":9546,"Ġhem":9547,"Ġshot":9548,"ëĿ¼ìļ°":9549,"Ġspok":9550,"ivered":9551,"ĠSil":9552,"Ġspectrum":9553,"Ġspecialized":9554,"Ġwithd":9555,"Ġconsideration":9556,"Ġdur":9557,"Ã¶":9558,"Ġappoint":9559,"ĠëĮĢìĥģìľ¼ë¡ľ":9560,"Ġìłķìĥģ":9561,"erving":9562,"Today":9563,"âĪ":9564,"Ġìĭľê°ĦìĿ´":9565,"Ġjoined":9566,"Ġë§¡":9567,"Ġì£¼ë³Ģ":9568,"ĠSpecial":9569,"Ġhardware":9570,"ìĿ¼ê¹Įì§Ģ":9571,"Ġtap":9572,"Ġflexible":9573,"Ġov":9574,"Ð°":9575,"ĠìłĦìŀĲ":9576,"Ġcentre":9577,"Ġrealize":9578,"Ġadvent":9579,"ĠChange":9580,"Ġsus":9581,"ë§ĮëĤ¨":9582,"Ġautism":9583,"Ġdrawn":9584,"Ġtrouble":9585,"Ġë¶Ģì¡±":9586,"ostic":9587,"Ġagents":9588,"Ġë§ŀì¶":9589,"Ġ189":9590,"ĠLED":9591,"Ġregardless":9592,"Ġrank":9593,"ìĺ¥":9594,"Ġhandling":9595,"Ġvictims":9596,"Ġships":9597,"ĠTimes":9598,"ìĬ¤ëŁ½":9599,"apse":9600,"ĠCommittee":9601,"ëª»":9602,"íķĺìĭł":9603,"cm":9604,"ë¶ĢëĬĶ":9605,"ĠìĥģìĬ¹":9606,"Ġconfig":9607,"Ġcontributing":9608,"aning":9609,"iological":9610,"ë®¤":9611,"Ġshock":9612,"ëĲĺìĹĪìĬµëĭĪëĭ¤":9613,"ĠíĮĮìĿ¼":9614,"Ġclient":9615,"Ġjump":9616,"esides":9617,"oples":9618,"ĠKingdom":9619,"ĠëĶ°ëĿ¼ìĦľ":9620,"Ġhappening":9621,"2016":9622,"Ġìµľê³łìĿĺ":9623,"ĠSometimes":9624,"Ġcoverage":9625,"ë¡Ńê²Į":9626,"she":9627,"Ġtheme":9628,"Ġdefense":9629,"ĠJohns":9630,"Ġpriorit":9631,"Ġestimate":9632,"MP":9633,"HA":9634,"Ġpeak":9635,"Ġdose":9636,"Ġìłķìĭł":9637,"azon":9638,"Ġstreet":9639,"Ġske":9640,"Ġìĥģëĭ¹":9641,"ĠLook":9642,"Ġflour":9643,"Ġstrategic":9644,"ìĦ¸ê³Ħ":9645,"Ġbranches":9646,"ĠPolic":9647,"ëĭ¤ìļ´":9648,"ĠOh":9649,"heimer":9650,"Ġevolved":9651,"Ġencouraged":9652,"usc":9653,"Ġturb":9654,"íĬľ":9655,"Ġsought":9656,"ogs":9657,"adder":9658,"Ġìµľìĭł":9659,"íİ´":9660,"Ġtube":9661,"Ġformula":9662,"Ġforg":9663,"Ġease":9664,"ulty":9665,"ĠEqu":9666,"Ġobserve":9667,"CP":9668,"Ġsensitivity":9669,"aren":9670,"Ġtons":9671,"UN":9672,"kr":9673,"ê±°ëŀĺ":9674,"Ġìłľê³µíķ©ëĭĪëĭ¤":9675,"Ġcoastal":9676,"mers":9677,"Ġring":9678,"Ġdigestive":9679,"ë¹ł":9680,"Ġsupposed":9681,"Ġsizes":9682,"ĠWorks":9683,"Ġnarrative":9684,"ìķŀ":9685,"Ġê°Ģì§Ħ":9686,"ĠíĺĦìĭ¤":9687,"Ġliber":9688,"Ġarts":9689,"Ġextend":9690,"ĠìĤ¼ìĦ±":9691,"Ġdestruction":9692,"pes":9693,"Ġìłľì£¼":9694,"print":9695,"Ġwindows":9696,"eren":9697,"Ġfats":9698,"aying":9699,"Ġinsight":9700,"ĠìŀĪìĸ´ìĦľ":9701,"Ġclients":9702,"Ġeastern":9703,"ĠEastern":9704,"ctu":9705,"itual":9706,"esis":9707,"ĠìĬ¤íı¬ì¸ł":9708,"Ġcompens":9709,"ĠëĤĺìĺ¤":9710,"iture":9711,"Ġsuscept":9712,"Ġhoney":9713,"ìŀĪëĭ¤":9714,"ê¶ĮìĿĦ":9715,"produ":9716,"Ġprofit":9717,"Ġplayer":9718,"ĠScott":9719,"Ġchest":9720,"Ġdepart":9721,"Ġdefect":9722,"Ġbiodiversity":9723,"Ġbarriers":9724,"Ġsatisf":9725,"Ġfatigue":9726,"Ġíİ¼":9727,"ĠFollow":9728,"Ġìłľê°Ģ":9729,"ĠGal":9730,"Ġfatty":9731,"Ġcompound":9732,"Ġëħ¹":9733,"Ġdriven":9734,"Ġexpectations":9735,"Ġtheories":9736,"haust":9737,"TP":9738,"ĠMill":9739,"istical":9740,"Ġseconds":9741,"Ġvaccines":9742,"ocial":9743,"Ġchlor":9744,"ìłĦìŀĲ":9745,"Because":9746,"Ġintensity":9747,"acco":9748,"Or":9749,"TV":9750,"Ġdependent":9751,"Ġinequ":9752,"Ġtheore":9753,"Ġemerging":9754,"Ġended":9755,"medi":9756,"ëĮĢìĹĲ":9757,"Ġstre":9758,"ĠIns":9759,"opyright":9760,"box":9761,"Ġhidden":9762,"Ġactively":9763,"ĠAsian":9764,"Ġdisaster":9765,"ĠíĻķë³´":9766,"ê°Ģë¥¼":9767,"Ġacute":9768,"ĠìĹ´ë¦°":9769,"Ġë°°ìĨ¡":9770,"Ġcriminal":9771,"ĠìķĪìłķ":9772,"Ġsessions":9773,"Understanding":9774,"ê»ĺìĦľ":9775,"Ġê²¨":9776,"emia":9777,"íĵ¨íĦ°":9778,"Ġworkplace":9779,"sm":9780,"ĠìĹŃìĤ¬":9781,"Ġfalls":9782,"ìĹĺ":9783,"reated":9784,"Ġchart":9785,"Get":9786,"ĠâĨ":9787,"Ġìĺµ":9788,"ë¬¼ìĿ´":9789,"ĠDev":9790,"Ġangle":9791,"ĠëĲĺê³ł":9792,"icity":9793,"Ġstyles":9794,"Ġdecreased":9795,"Ġquantum":9796,"Ġexplanation":9797,"world":9798,"Ġmoves":9799,"ĠFamily":9800,"ĠSimilar":9801,"Ġsafely":9802,"akistan":9803,"ython":9804,"Ġflag":9805,"ĠíĿĶ":9806,"Ġmeaningful":9807,"Ġìľłëªħ":9808,"ìłķì±ħ":9809,"ì¹ĺê°Ģ":9810,"Ġaimed":9811,"Ġ1998":9812,"Ġphoto":9813,"Ġê³µìĭĿ":9814,"Ġhonor":9815,"Ġwound":9816,"Ġproof":9817,"eness":9818,"otes":9819,"Ġperception":9820,"Ġbeings":9821,"Ġfacilitate":9822,"Ġë°ĽìĿĦ":9823,"efits":9824,"Ġhorses":9825,"Ġadverse":9826,"Ġê°Ģê¹Į":9827,"bridge":9828,"Ġenabling":9829,"Ġê¸°ê´Ģ":9830,"Ġcolumn":9831,"Ġautomatically":9832,"Ġstead":9833,"Ġëĵ£":9834,"Ġintent":9835,"Ġarchae":9836,"Ġreput":9837,"Ġbrows":9838,"Ġmarried":9839,"âĳ":9840,"American":9841,"84":9842,"ë§Įíģ¼":9843,"Ġcomposed":9844,"Ġstrongly":9845,"Ġhealthier":9846,"Ġcorner":9847,"ĠProp":9848,"ĠìķĦì£¼":9849,"ĠKorea":9850,"Ġrepresentation":9851,"Ġdelivered":9852,"Ġimplementing":9853,"Ġescape":9854,"from":9855,"Ġê²°êµŃ":9856,"Ġì°¸ìĦĿ":9857,"Ġsilver":9858,"Le":9859,"Ġìłľê³µíķĺëĬĶ":9860,"Ġtick":9861,"Ġindicated":9862,"Ġscreening":9863,"Ġë£¨":9864,"ĠItalian":9865,"ĠpH":9866,"Ġsatellite":9867,"opes":9868,"Ġheavily":9869,"ĠThough":9870,"Ġmortality":9871,"asty":9872,"ultane":9873,"ĠVictor":9874,"Ġannounced":9875,"Ġholes":9876,"Ġprominent":9877,"Ġstatistics":9878,"ittle":9879,"ĠHoly":9880,"Ġíģ´ë¦Ń":9881,"Ġnutritional":9882,"Ġphosph":9883,"ìĪĺìĿĺ":9884,"Ġentertain":9885,"Ġanywhere":9886,"ìĿ´ê¸°":9887,"Are":9888,"Ġgro":9889,"Ġì°¸ê³ł":9890,"ĠTeac":9891,"71":9892,"ĠLow":9893,"Ġê²¬":9894,"ĠEngineering":9895,"IR":9896,"ĠíĿĲ":9897,"ĠìĪĺìĿµ":9898,"Ġsubsequent":9899,"Ġbigger":9900,"ê³¤":9901,"ĠíĮĲëĭ¨":9902,"Ġìĸ´ëłµ":9903,"resent":9904,"Ġlaser":9905,"Ġweakness":9906,"Ġ33":9907,"Ġpassage":9908,"Ġlimitations":9909,"ëħĦìĹĲ":9910,"ĠÂ·":9911,"ĠMult":9912,"Ġidentification":9913,"ĠLead":9914,"Ġguard":9915,"Ġrab":9916,"Ġpros":9917,"Am":9918,"Ġë°¤":9919,"?\"":9920,"ìĸ´ë¥¼":9921,"cher":9922,"Ġìļķ":9923,"olesc":9924,"Ġwarning":9925,"ë¦¿":9926,"Ġrobot":9927,"Ġpassing":9928,"urric":9929,"elesc":9930,"Ġid":9931,"Ġapps":9932,"Ġdriver":9933,"ìĽĲìĹĲ":9934,"Ġstores":9935,"ĠMichael":9936,"ega":9937,"Ġagreed":9938,"Ġparameters":9939,"Ġroads":9940,"Ġequally":9941,"Ġinitially":9942,"Ġcarrying":9943,"FA":9944,"Ġamazing":9945,"brid":9946,"Ġconstructed":9947,"ĠUV":9948,"Ġarray":9949,"Ġnitrogen":9950,"Ġbees":9951,"Ġfemales":9952,"arents":9953,"Ġcorrel":9954,"¬ìĺģ":9955,"Ġdefe":9956,"ĠìĤ´íİ´":9957,"Ġrhyth":9958,"Ġenhancing":9959,"Ġmeasuring":9960,"Ġproportion":9961,"Ġitem":9962,"ëıĦëĬĶ":9963,"Ġdivision":9964,"Ġìĺģìĥģ":9965,"Ġmarks":9966,"Ġreaching":9967,"Ġì°¨ëŁī":9968,"Ġdollars":9969,"Ġgrows":9970,"ë°©ë²ķ":9971,"ĠíĬ¹ì§ķ":9972,"Ġlaunch":9973,"iah":9974,"Ġwine":9975,"ìĭľê³ł":9976,"ĠList":9977,"Ġë³´ëĬĶ":9978,"¤ëĭ¤":9979,"ĠCentre":9980,"Ġrelie":9981,"ìĹĨëĬĶ":9982,"Ġpin":9983,"Ġsmell":9984,"Ġdeeply":9985,"ĠImpro":9986,"º¼":9987,"People":9988,"Ġimaging":9989,"teen":9990,"Ġvolcan":9991,"orph":9992,"Ġtwenty":9993,"Before":9994,"gov":9995,"itting":9996,"Ġê°ĲìĨĮ":9997,"Ġdates":9998,"Ġempt":9999,"Ġmales":10000,"security":10001,"Ġcontrovers":10002,"Ġrespectively":10003,"Ġmaintained":10004,"km":10005,"atial":10006,"Ġvocabulary":10007,"Ġuniversal":10008,"Ġtrigger":10009,"Ġdisabilities":10010,"Ġexclus":10011,"Ġê°ĳ":10012,"Ġplus":10013,"flamm":10014,"Ġreporting":10015,"ì»¬":10016,"Reg":10017,"ê¸°ìŀĲ":10018,"advant":10019,"ë§Ľ":10020,"Ġsurge":10021,"df":10022,"Ġpounds":10023,"Ġabsence":10024,"ĠëģĮ":10025,"Ġthereby":10026,"Ġjoy":10027,"rier":10028,"esh":10029,"ë²¨":10030,"ady":10031,"Ġbiom":10032,"otherapy":10033,"Ĩį":10034,"illa":10035,"Ġalter":10036,"Ġspin":10037,"ĠChristmas":10038,"ĠCarolina":10039,"Ġthrive":10040,"azine":10041,"Ġoutdoor":10042,"ĠëĮĢìĿĳ":10043,"Ġmerely":10044,"onym":10045,"eping":10046,"HS":10047,"58":10048,"Ġsched":10049,"Ġìłľì¡°":10050,"ĠGeorg":10051,"Ġnone":10052,"ĠAgency":10053,"Ġtack":10054,"Ġasthma":10055,"Ġtargeted":10056,"ĠLo":10057,"Ġforth":10058,"Ġrocks":10059,"ìĸ´ê°Ģ":10060,"Ġsenior":10061,"ĠIdent":10062,"Ġinn":10063,"Ġinspired":10064,"Ġimagine":10065,"Ġaband":10066,"ĠMach":10067,"ĠìĿ´ìłĦ":10068,"Ġinterpre":10069,"ĠISBN":10070,"Ġpursu":10071,"ĠForest":10072,"Ġbacterial":10073,"ĠConsider":10074,"Ġessentially":10075,"Ġran":10076,"ĠID":10077,"ĠPenn":10078,"ìĿ´ëŀĢ":10079,"ureau":10080,"Ġcontainer":10081,"ìķĺìĬµëĭĪëĭ¤":10082,"Ġsensor":10083,"Ġantibiotics":10084,"Ġmolecular":10085,"Ġë¶ĦìľĦ":10086,"Ġnob":10087,"Ġê³µê²©":10088,"ĠìĿ´ë£¨ìĸ´":10089,"Ġstatements":10090,"Ġradical":10091,"Ġconvey":10092,"ê²¼":10093,"Ġdeclared":10094,"ĠìŀĪê¸°":10095,"Ġê²½ìĺģ":10096,"Ġcham":10097,"ressing":10098,"ìĸ´ëĤľ":10099,"pling":10100,"Ġremoving":10101,"ĠEc":10102,"73":10103,"ĠPet":10104,"uh":10105,"alities":10106,"Ġcaptured":10107,"Ġíĳľìĭľ":10108,"Ġremarkable":10109,"Ġelection":10110,"Ġfishing":10111,"Ġimprovements":10112,"Ġgrains":10113,"Ġcompris":10114,"Ġfuels":10115,"Ġê½ĥ":10116,"ĠProcess":10117,"Ġreveal":10118,"ano":10119,"ĠìķĦëĭĪëĭ¤":10120,"olving":10121,"ĠLim":10122,"ontal":10123,"CA":10124,"lishing":10125,"ĠWi":10126,"ĠWithout":10127,"ĠViet":10128,"Ġkeeps":10129,"Ġconfirmed":10130,"Ġê°ĻìĬµëĭĪëĭ¤":10131,"ë§ĮìĿĺ":10132,"Ġattempts":10133,"ĠìłĦíĻĶ":10134,"ãĨį":10135,"Ġinher":10136,"Ġnavigate":10137,"Ġparallel":10138,"ĠìĹ°ëĿ½":10139,"ĠFinally":10140,"ĠFund":10141,"Ġaudio":10142,"Ġì¡°ê±´":10143,"ĠPot":10144,"ëıĻìĤ°":10145,"Ġbiology":10146,")âĢĻ":10147,"Ġsavings":10148,"Ġcreatures":10149,"yal":10150,"Ġouter":10151,"Ġpestic":10152,"Ġë§Įì¡±":10153,"Ġdrivers":10154,"Ġintroduce":10155,"íķĻìĥĿ":10156,"ĠBrown":10157,"ĠEst":10158,"Ġìłľìĭľ":10159,"ĠChicago":10160,"Ġadvis":10161,"etary":10162,"Ġachieving":10163,"Ġgrant":10164,"ëĭ¨ì²´":10165,"ĠSupport":10166,"ĠType":10167,"Ġflav":10168,"ĠìĽĢì§ģ":10169,"ĠZeal":10170,"Ġblockchain":10171,"Ġìī¬":10172,"ĠColl":10173,"ëĬĶì§Ģ":10174,"Ġë¯¼ì£¼":10175,"ìħľ":10176,"zheimer":10177,"Ġtemple":10178,"Ġshed":10179,"ecess":10180,"Įĵê¸Ģ":10181,"ìłĲìĿ´":10182,"Ġcoc":10183,"Ġmoderate":10184,"ìĽ¨":10185,"Ġìºł":10186,"Ġíĺľ":10187,"ë§İìĿĢ":10188,"ĠìĿ¼ìĿĦ":10189,"Ġfascinating":10190,"Ġunusual":10191,"iral":10192,"Ġinterpretation":10193,"levision":10194,"Ġìĭ¸":10195,"ĠHosp":10196,"72":10197,"aded":10198,"ĠëıĻìĭľìĹĲ":10199,"Ġapplying":10200,"Ġíķµìĭ¬":10201,"ìĭłë¬¸":10202,"Ġcarbohyd":10203,"Ġcort":10204,"ë³´ëĬĶ":10205,"rot":10206,"Ġmir":10207,"ĠMer":10208,"ĠLight":10209,"Ġê°Ļëĭ¤":10210,"ĠìŀĶ":10211,"ĠìĦĿ":10212,"Ġ48":10213,"Ġscr":10214,"ĠIrish":10215,"Ġintegrity":10216,"asant":10217,"avery":10218,"ĠìĺĪë°©":10219,"Ġdevelopers":10220,"Ġcounsel":10221,"ĠFire":10222,"íķľíİ¸":10223,"EE":10224,"ĠíķŃìĥģ":10225,"Ġplanned":10226,"neys":10227,"Ġweapons":10228,"Ġrarely":10229,"ĠTre":10230,"Ġcompetitive":10231,"53":10232,"Ġpreserve":10233,"ìĦ±ìĹĲ":10234,"Ġenthus":10235,"oir":10236,"Ġharder":10237,"ounce":10238,"Ġìĸ´ë¦°ìĿ´":10239,"Ġmetals":10240,"Ġmusical":10241,"Ġê°ĢëĬ¥íķ©ëĭĪëĭ¤":10242,"oT":10243,"ĠResources":10244,"Ġconsumed":10245,"rance":10246,"taining":10247,"etime":10248,"Ġinvestigation":10249,"plete":10250,"Ġpublication":10251,"econ":10252,"OM":10253,"Ġwheel":10254,"Ġìŀ¬ë°°íı¬":10255,"ener":10256,"ĠPop":10257,"Ġcomplexity":10258,"Ġupdated":10259,"Ġlosses":10260,"rypt":10261,"ĠAR":10262,"iva":10263,"ĠìĹŃíķłìĿĦ":10264,"Ġindigenous":10265,"Ġëĭ¨ê³Ħ":10266,"ĠíĻĪíİĺìĿ´ì§Ģ":10267,"gical":10268,"Ġhormones":10269,"Ġcircle":10270,"unicip":10271,"rating":10272,"ĠMethod":10273,"ĠSystems":10274,"elfare":10275,"rary":10276,"ĠAst":10277,"Ġê·¸ë¦¼":10278,"rays":10279,"Ġboys":10280,"Ġentered":10281,"ĠParty":10282,"Ġaddressed":10283,"Ġkilomet":10284,"igan":10285,"2015":10286,"Ġpassion":10287,"ê°Ģê°Ģ":10288,"kins":10289,"ìĹĪê³ł":10290,"rous":10291,"Ġëª¨ìĬµìĿĦ":10292,"Ġexceed":10293,"Ġê²½ì°°":10294,"raine":10295,"ëĮĢê°Ģ":10296,"oli":10297,"ĠSup":10298,"ani":10299,"ali":10300,"Ġbehavioral":10301,"Ġsitting":10302,"ĠëĤ´ëł¤":10303,"ĠFacebook":10304,"ĠFort":10305,"Ġasp":10306,"theless":10307,"ëįĶëĿ¼ëıĦ":10308,"Ġmaybe":10309,"ĠZealand":10310,"ptom":10311,"Ġswit":10312,"Ġtaxes":10313,"Ġquiet":10314,"Ġneither":10315,"Ġemotion":10316,"Ġdetected":10317,"TH":10318,"ĠëĮĢì¶ľ":10319,"íļĮëĬĶ":10320,"ictionary":10321,"Ġaccurately":10322,"Despite":10323,"iary":10324,"atively":10325,"ĠDigital":10326,"ĠìĿ´ë²¤íĬ¸":10327,"Ġwriters":10328,"Ġpersonality":10329,"Ġfinished":10330,"ëłĪìĬ¤":10331,"Ġepis":10332,"Ġmanual":10333,"ĠìĿ´ìĥģìĿĺ":10334,"ĠAmong":10335,"Ġminute":10336,"ĠProtection":10337,"ums":10338,"Per":10339,"OP":10340,"ĠRichard":10341,"ĠPakistan":10342,"mentia":10343,"Ġampl":10344,"ĠOrganization":10345,"oids":10346,"Ġcontributions":10347,"ëĶ°":10348,"Ġìµľì´Ī":10349,"Ġecological":10350,"inf":10351,"Ġroughly":10352,"ĠìĹħëį°ìĿ´íĬ¸":10353,"ĠìµľìĨĮ":10354,"êµ¬ìļĶ":10355,"Ġ1000":10356,"Ġemphasis":10357,"agraph":10358,"Ġpla":10359,"Ġdiscom":10360,"Ġduration":10361,"ĠSuper":10362,"Ġhygiene":10363,"ĠìĽĥ":10364,"Ġhusband":10365,"ĠMoon":10366,"Ġcann":10367,"ì½ľê±¸":10368,"Ġê²©":10369,"Ġvariations":10370,"Ġritual":10371,"ì´ī":10372,"Ġcommission":10373,"ĠìĨĮìŀ¬":10374,"ĠYoung":10375,"Ġbroader":10376,"ĠWho":10377,"ì§Ŀ":10378,"ĠAdministration":10379,"ì¿":10380,"ĠMel":10381,"êµ¬ë¥¼":10382,"Ġprohib":10383,"Ġexhaust":10384,"íĭ±":10385,"Ġpurs":10386,"Co":10387,"64":10388,"Ġsomewhat":10389,"ìĺģìĥģ":10390,"rav":10391,"Ġarrest":10392,"ë¯¼êµŃ":10393,"ìĹħìĿĦ":10394,"Ġscar":10395,"ĠDirector":10396,"itarian":10397,"Ġearthqu":10398,"words":10399,"Ġmathematics":10400,"Ġcul":10401,"Ġdrought":10402,"Using":10403,"69":10404,"Ġlens":10405,"Ġneighborhood":10406,"asy":10407,"Ġempower":10408,"Ġregulatory":10409,"Ġcab":10410,"ema":10411,"tles":10412,"Ġcontributed":10413,"ĠíĻľìĦ±":10414,"!âĢĿ":10415,"ìĨĮê°ľ":10416,"Ġcoron":10417,"Ġwisdom":10418,"Ġslavery":10419,"ĠNaz":10420,"íŀĮ":10421,"Ġdiscussions":10422,"ained":10423,"heric":10424,"riz":10425,"ĠëĲĺìĹĪëĭ¤":10426,"íļĮìĤ¬":10427,"Ġë°ĶëĿ¼":10428,"ĠOnline":10429,"ĠAtlantic":10430,"eenth":10431,"Ġmg":10432,"Ġ55":10433,"74":10434,"Ġinterface":10435,"ĠAND":10436,"Ġconcerning":10437,"Ġdefend":10438,"Ġsubt":10439,"ëĿ¼ìļ´":10440,"Ġnewly":10441,"Ġfed":10442,"Ġdetermining":10443,"Ġfriendly":10444,"Ġaccompan":10445,"Ġbranch":10446,"osh":10447,"ê°Ģê²©":10448,"ë¶Ģë¥¼":10449,"ĠRom":10450,"ê°ľìĿ¸":10451,"ĠMicrosoft":10452,"ìŀĲëĵ¤ìĿĺ":10453,"ĠSwed":10454,"Ġadm":10455,"ì¼ĢíĮħ":10456,"81":10457,"ĠOper":10458,"ĠIII":10459,"ĠìĤ¬ìļ©íķĺëĬĶ":10460,"Ġusual":10461,"Ġdeficiency":10462,"Ġperforming":10463,"Ġë³´ê¸°":10464,"Ġlib":10465,"urolog":10466,"Ġaged":10467,"Ġadj":10468,"ustainable":10469,"class":10470,"Ġcompliance":10471,"Ġforming":10472,"Ġë¬¸ìłľë¥¼":10473,"Ġhumanity":10474,"Ġtropical":10475,"íĩ´":10476,"ĠëĶĶì§ĢíĦ¸":10477,"Ġcontribution":10478,"Ġdance":10479,"Ġflows":10480,"ao":10481,"trans":10482,"Ġuniform":10483,"eting":10484,"Ġsigned":10485,"ĠìĹ¼":10486,"apes":10487,"Ġwider":10488,"Ġminimal":10489,"Ġìĺ¤ìłĦ":10490,"Ġscript":10491,"íķĺëĤĺ":10492,"Ġsimultane":10493,"ë§¨":10494,"Ġìłľê±°":10495,"Ear":10496,"ĠëĤĺìĺ¨":10497,"Ġpets":10498,"cking":10499,"ìĿ´ìŀĲ":10500,"Ġlaid":10501,"Ġtranslation":10502,"allow":10503,"eries":10504,"aws":10505,"ĠPlay":10506,"ĠLess":10507,"Ġì§Ģìłģ":10508,"Ġìĭ¶ìĿĢ":10509,"Ġsam":10510,"ĠModern":10511,"Ġneutral":10512,"ĠIncre":10513,"hea":10514,"FT":10515,"Ġfairly":10516,"ĠëĮĢíķ´ìĦľ":10517,"Ġlock":10518,"ruit":10519,"greg":10520,"Ġmicrosc":10521,"Ġflavor":10522,"Ġjoints":10523,"Ġfourth":10524,"Ġê¸°ëĬ¥ìĿĦ":10525,"bar":10526,"omer":10527,"Ġcollective":10528,"ì¹´ëĵľ":10529,"ĠíĨµíķ©":10530,"ĠKey":10531,"Ġprogramme":10532,"ura":10533,"ìĺ¤ëĬĺ":10534,"ĠLar":10535,"Ġexamined":10536,"alm":10537,"quir":10538,"uten":10539,"83":10540,"Ġvariation":10541,"Ġpy":10542,"ëĤ´ìļ©":10543,"54":10544,"ìĸ´ìķ¼":10545,"Ġdiscomfort":10546,"Ġì§Ģê¸ī":10547,"Ġlungs":10548,"Ġdisability":10549,"Ġ1997":10550,"sell":10551,"Ġphysically":10552,"Ġceremon":10553,"ëĵ±ë¡Ŀ":10554,"Ġê°ģê°ģ":10555,"html":10556,"ëŁŃ":10557,"ĠTry":10558,"ĠAssess":10559,"Ġ1950":10560,"rey":10561,"ĠEffect":10562,"ëĵľìĭľ":10563,"BM":10564,"ë¦¬ì¦Ī":10565,"ìķĪìłĦ":10566,"ĠMD":10567,"eutic":10568,"52":10569,"Ġgases":10570,"ĠìłĦìĭľ":10571,"Ġquantity":10572,"Ġlake":10573,"Ġexception":10574,"lock":10575,"Ġgrain":10576,"ëª¬":10577,"Ġì²´íĹĺ":10578,"Ġexperimental":10579,"Ġìĭľì¦Į":10580,"Ġsuperior":10581,"owered":10582,"Ġprinted":10583,"Ġinitiative":10584,"Ġë³´ìľł":10585,"ĠAlzheimer":10586,"Ġperm":10587,"ìŀĦìĿĦ":10588,"Ġoxid":10589,"ìľ¼ëĭĪ":10590,"Ġíıīê·ł":10591,"Ġmosquit":10592,"Ġmixture":10593,"Ġjudge":10594,"agon":10595,"Ġconsiderable":10596,"Ġcas":10597,"Ġë°©íĸ¥":10598,"Ġgent":10599,"irms":10600,"Ġcrew":10601,"Ġproceed":10602,"ìłķìĹĲ":10603,"Ġpayment":10604,"Ġìı":10605,"ìĹ°íķ©":10606,"ëŁ´":10607,"Ġopposed":10608,"Ġfeels":10609,"istant":10610,"ĠInvest":10611,"itory":10612,"ĠìĪ¨":10613,"ette":10614,"Ġì°į":10615,"Ġsoul":10616,"ì»¨":10617,"Ġseemed":10618,"ĠíĬ¹ìłķ":10619,"ĠAM":10620,"Ġphysician":10621,"ĠWik":10622,"ëĵľë¦¬":10623,"Ġdiameter":10624,"Ġobservation":10625,"Ġfinger":10626,"Ġì°¸ê°Ģ":10627,"ĠFind":10628,"Ġaging":10629,"Ġê¸°ëĭ¤":10630,"oric":10631,"ĠìķĦì¹¨":10632,"íķ¨ìĿĦ":10633,"ĠíĸīìĤ¬":10634,"51":10635,"Ġtemporary":10636,"berry":10637,"Ġobst":10638,"NC":10639,"Ġë§ĲìĿĦ":10640,"Ġlie":10641,"Ġoccurring":10642,"ĠMartin":10643,"urren":10644,"Ġchannel":10645,"ĠìĦłë³´":10646,"ugg":10647,"ĠUr":10648,"Ġmeth":10649,"ìļ´ëıĻ":10650,"She":10651,"ëĵ¤ìĹĲ":10652,"ĠPDF":10653,"ĠAnalysis":10654,"Ġevil":10655,"ĠIslam":10656,"ĠAsk":10657,"Ġì´ī":10658,"Ed":10659,"ĠëıĦìŀħ":10660,"ials":10661,"ildren":10662,"otype":10663,"Ġcalm":10664,"300":10665,"Ġurine":10666,"ailed":10667,"ĠDistrict":10668,"ëĬĶëį°ìļĶ":10669,"ĠVer":10670,"Ġëį¤íĶĦ":10671,"ĠAuthor":10672,"ĠíİĺìĿ´ì§Ģ":10673,"Ġhabitats":10674,"Ġtraits":10675,"Ġpossibilities":10676,"Ġconj":10677,"ĠPrinc":10678,"Ġscientist":10679,"Ġscope":10680,"Ġemerged":10681,"Ġom":10682,"Ġcaught":10683,"Ġìĺ¤ëŀĺ":10684,"Ġbag":10685,"ë¹Ħë¥¼":10686,"Ġdecay":10687,"Ġassume":10688,"ĠìĦ¬":10689,"ĠíĿ¥":10690,"ĠPlease":10691,"Ġelder":10692,"Ġregulate":10693,"ĠìĻ¸êµŃ":10694,"ĠìłľëĮĢë¡ľ":10695,"oster":10696,"Ġranging":10697,"LS":10698,"Ġorbit":10699,"anes":10700,"Ġsummary":10701,"Ġinstant":10702,"ĠíĨµíķľ":10703,"Ġstuff":10704,"Ġfarms":10705,"Ġcovering":10706,"itchen":10707,"ì§Ģì§Ģ":10708,"Ġpriority":10709,"Ġëª¨ë°ĶìĿ¼":10710,"2014":10711,"ĠDen":10712,"Ġìŀħëł¥":10713,"Ġappeal":10714,"Ġislands":10715,"Ġì¼ĢìĿ´":10716,"ê·¸ë£¹":10717,"Ġcelebrate":10718,"ĠìĪľê°Ħ":10719,"Ġfalling":10720,"Ġprecision":10721,"ĠRock":10722,"Ġinstallation":10723,"Ġunp":10724,"unning":10725,"Ġdimens":10726,"ì©":10727,"ĠUk":10728,"ENT":10729,"ìĿ´ìħĺ":10730,"Ġdairy":10731,"ìĿ¸íĦ°":10732,"Ġspots":10733,"Ġagent":10734,"Ġfaces":10735,"Ġmodified":10736,"Ġtransactions":10737,"peror":10738,"ĠUt":10739,"ĠNever":10740,"Ġofficers":10741,"ĠReading":10742,"ëıĦìĭľ":10743,"ìĵ°":10744,"ëħĦê°Ħ":10745,"Ġrestric":10746,"Ġhence":10747,"Ġimproves":10748,"Ġsaving":10749,"Ġspray":10750,"Ġinfant":10751,"Ġstations":10752,"ogenic":10753,"Col":10754,"Ġisolated":10755,"Ġgalax":10756,"ĠìļĶê¸Ī":10757,"Ġplot":10758,"ĠìľłëŁ½":10759,"Ġpopularity":10760,"ĠEp":10761,"Ġherb":10762,"Ġì¹¼":10763,"Ġsectors":10764,"Ġcure":10765,"Ġtables":10766,"ĠRemember":10767,"82":10768,"Ġinfluences":10769,"Ġì»¬":10770,"ĠìłĦê¸°":10771,"Ġenhanced":10772,"ĠBill":10773,"egu":10774,"Also":10775,"ĠPrevention":10776,"Ġdegrad":10777,"Ġenemy":10778,"Ġìļ°ë¦¬ìĿĺ":10779,"Ġbutton":10780,"Ġincorporate":10781,"imm":10782,"compass":10783,"night":10784,"Ġê³µìĹ°":10785,"ĠMen":10786,"ê½":10787,"urated":10788,"ë¹Ī":10789,"Ġassigned":10790,"rip":10791,"ĠêµĲìĪĺ":10792,"esium":10793,"Ġì±":10794,"ĠCD":10795,"oves":10796,"including":10797,"Ġillegal":10798,"ĠìłĦíĨµ":10799,"Ġargue":10800,"Ġê¹Į":10801,"ailable":10802,"Com":10803,"ë§¥":10804,"Ġtension":10805,"ĠëŃĲ":10806,"57":10807,"Ġrose":10808,"ĠTreatment":10809,"Ġmathematical":10810,"ĠBack":10811,"ì§ĢìĿĺ":10812,"Ġê°Ħëĭ¨":10813,"ìĭ¸":10814,"Ġì¢ħë¥ĺ":10815,"ìĿ´ë²Ħ":10816,"íĬ¹íŀĪ":10817,"ĠAmazon":10818,"Ġcotton":10819,"riptions":10820,"Rem":10821,"Ġshaped":10822,"~~":10823,"°ëĭ¤":10824,"ĠëĵľëŁ¬":10825,"ĠRegular":10826,"Ġì¤ĳìķĻ":10827,"Ġsoph":10828,"Ġphrase":10829,"ĠTop":10830,"OD":10831,"atile":10832,"ourse":10833,"rolled":10834,"Where":10835,"ê·¸ë¦¬ê³ł":10836,"Ġclaimed":10837,"Ġabsorb":10838,"ĠìĤ¬ë¡Ģ":10839,"ĠIndigenous":10840,"Tra":10841,"izers":10842,"Ġ%":10843,"ĠDar":10844,"ĠDou":10845,"Ġ39":10846,"Ġìŀ¬ë¯¸":10847,"Ġproved":10848,"ìĿ´ì§Ģë§Į":10849,"Ġë¶Ģëª¨":10850,"Ġpowder":10851,"ĠModel":10852,"Ġfinds":10853,"Ġìļ°ìĪĺ":10854,"Ġsuffered":10855,"ographical":10856,"def":10857,"Ġtransformation":10858,"lete":10859,"ĠHill":10860,"ĠHT":10861,"play":10862,"Ġíĺģìĭł":10863,"assion":10864,"Ġexhibit":10865,"2021":10866,"Yes":10867,"Ġye":10868,"Ġê³¼ê±°":10869,"Ġworst":10870,"isted":10871,"ë£Įë¥¼":10872,"ulpt":10873,"Ġstones":10874,"Ġpromotes":10875,"Â®":10876,"mod":10877,"Ġê·¸ëĮĢë¡ľ":10878,"Ġë©Ģ":10879,"ĠìĿ¸ì²ľ":10880,"Ġê·¸ëŁ°ëį°":10881,"Ġattach":10882,"har":10883,"Ġirrig":10884,"ĠíĶĦë¦¬":10885,"Ġcounty":10886,"apor":10887,"semb":10888,"Ġseverity":10889,"reek":10890,"Ġpreferred":10891,"astics":10892,"ĠAngel":10893,"Ġì§ģìĽĲ":10894,"ê°ĻìĿĢ":10895,"íķĻê³¼":10896,"Ġlip":10897,"Ġ34":10898,"ĠìĿ´ë":10899,"ìķĦìĦľ":10900,"Ġresearcher":10901,"Ġmotivation":10902,"Ġenorm":10903,"ipe":10904,"ĠFact":10905,".(":10906,"íĨµìĭł":10907,"Ġbeans":10908,"Ġanticip":10909,"Ġpoem":10910,"Ġìĸ¼ë§ĪëĤĺ":10911,"Ġrect":10912,"Ġpsychology":10913,"Ġcirculation":10914,"Ġë§ĮëĵľëĬĶ":10915,"ĠìľĦìĽĲ":10916,"Ġìŀ¥ìĨĮ":10917,"About":10918,"Ġhighlights":10919,"Ġmigration":10920,"ĠLy":10921,"Ġpit":10922,"Ġpreparing":10923,"ĠMot":10924,"Ġwearing":10925,"ĠHand":10926,"Car":10927,"Ġ37":10928,"Ġcolonial":10929,"Art":10930,"ĠìłľìĻ¸":10931,"Ġvertical":10932,"Ġearliest":10933,"ĠCell":10934,"Ġencourages":10935,"icy":10936,"Sim":10937,"Ġëĭ¨ìĪľ":10938,"ê¸Īìľµ":10939,"ìĥģìĹĲ":10940,"Ġcurrency":10941,"Ġarise":10942,"ĠNeed":10943,"Ġthemes":10944,"Ġdentist":10945,"ĠìłĢíĿ¬":10946,"Ġtowns":10947,"Ġfur":10948,"Ġcelebrated":10949,"ĠBlue":10950,"ĠInit":10951,"Ġintric":10952,"Ġtong":10953,"Sm":10954,"Ġ1996":10955,"ĠStrateg":10956,"real":10957,"ìłķìĿĢ":10958,"Ġwheat":10959,"Ġversions":10960,"Use":10961,"obile":10962,"Ġprey":10963,"ĠGrand":10964,"Ġë°©ë²ķìĿĦ":10965,"Ġchemistry":10966,"isco":10967,"rem":10968,"Ġpromise":10969,"ì¶ľìŀ¥ë§ĪìĤ¬ì§Ģ":10970,"oured":10971,"Ġ120":10972,"Ġpeoples":10973,"ĠStar":10974,"Ġunn":10975,"ĠQuestions":10976,"CH":10977,"ë¶Īìĸ´":10978,"ployment":10979,"íĬ¸ìĽĮíģ¬":10980,"Ġrestore":10981,"Ġequality":10982,"Ġcontributes":10983,"ĠVitamin":10984,"ounder":10985,"ĠìĿ¸ê¸°":10986,"ĠCurrent":10987,"Ġton":10988,"Ġprincipal":10989,"Ġbless":10990,"Ġviewed":10991,"Ġë¹Ī":10992,"Ġmanager":10993,"ìŀĲëĵ¤ìĿĢ":10994,"Ġfinance":10995,"Ġemployee":10996,"Ġë¹Ľ":10997,"Ġë°ĺìĿĳ":10998,"Ġwaiting":10999,"Ġrac":11000,"ĠíĶĦë¡ľìłĿíĬ¸":11001,"Ġtor":11002,"ĠPolicy":11003,"Ġstakeholders":11004,"ìĭĿìĿ´":11005,"âľĵ":11006,"reprene":11007,"Ġìłĳê·¼":11008,"Ġcoat":11009,"Ġpropag":11010,"Ġworship":11011,"Ġpace":11012,"ieval":11013,"ĠìŀĲì£¼":11014,"Ġencouraging":11015,"Ġë¹Į":11016,"Ġê²ª":11017,"cycl":11018,"ìĸ´ëıĦ":11019,"Ġsocieties":11020,"ìķĦê°Ģ":11021,"anger":11022,"Ġë§¥":11023,"Ġtrick":11024,"Ġhunting":11025,"ĠëĮĢìĭł":11026,"Ġaest":11027,"Ġplane":11028,"disc":11029,"Ġalongside":11030,"Ġmanifest":11031,"Ġdrinks":11032,"ê¶ģ":11033,"Ġeditor":11034,"Ġsatisfact":11035,"Ġhol":11036,"Ġcalculated":11037,"Ġcord":11038,"rained":11039,"iana":11040,"tics":11041,"ket":11042,"ĠLevel":11043,"ĠCost":11044,"Ġcooperation":11045,"ivest":11046,"Ġles":11047,"edu":11048,"Ġíĺĳëł¥":11049,"Ġraising":11050,"forest":11051,"ĠHelp":11052,"Ġclothes":11053,"feed":11054,"una":11055,"ĠLin":11056,"Ġoutl":11057,"Ġoldest":11058,"Ġdemocracy":11059,"Ġê²½ìļ°ìĹĲëĬĶ":11060,"ipher":11061,"ê¸°ìĤ¬":11062,"athered":11063,"Ġdifferently":11064,"Ġduty":11065,"âĻ":11066,"Ġindoor":11067,"zym":11068,"Ġbreaking":11069,"Part":11070,"ĠJul":11071,"ĠìķĬëĬĶëĭ¤":11072,"Ġfoster":11073,"ìłĦë¬¸":11074,"Ġlosing":11075,"Ref":11076,"ëĤ´ëĬĶ":11077,"books":11078,"Ġentering":11079,"ĠHeart":11080,"Ġì£¼ì°¨":11081,"ĠGr":11082,"ĠëĮĢêµ¬":11083,"erts":11084,"Ġbreaks":11085,"va":11086,"Ġachievement":11087,"Ġgeomet":11088,"Ġsubstit":11089,"Ġdevelopments":11090,"reens":11091,"Ġlymph":11092,"Ġtracking":11093,"ĠCode":11094,"Ġëĵ±ìŀ¥":11095,"Ġsymbols":11096,"ãİ":11097,"Ġdefinitely":11098,"Ġpainful":11099,"ĠSupreme":11100,"Ġsug":11101,"Ġê²°íĺ¼":11102,"ĠMah":11103,"Ġëĥī":11104,"Ġdynamics":11105,"ĠëĲĲëĭ¤":11106,"ëĲĺë©´":11107,"Ġëī´ìĬ¤":11108,"ĠArticle":11109,"Ġdil":11110,"ĠMath":11111,"Ġbarrier":11112,"ĠëĤ´ìļ©ìĿĦ":11113,"ĠìĥģëĮĢ":11114,"ĠìłķëıĦë¡ľ":11115,"ĠMinister":11116,"ĠPen":11117,"ĠëĤ´ë¶Ģ":11118,"AA":11119,"Ġcancers":11120,"Ġpupils":11121,"Ġíķĺë©°":11122,"Ġexpanded":11123,"Ġheads":11124,"Ġê³¼íķĻ":11125,"Ġpractition":11126,"ìĬ¤ëŁ¬ìļ´":11127,"Ġoils":11128,"Ġdrag":11129,"Ġgiant":11130,"orted":11131,"Ġillnesses":11132,"aska":11133,"Ġmarg":11134,"ê²łëĭ¤ëĬĶ":11135,"Ġíķ´ìĦľ":11136,"Ġêµ¬ìŀħ":11137,"ĠIran":11138,"through":11139,"Ġì½ľ":11140,"Ġhouseholds":11141,"Ġ1995":11142,"ĠìĻĦë²½":11143,"Ġgranted":11144,"ĠìĻĦë£Į":11145,"ĠScotland":11146,"Ġscores":11147,"ĠSolar":11148,"Ġperceived":11149,"ĠContin":11150,"Ġtact":11151,"icular":11152,"Ġseat":11153,"Ġalternatives":11154,"Ġavoiding":11155,"Ġtransmit":11156,"ude":11157,"Ġsodium":11158,"ĠíĻįë³´":11159,"aph":11160,"ĠëĤĺëĪ":11161,"Ġcalling":11162,"Ġterror":11163,"ë¦¬ì¹´":11164,"ìĻĢìĿĺ":11165,"ĠDC":11166,"Ġtens":11167,"Ġvan":11168,"ocolate":11169,"efficient":11170,"Ġê³µê³µ":11171,"Ġpolar":11172,"Ġcharacteristic":11173,"PR":11174,"Ġëĭ¤ìĿĮê³¼":11175,"irth":11176,"Ġdiffer":11177,"oston":11178,"Ġconcluded":11179,"ĠSecret":11180,"vol":11181,"Ġsurgical":11182,"Ġalph":11183,"Ġfo":11184,"Ġaccounting":11185,"ìľ¼ë¡ľìĦľ":11186,"Ġmetabolism":11187,"ĠíĥĲ":11188,"ìĹ¬íĸī":11189,"ĠDom":11190,"Ġshoot":11191,"rection":11192,"Ġtelevision":11193,"abeth":11194,"ĠRoad":11195,"acent":11196,"Ġtumor":11197,"Ġìĸ´ëł¤ìļ´":11198,"ĠíķłìĿ¸":11199,"Ġprofile":11200,"Ġnice":11201,"sor":11202,"ĠOxford":11203,"ì¹´ìĺ¤":11204,"vard":11205,"Ġoperational":11206,"erally":11207,"Ġpackaging":11208,"Ġadoption":11209,"67":11210,"lu":11211,"ĠìĿ´ëģ":11212,"Ġreverse":11213,"assium":11214,"Ġprospect":11215,"Ġacquired":11216,"EA":11217,"ĠìłĦíĸĪëĭ¤":11218,"Ġrequiring":11219,"Ġreplacement":11220,"Ġincident":11221,"UR":11222,"Ġê·¸ë£¹":11223,"Ġì¢Į":11224,"Ġhack":11225,"fast":11226,"Ġminds":11227,"Ġadolesc":11228,"ĠìłĦíĻĺ":11229,"Ġë³´ìŀ¥":11230,"Ġclassified":11231,"igare":11232,"Further":11233,"EF":11234,"Ġengines":11235,"enger":11236,"íķĺìŀĲ":11237,"ĠVen":11238,"Ġcontrolling":11239,"ìĿ´ëĿ¼ë©°":11240,"Ġë§¤ì¶ľ":11241,"Ġì»´íĵ¨íĦ°":11242,"Ġperspectives":11243,"rize":11244,"Ġwal":11245,"pled":11246,"Ġsteam":11247,"Ġíĺ¹ìĿĢ":11248,"ìľĦìĹĲ":11249,"ĠDes":11250,"ìĬµëĭĪê¹Į":11251,"ucky":11252,"Ġaddresses":11253,"ìĨĶ":11254,"Ġwatching":11255,"Ġconflicts":11256,"angered":11257,"ĠUnfortunately":11258,"Ġì£¼ëĬĶ":11259,"Ġë°ĶëŀĮ":11260,"Ġvel":11261,"Ġinhabit":11262,"'m":11263,"Ġë¶Īë²ķ":11264,"ĠWall":11265,"Ġê°ĲìĹ¼":11266,"Ġ95":11267,"Ġfitness":11268,"Ġbomb":11269,"ĠDown":11270,"Ġaccidents":11271,"Ġdevast":11272,"ìĭľì¼ľ":11273,"agen":11274,"Ġì§Ģìłķ":11275,"Ġå":11276,"Ġê°ģì¢ħ":11277,"Ġê·¸ëĥ¥":11278,"Ġ38":11279,"Ġconvert":11280,"Ġorigins":11281,"Ġdisadvant":11282,"archy":11283,"Ġconqu":11284,"Ġbuying":11285,"ĠCross":11286,"Ġedition":11287,"ĠìĬ¤ìĬ¤ë¡ľ":11288,"Ġuniversities":11289,"ĠìľĦíķ´ìĦľëĬĶ":11290,"Ġëĭ´ëĭ¹":11291,"2013":11292,"Ġê´Ģê³ĦìŀĲëĬĶ":11293,"sit":11294,"omous":11295,"ê´Ģê³Ħ":11296,"Ġownership":11297,"Ġpests":11298,"ĠProper":11299,"ĠPur":11300,"Ġscenario":11301,"rix":11302,"Ġìĭ¤íĸī":11303,"Pr":11304,"Ġbleeding":11305,"Ġmountains":11306,"ãĢı":11307,"Ġinvestigate":11308,"ĠLiter":11309,"ĠCard":11310,"Ġfing":11311,"ĠFigure":11312,"havior":11313,"ĠOS":11314,"Ġmothers":11315,"Ġpuzz":11316,"Ġvaries":11317,"atal":11318,"Ġrequirement":11319,"ìĩĦ":11320,"2011":11321,"Ġtip":11322,"amps":11323,"Ġacknowled":11324,"ĠìĽĲíķĺëĬĶ":11325,"Ġrevenue":11326,"ĠKar":11327,"iger":11328,"Ġpill":11329,"Ġequipped":11330,"ìľ¼ë¡ľëĬĶ":11331,"flu":11332,"Ġthread":11333,"ĠìĤ¬íļĮìłģ":11334,"ĠSar":11335,"Ġtone":11336,"ivestock":11337,"Ġconcentrations":11338,"Ġìļ°ìĦł":11339,"LC":11340,"rics":11341,"Ġdim":11342,"ìĽĲìĹĲìĦľ":11343,"ĠChristians":11344,"Ġë²Ĺ":11345,"ĠRight":11346,"rison":11347,"icating":11348,"Ġ?":11349,"Each":11350,"Ġgardens":11351,"ĠJac":11352,"ĠëĬĲëģ¼":11353,"IF":11354,"63":11355,"rowth":11356,"ĠJohnson":11357,"aping":11358,"Ġalive":11359,"ĠPo":11360,"Ġbias":11361,"2012":11362,"Ġë§Ŀ":11363,"Sec":11364,"ĠìĿĦ":11365,"ĵĴ":11366,"ëį¤íĶĦ":11367,"Ġê¶ģê¸Ī":11368,"Ġconsciousness":11369,"adow":11370,"Ġspinal":11371,"ĠVar":11372,"Ġscenarios":11373,"Ġìĸ¸ë¡ł":11374,"ëŁīìĿĦ":11375,"Ġdense":11376,"Ġincent":11377,"Ġlinear":11378,"ë¬¸ìĿĦ":11379,"ĠìĻĶ":11380,"cled":11381,"Ġmeditation":11382,"ĠKh":11383,"Ġglobe":11384,"ëľ»":11385,"ë°ĸìĹĲ":11386,"ĠHospital":11387,"Ġclock":11388,"ë®¤ëĭĪ":11389,"Ġëĵ±ìľ¼ë¡ľ":11390,"Ġpeer":11391,"Ġsensory":11392,"Ġweigh":11393,"cre":11394,"Ġpaying":11395,"Ġtob":11396,"Ġcattle":11397,"ìĭłì²Ń":11398,"uity":11399,"ì¹´ëĿ¼":11400,"Ġprescribed":11401,"íĳ¸":11402,"ashes":11403,"ìºĲ":11404,"itical":11405,"Ġadopt":11406,"opl":11407,"Ġinvestments":11408,"ĠSund":11409,"ĠìĿ¸íķľ":11410,"Ġì´¬ìĺģ":11411,"Ġgirl":11412,"Ġmyst":11413,"ĠBal":11414,"ĠTim":11415,"Ġelected":11416,"mia":11417,"mented":11418,"68":11419,"dep":11420,"Ġfires":11421,"Ġqualities":11422,"ĠCoast":11423,"Ġìĸĺ":11424,"ĠìĤ¬ëŀĮìĿĢ":11425,"ì¦ĪëĭĪìĬ¤":11426,"íķĺëĭ¤ê³ł":11427,"Ġvegetation":11428,"ĠHor":11429,"ëĭĺìĿ´":11430,"ĠThree":11431,"ĠìĿ´ëĤ´":11432,"Ġears":11433,"Ġassessments":11434,"Ġcough":11435,"angle":11436,"Ġëĭ¤ìļ´ë¡ľëĵľ":11437,"Eng":11438,"Ġsolving":11439,"Ġswelling":11440,"Ġlogic":11441,"icon":11442,"ìłķìĿĺ":11443,"Ġreflects":11444,"ĠSpirit":11445,"ë¯¼ì£¼":11446,"Ġholiday":11447,"isations":11448,"Ġ..":11449,"oln":11450,"Ġhumidity":11451,"ĠES":11452,"Ġdirected":11453,"urning":11454,"Ġviral":11455,"Ġhappiness":11456,"Ġinterior":11457,"ĠTable":11458,"Ġë°ĺëĵľìĭľ":11459,"ëĵľë¡ľ":11460,"Ġallergies":11461,"Ġê±´ìĦ¤":11462,"Ġnuts":11463,"Ġaggressive":11464,"Ġquarter":11465,"ĠColumbia":11466,"Ġë³´ìĿ¸ëĭ¤":11467,"íĺ¸íħĶ":11468,"ëł¤ë©´":11469,"ëģĶ":11470,"ĠíĸīëıĻ":11471,"Ġëĭ¬ëŁ¬":11472,"Ġvegetable":11473,"awn":11474,"Ġreasonable":11475,"Ġì°¨ì§Ģ":11476,"ĠPalest":11477,"Ġadapted":11478,"imp":11479,"ĠTool":11480,"Ġflying":11481,"],":11482,"Ġìµľì¢ħ":11483,"ĠHead":11484,"ĠBuilding":11485,"ë³´íĺ¸":11486,"Ġwrites":11487,"Ġattitude":11488,"ĠFour":11489,"specific":11490,"Ġalumin":11491,"Who":11492,"yer":11493,"borne":11494,"ĠFuture":11495,"Ġhall":11496,"âĸ²":11497,"Ġìļ°ëł¤":11498,"íĸĪì§Ģë§Į":11499,"Ġmembrane":11500,"EG":11501,"agnetic":11502,"Ġmedicines":11503,"Ġutilized":11504,"ì¹ĺê³ł":11505,"Ġspecialist":11506,"arming":11507,"ĠìĪĻë°ķ":11508,"Ġgly":11509,"Ġì²ŃëħĦ":11510,"ìĩ¼":11511,"Ġresistant":11512,"ptic":11513,"Ġsentences":11514,"Ġrational":11515,"Ġë§ĪìĤ¬ì§Ģ":11516,"Ġë¶Ģíĥģ":11517,"avirus":11518,"Ġexpenses":11519,"Ġëª©ìłģ":11520,"íĭ´":11521,"Ġtobacco":11522,"Ġdebris":11523,"Ġassembly":11524,"Ġsad":11525,"Ġshorter":11526,"estion":11527,"Ġwonderful":11528,"Ġsuit":11529,"asma":11530,"Hist":11531,"ĠSand":11532,"Ġrestoration":11533,"ĠìĦ¤ê³Ħ":11534,"Ġinvolvement":11535,"ìĤ°ìĿĦ":11536,"uris":11537,"ĠIV":11538,"Ġmistakes":11539,"Ġconference":11540,"íĺĦìŀ¬":11541,"Ġprevents":11542,"Ġevident":11543,"ĠEr":11544,"Ġprox":11545,"ì°®":11546,"Ġëįķ":11547,"Ġê±±":11548,"izz":11549,"uis":11550,"Ġtomat":11551,"acles":11552,"PD":11553,"Ġneural":11554,"Ġseparated":11555,"Ġdementia":11556,"ĠWay":11557,"ricts":11558,"ĠíĽĪ":11559,"ë¬¼ìĿĺ":11560,"ipedia":11561,"iations":11562,"ĠDiet":11563,"ìĬ´":11564,"íķĺëįĺ":11565,"Ġparagraph":11566,"ìĬ·":11567,"Ġpose":11568,"ĠPain":11569,"UT":11570,"Ġresponsibilities":11571,"ĠìłķìĿĺ":11572,"Ġëı¼":11573,"ãĢį":11574,"ĠLast":11575,"Ġregarded":11576,"Ġsculpt":11577,"ĠIslamic":11578,"Ġimpair":11579,"Ġë§¤ìĿ¼":11580,"ĠBu":11581,"Ġëĭ¬ë¦¬":11582,"Ġdiarr":11583,"Ġrestrictions":11584,"ceptions":11585,"QL":11586,"ĠObs":11587,"Ġdirections":11588,"Ġê¸°ëħĲ":11589,"Ġcharged":11590,"Ġwithdraw":11591,"Ġmur":11592,"ëıĦìĹĲ":11593,"orrect":11594,"ĠImport":11595,"Ġìĭłë¢°":11596,"ĠIss":11597,"ĠìĹĨìĹĪëĭ¤":11598,"Ġbelieves":11599,"Ġcommunications":11600,"oul":11601,"Ġbonds":11602,"Ġembed":11603,"Ġalgorithm":11604,"ë¬¸ìĿĺ":11605,"ami":11606,"Ġencounter":11607,"ĠëıĻìĿ¼":11608,"ĠVe":11609,"stration":11610,"ĠQueen":11611,"elihood":11612,"Ġauto":11613,"stru":11614,"Ġë°Ķíĥķ":11615,"brew":11616,"Ġtempor":11617,"ĠíķĻìĬµ":11618,"Ġdish":11619,"ĠìĹ¬ìŀĲ":11620,"ĠConservation":11621,"ì¦ĿìĿĦ":11622,"arium":11623,"ìļ°ìĬ¤":11624,"Ġíŀĺëĵ¤":11625,"ĠíĺľíĥĿ":11626,"Ġintention":11627,"ĠìĿ´ìķ¼ê¸°ë¥¼":11628,"Aut":11629,"Ġexecutive":11630,"ependent":11631,"Ġë°ĽëĬĶ":11632,"century":11633,"Ġclassic":11634,"ĠImm":11635,"Man":11636,"Ġparad":11637,"Ġjuice":11638,"Ġchicken":11639,"Ġthyroid":11640,"Ġopinions":11641,"Ġordered":11642,"Ġunion":11643,"Ġpreferences":11644,"Ġfellow":11645,"Ġbee":11646,"Ġmask":11647,"Ġorders":11648,"Ġrestaur":11649,"Ã¤":11650,"Ġlifetime":11651,"aware":11652,"ê·¸ëŁ¬ëĤĺ":11653,"Ġslaves":11654,"idal":11655,"ë©ĶìĿ¼":11656,"Ġì¡°ìĦ±":11657,"encing":11658,"made":11659,"thod":11660,"Ġoccas":11661,"Ġmanagers":11662,"izabeth":11663,"ĠBul":11664,"Ġhazards":11665,"ĠDutch":11666,"ĠUnlike":11667,"ëĥĪëĭ¤":11668,"ranean":11669,"Ġguarantee":11670,"Ø§":11671,"ensed":11672,"Ġordinary":11673,"section":11674,"ìģľ":11675,"ĠApplic":11676,"Ġcontainers":11677,"Ġconfident":11678,"________":11679,"ĠIndians":11680,"Ġoste":11681,"Ġê°Ŀìĭ¤":11682,"ĠëĵľëĿ¼ë§Ī":11683,"ë¶Ļ":11684,"fe":11685,"ĠBang":11686,"Ġvaried":11687,"Ġthroat":11688,"Ġpel":11689,"Ġloose":11690,"ĠMaterial":11691,"íĻľëıĻ":11692,"Ġslave":11693,"Ġreturns":11694,"ìµľê·¼":11695,"iop":11696,"Ġestablishment":11697,"Ġabstract":11698,"ë§¹":11699,"Ġinvestors":11700,"FC":11701,"Ġspoken":11702,"ĠNote":11703,"Ġsusceptible":11704,"Ġlabour":11705,"mentation":11706,"ĠìłĢëĬĶ":11707,"Ġconsuming":11708,"wan":11709,"Ġextension":11710,"Ġburden":11711,"Ġê°ĸê³ł":11712,"ett":11713,"Ġsplit":11714,"Ġcalculate":11715,"Ð¸":11716,"ĠFather":11717,"ê±°ìļ´":11718,"ĠìĪĺìĥģ":11719,"Ġëĵ¤ìĸ´ê°Ģ":11720,"Ġdominant":11721,"ĠëĦĺìĸ´":11722,"ìĶ¬":11723,"Ġestablishing":11724,"íĪ¬ìŀĲ":11725,"Ġdevelops":11726,"ĠëĦĵ":11727,"Ġmine":11728,"erted":11729,"Ġìľłíĺķ":11730,"function":11731,"Ġsettlement":11732,"Note":11733,"ë¶ĦìĿ´":11734,"ogens":11735,"Ġacting":11736,"ĠìĹ¬ë¦Ħ":11737,"ìĦ¸ë¥¼":11738,"2010":11739,"ĠìĤ¬ë¬´":11740,"best":11741,"Ġproductive":11742,"Ġhospitals":11743,"ĠíķĺëĬĶëį°":11744,"Ġrecre":11745,"Me":11746,"ĠArctic":11747,"Ġliterary":11748,"ìłĢìŀĳê¶Į":11749,"Ġmobility":11750,"ĠHindu":11751,"ê¸°ìĻĢ":11752,"Ġëħ¸ëŀĺ":11753,"Ġaffordable":11754,"Ġdies":11755,"Ġartistic":11756,"ĠíĻĶë©´":11757,"roph":11758,"ĠHot":11759,"Ġempty":11760,"Ġëª¨ë¥´":11761,"effective":11762,"ëĿ¼ë©°":11763,"ĠADHD":11764,"Ġwelfare":11765,"Ġìĭłê²½":11766,"Ġvarying":11767,"ì¢ĭ":11768,"Ġspan":11769,"author":11770,"Ġmature":11771,"fol":11772,"Ġkilling":11773,"ĠTom":11774,"press":11775,"Ġ1994":11776,"Ġlibr":11777,"Ġorange":11778,"Ġíĩ´":11779,"icking":11780,"Ġabsorption":11781,"OW":11782,"Gl":11783,"Ġvisited":11784,"Ġaccompanied":11785,"Ġhaven":11786,"Learn":11787,"Ġclub":11788,"Ġê°ķëł¥":11789,"61":11790,"ìłģìĿ´ê³ł":11791,"ĠìĺĪìĪł":11792,"ba":11793,"ailing":11794,"BD":11795,"ĠTrust":11796,"ĠìĤ¬ìļ©íķĺìĹ¬":11797,"Ġexplicit":11798,"Ġì£¼ëª©":11799,"íĸĪìĿĦ":11800,"ĠRedu":11801,"Ġappreciate":11802,"Ġfet":11803,"íĨ¤":11804,"ĠCast":11805,"Ġspr":11806,"Ġstreets":11807,"ëĭ¤ë¥¸":11808,"ilst":11809,"Ġìłķë¦¬":11810,"Ġê°ľëħĲ":11811,"Ġpenet":11812,"ëĿ¼ë©´":11813,"Ġprolong":11814,"Ġê´Ģëł¨ëĲľ":11815,"Ġpreced":11816,"https":11817,"ëıĪ":11818,"ĠForce":11819,"Ġtelling":11820,"Ġplanets":11821,"Ġevening":11822,"ĠBoston":11823,"ocurren":11824,"Ġà¤":11825,"Ġven":11826,"Ġëľ¨":11827,"Ġtherapeutic":11828,"ëĭ·":11829,"Ġcorresponding":11830,"kind":11831,"Ġdramatic":11832,"Ġol":11833,"Ġreveals":11834,"Ġlowest":11835,"Ġcust":11836,"ercury":11837,"Ġlikelihood":11838,"ìģĺ":11839,"usalem":11840,"Ġarguments":11841,"Ġlegacy":11842,"text":11843,"ìħĶìĦľ":11844,"ĠìľĦíķ´ìĦľ":11845,"Ġsafegu":11846,"Ġstopped":11847,"arters":11848,"Ġreson":11849,"Ġattain":11850,"Ġattitudes":11851,"ĠÂ£":11852,"Ġutilize":11853,"Ġclassical":11854,"ĠìĹ¬ìłĦíŀĪ":11855,"incoln":11856,"Ġrepet":11857,"Ġtrace":11858,"Last":11859,"aka":11860,"ĠPhysical":11861,"ì£¼ìĭľ":11862,"Ġisolation":11863,"neum":11864,"Ġadvances":11865,"erman":11866,"ĠFil":11867,"ĠLee":11868,"Ġathletes":11869,"ĠTraining":11870,"Ġconsistently":11871,"Ġoverview":11872,"Ġlasting":11873,"ĠMichigan":11874,"MC":11875,"Ġíĳ¸":11876,"ĠLi":11877,"Ġencompass":11878,"ĠFar":11879,"ima":11880,"Ġê³§":11881,"Ke":11882,"ëħĦë¶ĢíĦ°":11883,"ĠíĿ¬ë§Ŀ":11884,"Ġ250":11885,"ë°į":11886,"Ġresc":11887,"arding":11888,"ĠSurvey":11889,"ĠPractice":11890,"ĠìĿĺìĽĲ":11891,"Just":11892,"ê°ĦìĿĺ":11893,"Ġgravity":11894,"lymp":11895,"Joh":11896,"plate":11897,"Ġtrading":11898,"Ġguess":11899,"íĬĢ":11900,"ĠOrig":11901,"ìłĢëĬĶ":11902,"Ġ42":11903,"Ġíļ¨ìľ¨":11904,"vania":11905,"eem":11906,"Ġpermission":11907,"¿Į":11908,"Ġgrounds":11909,"Health":11910,"vision":11911,"Ġinherent":11912,"Ġarthritis":11913,"ĠBeing":11914,"ĠClick":11915,"iments":11916,"ë¦¬ë¡ľ":11917,"Ġgrades":11918,"Ġëª»íķľ":11919,"ĠìĬĪ":11920,"umer":11921,"íĶĮëłĪìĿ´":11922,"ĠSmall":11923,"ê»´":11924,"Ġëĭ¬ëĿ¼":11925,"à¸":11926,"urches":11927,"Ġindirect":11928,"amil":11929,"Like":11930,"Ġenormous":11931,"Ġì¤ĳìĹĲ":11932,"ĠBest":11933,"íĻĶëĲľ":11934,"ĠRam":11935,"Ġtab":11936,"Ġìłľì¶ľ":11937,"ë¿Ĳë§Į":11938,"ë¦°ëĭ¤":11939,"Ġfinish":11940,"Ġtransmitted":11941,"ìĺĢìĬµëĭĪëĭ¤":11942,"ifier":11943,"ĠëıĦì°©":11944,"Ġdiets":11945,"ĠEconomic":11946,"Ġvig":11947,"rh":11948,"ĠìĦ¤ë¦½":11949,"Ġì¹´ëĵľ":11950,"Ġprevalence":11951,"ĠSir":11952,"ĠNov":11953,"ë¶Ģê°Ģ":11954,"Ġì²ŃìĨĮëħĦ":11955,"Ġburied":11956,"ĠProduct":11957,"Ġê²½ìļ°ê°Ģ":11958,"Ġreserved":11959,"Table":11960,"LL":11961,"Ã¢":11962,"Ġpeers":11963,"Ġpointed":11964,"Ġcycles":11965,"Ġcontinuing":11966,"ì¡°ê±´":11967,"bean":11968,"ëħķíķĺìĦ¸ìļĶ":11969,"ĠëĳĲê³ł":11970,"Ġpoetry":11971,"Ġìŀĥ":11972,"iances":11973,"Ġborrow":11974,"íķĺëĭ¤ëĬĶ":11975,"¾Į":11976,"Ġsulf":11977,"Ġ600":11978,"ìŀ¥ê³¼":11979,"Ġpest":11980,"ĠOhio":11981,"Ġroyal":11982,"Ġdipl":11983,"Ġboat":11984,"cho":11985,"Ġlists":11986,"endment":11987,"Ġê¸°íļį":11988,"âĨ":11989,"ì§Ģë¡ľ":11990,"ìĺģíĻĶ":11991,"ivities":11992,"Ġdism":11993,"íĸĪìľ¼ë©°":11994,"Ġsongs":11995,"ĠDrug":11996,"Ġconvenient":11997,"Ġcorporate":11998,"ĠHebrew":11999,"Ġdiscipline":12000,"hire":12001,"ë¡¤":12002,"ĠìŀĪìĸ´ìļĶ":12003,"Ġpersonnel":12004,"RS":12005,"AG":12006,"Ġestate":12007,"Ġëķħ":12008,"Ġofficer":12009,"Ġthreatened":12010,"ģëĭĪëĭ¤":12011,"Ġsaved":12012,"ì£¼íĥĿ":12013,"ĠìĨĮíĶĦíĬ¸":12014,"ceans":12015,"ĠHim":12016,"ĠëĲĺì§Ģ":12017,"Ġtends":12018,"Ġê¸°ìĤ¬":12019,"ĠìĦłê±°":12020,"Ġkitchen":12021,"ìĪĺë¡Ŀ":12022,"Ġadvancements":12023,"Ġwash":12024,"ì£¼ê³ł":12025,"ĠìłĦìŀ¬":12026,"ĠìĺģìĹħ":12027,"Ġversus":12028,"Ġchannels":12029,"Ġstruggling":12030,"Ġinstances":12031,"Ġmetabolic":12032,"ĠTH":12033,"Ġcow":12034,"Ġìĭłê·ľ":12035,"you":12036,"Ġanger":12037,"Ġenhances":12038,"Ġreaches":12039,"Ġplain":12040,"ë°©ìĨ¡":12041,"Ġì¢ĭìĬµëĭĪëĭ¤":12042,"Ġsleeping":12043,"Ġì£¼íĥĿ":12044,"Ġzones":12045,"Ġmunicip":12046,"uan":12047,"chnology":12048,"eras":12049,"ĠìłľíĴĪìĿĦ":12050,"omal":12051,"Ġdimensions":12052,"Ġwouldn":12053,"Ġequation":12054,"Ġbuff":12055,"ì¤ĳìĹĲ":12056,"ĠëĤĺê°Ģ":12057,"Ġnoticed":12058,"Ġscheme":12059,"ì°¨ë¥¼":12060,"ĠDue":12061,"ffe":12062,"ĠíĥĢìĿ´":12063,"syl":12064,"ìĦ±ìĿĢ":12065,"Ġinclusive":12066,"Ġë¹ĦìĬ·":12067,"Ġmovie":12068,"Ġíķ´ëıĦ":12069,"inery":12070,"ĠìĪł":12071,"Ġdivine":12072,"afe":12073,"ĠíķĺìĹ¬":12074,"obe":12075,"Ġconversion":12076,"first":12077,"Ġpartnership":12078,"ìŀĲëıĻ":12079,"ĠCT":12080,"Ġperfectly":12081,"íľĺ":12082,"Ġcourts":12083,"ë´Ĳ":12084,"worth":12085,"ìĤ¬ëŀĮ":12086,"Ġdesert":12087,"Ġposts":12088,"Ġutility":12089,"Ġpilot":12090,"endar":12091,"ê°ľë¥¼":12092,"ĠìłĢëł´":12093,"Ġopposition":12094,"Ġsynthetic":12095,"zymes":12096,"Ġsimultaneously":12097,"Ġcontamination":12098,"ĠAgain":12099,"ë¹Ľ":12100,"ĠPhot":12101,"ĠìŀĪëĭ¤ë©´":12102,"ĠìĦ±ê³¼":12103,"ivate":12104,"ĠMind":12105,"ols":12106,"Ġstabil":12107,"Ġvisits":12108,"eor":12109,"ishop":12110,"Ġdiagnostic":12111,"Ġê°ĢëĬĶ":12112,"ê´´":12113,"oler":12114,"ĠíĹĮ":12115,"ĠìķĦë²Ħ":12116,"isticated":12117,"Ġrepresenting":12118,"Ġinfants":12119,"Ġargued":12120,"onents":12121,"800":12122,"Ġì§ĢëıĦ":12123,"íĮĲë§¤":12124,"ĠInteg":12125,"äº":12126,"ĠHawai":12127,"ĠìĬ¤íĥĢìĿ¼":12128,"ĠKids":12129,"Ġconsent":12130,"ìĿ´ìĹĪ":12131,"ê´ĢìĿĦ":12132,"ĠOl":12133,"Ġfostering":12134,"ĠGeorgia":12135,"Ġë³´ìķĪ":12136,"====":12137,"roud":12138,"Ġgaps":12139,"bits":12140,"Ġcellular":12141,"Ġì»¤íĶ¼":12142,"ĠSpring":12143,"atoes":12144,"ĠWal":12145,"Ġassociate":12146,"Ġtexture":12147,"nected":12148,"ĠìŀĲê²©":12149,"âĦ":12150,"otypes":12151,"Ġê·¸ê²ĥìĿĢ":12152,"ĠJeff":12153,"62":12154,"expected":12155,"orms":12156,"itcoin":12157,"Ġstrike":12158,"ĠIntellig":12159,"oa":12160,"ĠGDP":12161,"Ġíķĺê¸°":12162,"ĠJerusalem":12163,"Ġeru":12164,"ĠìļĶìĨĮ":12165,"ĠìĿ´ë¤Ħ":12166,"Ġpromising":12167,"sen":12168,"wer":12169,"Ġë°ĺìĺģ":12170,"ì£¼ìĦ¸ìļĶ":12171,"duction":12172,"Ġconclus":12173,"Ġincorporating":12174,"ĠìŀĪëįĺ":12175,"Ġanalyzed":12176,"Through":12177,"Ġknee":12178,"Ġgif":12179,"Ġtongue":12180,"ë³´ëĭ¤ëĬĶ":12181,"ĠìłĢìŀ¥":12182,"ê°ĢìļĶ":12183,"Ġconverted":12184,"bell":12185,"ĠJustice":12186,"Ġelsewhere":12187,".).":12188,"CE":12189,"Ġtrem":12190,"Ġinh":12191,"Ġreadily":12192,"kg":12193,"Ġowned":12194,"utical":12195,"íķĺê¸°ëıĦ":12196,"ĠìľĦíķĺìĹ¬":12197,"ìĦ¸ëĮĢ":12198,"Rel":12199,"Ġspark":12200,"ê´ĢìĿĢ":12201,"ĠDifferent":12202,"ĠProm":12203,"ìłĦìŀ¬":12204,"Ġprobability":12205,"Ġëª©ìĨĮ":12206,"Ġê¹Ĭ":12207,"Ġë§ĪìĿĦ":12208,"Ġì£¼ìĭĿ":12209,"ĠMedia":12210,"ê³Ħíļį":12211,"ĠSelf":12212,"ĠMaster":12213,"ê½ĥ":12214,"ologically":12215,"Ġplanted":12216,"Ġtribes":12217,"Ġ1930":12218,"Ġresidential":12219,"ĠEmer":12220,"Ġpione":12221,"ĠRh":12222,"Ġtech":12223,"Ġíĸīìłķ":12224,"rox":12225,"ouds":12226,"ĠPython":12227,"Ġannually":12228,"ĠApple":12229,"Ġoverl":12230,"Ġprone":12231,"Ġspatial":12232,"operative":12233,"Ġì°¬":12234,"Ġconversations":12235,"Ġdating":12236,"arency":12237,"ĠìĿ´íķĺ":12238,"Ġsymptom":12239,"Ġinvasive":12240,"ì§Ģê¸Ī":12241,"ê°ĢìĿĺ":12242,"Ġassignment":12243,"uits":12244,"Ġì¡°ìĦł":12245,"ĠTO":12246,"Ġreflection":12247,"healthy":12248,"ĠëķĮëĬĶ":12249,"Ġê°ĢëĬ¥ìĦ±ìĿ´":12250,"hemistry":12251,"ìĸ´ë¡ľ":12252,"Ġìŀĺëª»":12253,"nia":12254,"ario":12255,"ĠBattle":12256,"economic":12257,"íļĮìĹĲìĦľ":12258,"ĠIce":12259,"ĠHarvard":12260,"Ġreproductive":12261,"Ġnom":12262,"oons":12263,"Ġcertific":12264,"ìĭľíĤ¤ëĬĶ":12265,"Ġdatas":12266,"Ġsacred":12267,"Ġdoors":12268,"ìķ½ìĿĦ":12269,"Ġchap":12270,"Ġlegit":12271,"Ġë§ĲìĿ´":12272,"Ġcomplement":12273,"flammatory":12274,"ilitation":12275,"Ġë©Ķëī´":12276,"Ġenjoyed":12277,"Ġshares":12278,"aved":12279,"Ġhybrid":12280,"ë¦ŃíĦ°":12281,"Ġcodes":12282,"aints":12283,"ocated":12284,"oving":12285,"Ġlivestock":12286,"ĠParliament":12287,"ĠìĪĺì§ĳ":12288,"Ġrecording":12289,"Ġtough":12290,"kl":12291,"ĠHaving":12292,"ë°°ìĨ¡":12293,"Ġê¸Īìķ¡":12294,"Ġclay":12295,"Ġbare":12296,"ì§Ĳ":12297,"Ġsafer":12298,"bour":12299,"Ġpersonalized":12300,"Ġabundant":12301,"ĠìŀĲìĭłìĿ´":12302,"ĠìĬµ":12303,"ê²½ê¸°":12304,"Ġaids":12305,"Ġmodule":12306,"Ġattractive":12307,"Ġrooms":12308,"Ġloan":12309,"ĠChristianity":12310,"Ġsoils":12311,"Ġdesigning":12312,"lessly":12313,"Ġquantities":12314,"Ġì¡¸":12315,"ìľĦíķľ":12316,"hysical":12317,"grade":12318,"Ġë§Īì¼ĢíĮħ":12319,"Ġreflected":12320,"uber":12321,"Ġacres":12322,"BI":12323,"Ġì²´íģ¬":12324,"íĻĢ":12325,"Ġspecified":12326,"ĠCr":12327,"Ġìļ°ë¦¬ëĤĺëĿ¼":12328,"Ġchair":12329,"ĠìĬ¤íĨł":12330,"Ġconsiderations":12331,"ĠëĤĺìĻĢ":12332,"Ġseriously":12333,"Ġë°°ê²½":12334,"oz":12335,"ĠCS":12336,"Ġcircular":12337,"Ġsale":12338,"Ġreliability":12339,"ì²¨":12340,"ĠOlymp":12341,"Ġintegral":12342,"Ġoptical":12343,"ë³ĳìĽĲ":12344,"ëĵ±íķĻêµĲ":12345,"Ġcolonies":12346,"Ġìĺµìħĺ":12347,"ĠAgriculture":12348,"ĠëĲĺë©´":12349,"ĠìĺģìĹŃ":12350,"ĠMental":12351,"íķĺìĭľë©´":12352,"Ġexem":12353,"Ps":12354,"Ġtoys":12355,"bow":12356,"ĠAction":12357,"Ġfought":12358,"Ġ49":12359,"Ġcombine":12360,"shaped":12361,"ĠPhilipp":12362,"Ġwise":12363,"May":12364,"ĠDesc":12365,"Ġscal":12366,"Ġenforcement":12367,"Ġmyself":12368,"ĠChapter":12369,"berries":12370,"ì£½":12371,"ìĶ¨ëĬĶ":12372,"Ġster":12373,"ĠìĹĨìĸ´":12374,"mann":12375,"Ġjudgment":12376,"Ġcontents":12377,"Ġconserv":12378,"ìĦŃ":12379,"Ġhat":12380,"ĠìľĦì¹ĺíķľ":12381,"ĠStandard":12382,"ĠNext":12383,"power":12384,"Ġdistricts":12385,"Ġreputation":12386,"ĠìĦ¼íĦ°":12387,"sylvania":12388,"Ġoutbreak":12389,"ìŀĲë¦¬":12390,"Ġìĸ¸ê¸ī":12391,"Ġalike":12392,"Ġworker":12393,"Ġdisturb":12394,"ĠColorado":12395,"Ġcraft":12396,"Ġlon":12397,"Ġrealized":12398,"unc":12399,"regular":12400,"Ġaccomplish":12401,"ë²Īì§¸":12402,"ĠìĿ¸ìĭĿ":12403,"Ġcream":12404,"isting":12405,"ateral":12406,"essional":12407,"Ġìĭłìļ©":12408,"Ġamino":12409,"ĠêµĲíĨµ":12410,"eling":12411,"phones":12412,"Ġretail":12413,"Ġultimate":12414,"ĠìķĦíĮĮíĬ¸":12415,"Ġìĭľì²Ń":12416,"ĠRest":12417,"ĠCert":12418,"Ġprivile":12419,"Ġkingdom":12420,"Ġneglect":12421,"400":12422,"Ġvalve":12423,"ecessary":12424,"Ġirrigation":12425,"Ġì¦Ĳê¸¸":12426,"Ġê³ĦíļįìĿ´ëĭ¤":12427,"Ġspine":12428,"opher":12429,"ĠíĮĮìķħ":12430,"ĠImpact":12431,"Ġprotocols":12432,"ìĬ¤ì½Ķ":12433,"ĠíĥĿ":12434,"ĠAz":12435,"êµ¬íķĺê³ł":12436,"Ġalle":12437,"ê³¼íķĻ":12438,"cin":12439,"Ġmeetings":12440,"ĠElizabeth":12441,"Ġmanufacturer":12442,"Ġbeat":12443,"ĠíķĦìĪĺ":12444,"Ġswimming":12445,"Ġinflation":12446,"ĠIndones":12447,"ĠBooks":12448,"step":12449,"iders":12450,"Ġflash":12451,"Ġhonest":12452,"Ġë¶Ħëªħ":12453,"Ġíķľëĭ¤ëĬĶ":12454,"íı´":12455,"Ġcaps":12456,"Ġgate":12457,"ìŀ¥ìķł":12458,"Ġì¤ĳìĭ¬ìľ¼ë¡ľ":12459,"Ġembry":12460,"uset":12461,"elescope":12462,"Ġaccord":12463,"iating":12464,"ĠìĦłë¬¼":12465,"ĠPu":12466,"ogy":12467,"ĠWhich":12468,"iterranean":12469,"ĠCambridge":12470,"Ġspreading":12471,"ietal":12472,"Ġcurve":12473,"ìŀĲìĹĲ":12474,"íķ´ëıĦ":12475,"Ġsocio":12476,"MI":12477,"Mod":12478,"ĠHence":12479,"cut":12480,"ocity":12481,"ĠëĬĶ":12482,"Ġgenome":12483,"Ġsophisticated":12484,"Ġregistered":12485,"Ġgentle":12486,"ĠTemple":12487,"ĠWil":12488,"Ġhal":12489,"ideo":12490,"ĠNutrition":12491,"ĠLincoln":12492,"Ġappointment":12493,"íĽĦê¸°":12494,"Ġenerg":12495,"ê°ĲìĿ´":12496,"Ġfisher":12497,"Ġunexpected":12498,"ĠMove":12499,"ĠBlood":12500,"rat":12501,"ĠëĲĺìĹĪ":12502,"ë¹Į":12503,"Ġë§ĪìĿĮìĿĦ":12504,"adel":12505,"ëĭ¨ìĿĦ":12506,".'":12507,"Ġentreprene":12508,"ĠWriting":12509,"ugs":12510,"Ġanalyzing":12511,"Ġadaptation":12512,"asm":12513,"Ġprosper":12514,"Ġtourism":12515,"Ġhypothesis":12516,"Ġallev":12517,"Finally":12518,"ĠOtt":12519,"Ġham":12520,"Ġphones":12521,"Ġvisiting":12522,"Ġneurons":12523,"Ġdimin":12524,"Ġë¹Ħíķ´":12525,"Ġgest":12526,"WS":12527,"Ġneurolog":12528,"ìĿ¸ì¦Ŀ":12529,"Ġeco":12530,"Ġíı´":12531,"orig":12532,"Ġ1992":12533,"ĠEnc":12534,"bel":12535,"Ġconfusion":12536,"Ġtherapies":12537,"Source":12538,"Ġë§ģ":12539,"Ġfant":12540,"Ġshowc":12541,"Ġë©ĭ":12542,"Ġho":12543,"Ġ2024":12544,"Ġeverywhere":12545,"Ġexped":12546,"Ġinspect":12547,"Ġrehab":12548,"ĠGar":12549,"Ġpredators":12550,"Ġë³´ëĭĪ":12551,"Ġatoms":12552,"Ġgathered":12553,"Ġstere":12554,"Ġbags":12555,"Ne":12556,"Ġwat":12557,"Ġgift":12558,"Ġweaken":12559,"Ġnursing":12560,"ĠìłľìķĪ":12561,"aceutical":12562,"ĠSaint":12563,"Ġcable":12564,"ivation":12565,"íķĺê³łìŀĲ":12566,"zyme":12567,"Ġlogical":12568,"ji":12569,"ĠìĤ¬ëŀĮëĵ¤ìĿĢ":12570,"Ġmitigate":12571,"acuum":12572,"Ġappointed":12573,"Ġbasically":12574,"Ġion":12575,"Ġ44":12576,"Ġviolent":12577,"Ġë´Ĳ":12578,"ifice":12579,"Ġì§Ģì§Ģ":12580,"Ġchocolate":12581,"Ġnotable":12582,"Ġconnecting":12583,"Ġunderground":12584,"Ġdict":12585,"inals":12586,"Ġpackage":12587,"oys":12588,"ĠPlace":12589,"lear":12590,"Ġvirtually":12591,"ĠëĩĮ":12592,"ìĥģìĿĢ":12593,"ĠFDA":12594,"Ġdistract":12595,"ga":12596,"ĠíļĮë³µ":12597,"Ġëĭ¨ì²´":12598,"ê·¸ëŁ°":12599,"Ġcheap":12600,"íļĮìĹĲ":12601,"ĠLittle":12602,"Ġê´Ģìĭ¬ìĿĦ":12603,"ĠMinistry":12604,"ĠìķĦë§Ī":12605,"Ġthorough":12606,"Ġdisplayed":12607,"ĠíķĺëĤĺìĿĺ":12608,"terior":12609,"Ġunders":12610,"ĠView":12611,"uther":12612,"usetts":12613,"itus":12614,"ĠSP":12615,"Ġpollut":12616,"Ġ1920":12617,"enced":12618,"Ġreferences":12619,"date":12620,"Ġentit":12621,"achusetts":12622,"Ġstatistical":12623,"ë¯¸êµŃ":12624,"Ġranges":12625,"ĠìĺģêµŃ":12626,"ĠCop":12627,"Then":12628,"Ġupdates":12629,"Ġê°ľìĿĺ":12630,"Ġgraduate":12631,"mble":12632,"Ġìĭ¤ìłľë¡ľ":12633,"sk":12634,"ìŀĲê¸°":12635,"Ġpipe":12636,"ĠìĤŃ":12637,"Ġteens":12638,"ìłł":12639,"ĠëĭĪ":12640,"íķĺìĭľëĬĶ":12641,"Ġ1991":12642,"ĠIoT":12643,"Ġsuspect":12644,"arks":12645,"Ġapplies":12646,"Ġcompat":12647,"Ġdefault":12648,"ĠëĦ¤íĬ¸ìĽĮíģ¬":12649,"ĠìĤ¬ëĿ¼":12650,"ãħİãħİ":12651,"Ġtherm":12652,"urse":12653,"ĠëįĶë¶Īìĸ´":12654,"Ġsummar":12655,"Ġpassword":12656,"ĠëĤĺëĪĦ":12657,"Ġë¬´ëĭ¨ìłĦìŀ¬":12658,"ĠíĺĲ":12659,"ĠíĺĦìŀ¥":12660,"ĠDivision":12661,"Ġmemories":12662,"Ġexpanding":12663,"ìĿ¼ë³´":12664,"DR":12665,"ĠìĿ´ê³³":12666,"Ġtheoretical":12667,"ìĿ¸ê³¼":12668,"ĠëĨĴìķĦ":12669,")|":12670,"Ġbite":12671,"ìļ°ëĬĶ":12672,"ìĤ¬ìļ©":12673,"Ġdevelopmental":12674,"Ġvom":12675,"ĠOften":12676,"Ġfunded":12677,"Ġstaying":12678,"Ġreinfor":12679,"Ġpod":12680,"Ġfertilizer":12681,"ati":12682,"Ġê°Ģì¹ĺ":12683,"redit":12684,"ëĢ":12685,"Ġvaccination":12686,"green":12687,"Ġì£¼ìĿĺ":12688,"Ġreign":12689,"Ġë§ĮìĹĲ":12690,"Ġash":12691,"Fig":12692,"íķĺê²łëĭ¤":12693,"ĠëĮĢíķľë¯¼êµŃ":12694,"Ġcopyright":12695,"Ġvictory":12696,"ĠíĻľëıĻìĿĦ":12697,"Ġprovince":12698,"vin":12699,"Ġstraw":12700,"cyclop":12701,"Ġchose":12702,"Ġê·¸ëĵ¤ìĿĢ":12703,"Ġrefrig":12704,"Ġallergic":12705,"ê²łì§Ģë§Į":12706,"ricks":12707,"Ġseparation":12708,"Ġimagination":12709,"ĠìĪĺìŀĪëĬĶ":12710,"ĠìĻĦìĦ±":12711,"Ġunlikely":12712,"Ġcub":12713,"ĠEns":12714,"Ġê²ĥìĿ´ëĿ¼ê³ł":12715,"Ġperpet":12716,"Ġë¹Ħì¦ĪëĭĪìĬ¤":12717,"Ġessence":12718,"Ġharsh":12719,"Ġgear":12720,"ĠíĴĪì§Ī":12721,"ĠëĬĲê»´":12722,"stant":12723,"ila":12724,"Ġcanal":12725,"ìĤ¬ìĿ´":12726,"Ġcontinuously":12727,"Ġsuicide":12728,"Ġbene":12729,"ĠëģĬ":12730,"ëĤĺë¬´":12731,"Ġdesignated":12732,"Ġthoroughly":12733,"ê·ľëª¨":12734,"Ġ;":12735,"ĠëĶ¸":12736,"Ġcouldn":12737,"Ġshr":12738,"ictions":12739,"ìĭľìĬ¤íħľ":12740,"Ġlingu":12741,"ĠProble":12742,"Ġverb":12743,"Ġshoes":12744,"ĠMusic":12745,"ĠPennsylvania":12746,"foot":12747,"ÑĤ":12748,"SC":12749,"Ġì¶ľìĹ°":12750,"icts":12751,"ìĭ¬ìĿĦ":12752,"aya":12753,"ĠMuslims":12754,"Ġpaintings":12755,"ĠIslands":12756,"Ġë¦¬ë·°":12757,"ĠìłĦìŁģ":12758,"Ġìĸµ":12759,"Ġsystematic":12760,"Ġfilters":12761,"Ġuncle":12762,"98":12763,"Ġë¹łë¥´ê²Į":12764,"ĠArts":12765,"ĠíķĦìļĶê°Ģ":12766,"ĠìĪĺì¶ľ":12767,"Ġë§ŀëĬĶ":12768,"ĠìķłíĶĮ":12769,"dd":12770,"Ġrobots":12771,"ais":12772,"ĠDO":12773,"Ġyoga":12774,"Ġcandidate":12775,"Ġassumed":12776,"Ġdischarge":12777,"ika":12778,"formance":12779,"Ġpiv":12780,"Ġprovision":12781,"Ġíĥĳ":12782,"ĠYes":12783,"ë¶ĢìĿĺ":12784,"irable":12785,"Ġdoses":12786,"ëĭ¬ëŁ¬":12787,"Ġprime":12788,"ĠSimilarly":12789,"Ġconstrain":12790,"ĠëŁ¬ìĭľìķĦ":12791,"olved":12792,"Ġanalyses":12793,"iosity":12794,"elve":12795,"ë¡±":12796,"Ġsending":12797,"ê´ĢìĿ´":12798,"Ġsurprise":12799,"sters":12800,"Ġë¬»":12801,"ĠSeveral":12802,"Ġtom":12803,"bration":12804,"Ġ1993":12805,"Ġtrail":12806,"Ġupdate":12807,"Ġpurchased":12808,"entral":12809,"ì§ĳëĭĪëĭ¤":12810,"Ġspeeds":12811,"ìĿ¼ìĹĲ":12812,"ĠShould":12813,"raham":12814,"ìĿ¼ìĿ´":12815,"Ġcompos":12816,"ìĦ±ìĿĺ":12817,"Ġwhenever":12818,"Ġcandidates":12819,"Ġsees":12820,"Ġpotassium":12821,"iants":12822,"ĠEdward":12823,"Ġmouse":12824,"PN":12825,"Ġliterally":12826,"edge":12827,"Ġpairs":12828,"ref":12829,"ìĬ¤íĮħ":12830,"ĠWildlife":12831,"Ġsevent":12832,"Ġfluctu":12833,"ĠMediterranean":12834,"Ġrevers":12835,"RL":12836,"ĠIndeed":12837,"Ġëª¨ìĸĳ":12838,"ayer":12839,"Ġdried":12840,"thew":12841,"ìľ¼ë¡ľë¶ĢíĦ°":12842,"Ġê·¸ê°Ģ":12843,"ĠHyd":12844,"Ġnotion":12845,"Ġì¢ħíķ©":12846,"ĠExamples":12847,"ĠVietnam":12848,"Ġë³´ëıĦ":12849,"rub":12850,"Ġinev":12851,"Ġwars":12852,"TC":12853,"Ġprecisely":12854,"Ġrainfall":12855,"Ġsegment":12856,"Ġë¶Īíİ¸":12857,"Ġwooden":12858,"Ġheaven":12859,"Ġprecip":12860,"ĠAff":12861,"Ġshade":12862,"Ġerosion":12863,"Ġexisted":12864,"Ġ85":12865,"ĠìĿ¸ëıĦ":12866,"Ġgods":12867,"Ġchat":12868,"ìĤ¬ë¡ľ":12869,"ĠChall":12870,"di":12871,"aternal":12872,"Ġrepresentative":12873,"Ġdrainage":12874,"Ġputs":12875,"Ġelevated":12876,"Ġintelligent":12877,"ĠìĦ±ëĬ¥":12878,"Ġfan":12879,"ĠPrim":12880,"Ġ`":12881,"Ñģ":12882,"orus":12883,"Ġbeneath":12884,"Ġundergo":12885,"ĠâĢĿ":12886,"Ġë¶ĢëıĻìĤ°":12887,"Ġbrains":12888,"ĠPass":12889,"ĠHa":12890,"ĠìĹĲëĦĪì§Ģ":12891,"ĠRNA":12892,"ĠíŀĪ":12893,"ë©ĶëĿ¼":12894,"Ġpenal":12895,"agan":12896,"Ġchromos":12897,"Ġprayer":12898,"ĠDam":12899,"oded":12900,"ĠìłĦíĺĢ":12901,"ĠTestament":12902,"2009":12903,"Ġclassification":12904,"ĠëĤ¨ìŀĲ":12905,"Ġbron":12906,"ĠCH":12907,"Trans":12908,"mental":12909,"Ġattributed":12910,"otion":12911,".[":12912,"Ac":12913,"ĠKorean":12914,"Ġseal":12915,"ĠSTEM":12916,"ĠëĤ©":12917,"Ġmetap":12918,"ositive":12919,"ĠRisk":12920,"Ġsuddenly":12921,"Ġelderly":12922,"ĠìĿĢíĸī":12923,"Ġtransferred":12924,"driven":12925,"Ġstructured":12926,"Ġscales":12927,"Research":12928,"ĠìĪĺìļĶ":12929,"iblical":12930,"ansas":12931,"ĠTherapy":12932,"Ġcuts":12933,"ĠMid":12934,"Ġê²ĢíĨł":12935,"Ġprovin":12936,"Ġsubsc":12937,"Ġselling":12938,"ĠëĤĻ":12939,"Ġdistinguish":12940,"Ġë³´ìĿ´ëĬĶ":12941,"Ġcommittee":12942,"Che":12943,"ĠCub":12944,"Ġdress":12945,"ĠíĶĦëŀĳ":12946,"ĠìĤ¬ë§Ŀ":12947,"front":12948,"ĠPoly":12949,"Ġrays":12950,"Ġpesticides":12951,"Ġpredicted":12952,"Ġfunctionality":12953,"Ġindicators":12954,"96":12955,"Ġíĸ¥ìĥģ":12956,"ĠStan":12957,"ëĭ¤ìĿĮ":12958,"ĠCorn":12959,"íĢ":12960,"ĠHum":12961,"Ġì§Īë³ĳ":12962,"ĠìºĲë¦ŃíĦ°":12963,"Ġcheese":12964,"Ġreef":12965,"Ġfibers":12966,"Ġpayments":12967,"Ġ2030":12968,"ĠëĮĢíķĺìĹ¬":12969,"ĠíĻķìĭ¤":12970,"ìľ¼ë¡ľëıĦ":12971,"Ġjuris":12972,"bec":12973,"Ġ@":12974,"ĠCrit":12975,"Ġ(âĢľ":12976,"Ġstems":12977,"Ġmemor":12978,"Ġgums":12979,"issance":12980,"Ġengineer":12981,"Ġencl":12982,"ë¦¬ìĻĢ":12983,"Ġblank":12984,"Ġinclusion":12985,"Ġpermit":12986,"Ġsheep":12987,"Ġtolerance":12988,"íķ´ìļĶ":12989,"Ġì£Ħ":12990,"Ġvibrant":12991,"cule":12992,"Ġsuggesting":12993,"Ġbegun":12994,"97":12995,"ĠìķĦìĭľìķĦ":12996,"ĠíĬ¹ë³Ħíķľ":12997,"Ġkg":12998,"Ġë¹łë¥¸":12999,"ĠìĿ´ìľłëĬĶ":13000,"Ġinspiration":13001,"Ġspoke":13002,"enter":13003,"ĠBased":13004,"Ġìķī":13005,"Ġparticle":13006,"Ġsciences":13007,"ĠMassachusetts":13008,"atching":13009,"Ġê´ľ":13010,"Ġrepeat":13011,"ë¦¬ìĸ´":13012,"ouses":13013,"Ġwings":13014,"Ġcolony":13015,"ë¹Ļ":13016,"Ġnewspaper":13017,"ëĭī":13018,"Ġê°Ģìłķ":13019,"ë§ŀ":13020,"Ġunem":13021,"Ġcarbohydrates":13022,"Ġbottle":13023,"Mar":13024,"Ġparticipating":13025,"iner":13026,"ĠGall":13027,"Ġìª½":13028,"rue":13029,"Ġmammals":13030,"raq":13031,"ĠëĮĢì¤ĳ":13032,"ĠGreece":13033,"Ġseam":13034,"Ġsettled":13035,"ìłĢìŀĳê¶ĮìŀĲ":13036,"ĠPortug":13037,"Ġstood":13038,"ĠëĮĢì²´":13039,"ĠConference":13040,"ribution":13041,"Ġìĺ¤íĶĪ":13042,"2022":13043,"Ġì§ķ":13044,"Ġëħ¼ìĿĺ":13045,"Ġmuc":13046,"Ġë°Ķíĥķìľ¼ë¡ľ":13047,"êµ¬ê°Ģ":13048,"ë³´ë©´":13049,"Ġbusy":13050,"Ġdestination":13051,"ĠSleep":13052,"Ġfavour":13053,"Ġloud":13054,"Ġphotographs":13055,"owners":13056,"Ġdrives":13057,"ĠLaboratory":13058,"illance":13059,"Ġcollaborative":13060,"Ġdesigners":13061,"lectric":13062,"Ġalert":13063,"ì§ĵ":13064,"Ġpasses":13065,"ĠìĨĮíĨµ":13066,"Ġabundance":13067,"ĠSon":13068,"Ġë©Ķìĭľ":13069,"Î±":13070,"Ġì£¼ë¡ľ":13071,"Ġë²ķë¥ł":13072,"Ġappet":13073,"Ġcoordination":13074,"ĠHeritage":13075,"Follow":13076,"Ġenthusi":13077,"sex":13078,"adequ":13079,"ĠìĿ¸ìĤ¬":13080,"Rep":13081,"Ġleak":13082,"Ġpursue":13083,"Ġbills":13084,"ĠìĪĺìłķ":13085,"ìłĲìĿĢ":13086,"ĠNavy":13087,"ĠMess":13088,"nea":13089,"Ġincorporated":13090,"ometer":13091,"Ġschedul":13092,"Ġíİ¸ìķĪ":13093,"Please":13094,"ipation":13095,"Ġenzymes":13096,"reating":13097,"Ġinvesting":13098,"Ġregime":13099,"Ġdishes":13100,"Ġconvin":13101,"Ġrib":13102,"ĠAlexander":13103,"Ġow":13104,"stic":13105,"Key":13106,"profit":13107,"Ġpreserved":13108,"ĠSqu":13109,"Ġfilms":13110,"Ġelectrons":13111,"ĠìĿĺìĤ¬":13112,"Up":13113,"Ġimmigrants":13114,"ritten":13115,"Ġcyl":13116,"ercise":13117,"onin":13118,"2008":13119,"Ġreviews":13120,"Ġmagnesium":13121,"Ġì£¼ìĨĮ":13122,"Ġë°ĶëĢ":13123,"ĠPhD":13124,"apped":13125,"Pub":13126,"Ġì°¾ìĿĦ":13127,"íŀĪëł¤":13128,"Ġglobally":13129,"Ġasset":13130,"ĠBrain":13131,"Ġhier":13132,"da":13133,"Ġreasoning":13134,"ĠìĪĺê°Ģ":13135,"Ġglac":13136,"iking":13137,"Ġgrams":13138,"Researchers":13139,"olt":13140,"ĠìħĢ":13141,"Ġsatisfaction":13142,"ĠIndividual":13143,"Ġtailored":13144,"Ġstreams":13145,"Ã±":13146,"obic":13147,"Ġshoulder":13148,"Ġcrack":13149,"ĠìĿ¸ìĥĿ":13150,"EST":13151,"bage":13152,"Ġìĩ¼íķĳ":13153,"ĠìķĪìĹĲ":13154,"ĠíĻķìŀ¥":13155,"Ġìŀ¥ê¸°":13156,"ĠOpt":13157,"ĠìĿ´ìļ©íķł":13158,"Ġfootprint":13159,"Ġnodes":13160,"ĠëıĪìĿĦ":13161,"Ġìĺ¤ë¥¸":13162,"Ġpersistent":13163,"Ġrecycled":13164,"Ġê·¸ë¦¬":13165,"ĠíĽ¨":13166,"Ġìį¨":13167,"action":13168,"Google":13169,"egin":13170,"ĠBetween":13171,"ĠìĿ´ìļ©íķ´":13172,"Ġcompassion":13173,"Ġimpressive":13174,"iano":13175,"Ġabsolutely":13176,"ĠíħĮìĬ¤íĬ¸":13177,"íĻĶê°Ģ":13178,"ĠQuality":13179,"even":13180,"Ġrestricted":13181,"Ġemit":13182,"Ġbears":13183,"Ġdocumented":13184,"Ġheal":13185,"Ġtill":13186,"Ġtoxins":13187,"Ġworksheets":13188,"ĠFed":13189,"ìķ¤":13190,"Ġê²°ê³¼ë¥¼":13191,"ĠíļĮìĿĺ":13192,"ëĳĲê³ł":13193,"Ġdialogue":13194,"Ġreceives":13195,"ĠìĦłìĥĿ":13196,"ĠBitcoin":13197,"ê²łëĭ¤ê³ł":13198,"Ġê³¼ìłķìĹĲìĦľ":13199,"Ġarmed":13200,"ĠëĤĺë¬´":13201,"Sub":13202,"host":13203,"sembly":13204,"claim":13205,"Ġhurt":13206,"elly":13207,"ĠMur":13208,"Ġthank":13209,"Ġproducers":13210,"Ġcollecting":13211,"doors":13212,"Ġdramatically":13213,"ĠëĤĺìĦľ":13214,"UM":13215,"íĸĪëĬĶëį°":13216,"ois":13217,"ĠìĤ¬ìłĦ":13218,"Ġsoy":13219,"ushing":13220,"ê³łê°Ŀ":13221,"Ġ99":13222,"ëĿ¼ìĬ¤":13223,"Ġdistinctive":13224,"Ġprol":13225,"Ġrelate":13226,"ìłĪíķľ":13227,"ĠìĿ´ê²ĥìĿĢ":13228,"Ġselecting":13229,"ĻëĭĪëĭ¤":13230,"Ġincredibly":13231,"Ġeleph":13232,"Ġ43":13233,"Ġmoments":13234,"ì¡°ìĤ¬":13235,"ĠíĸĪìĬµëĭĪëĭ¤":13236,"Ġë¸Ķë¡ľê·¸":13237,"Ġtoile":13238,"Ġinsulation":13239,"Ġorganisations":13240,"ĠìĹĨìĿĦ":13241,"gments":13242,"ëħģ":13243,"Ġpathways":13244,"IST":13245,"ĠConnect":13246,"Ġgrammar":13247,"Ġacceptable":13248,"abled":13249,"uine":13250,"zer":13251,"Ġminority":13252,"ĠìĦ¤ëªħíĸĪëĭ¤":13253,"ĠThanks":13254,"ĠìĮĵ":13255,"ĠUlt":13256,"Ġamongst":13257,"Ġê±´ì¶ķ":13258,"Ġintricate":13259,"Ġresolve":13260,"ĠAssessment":13261,"Ġcannab":13262,"ìħĢ":13263,"DL":13264,"Ġshaping":13265,"ëįĶëĭĪ":13266,"Ġoverlook":13267,"ë§ĮìĿĦ":13268,"Ġdiagram":13269,"Ġwake":13270,"Ġexch":13271,"Ġinfectious":13272,"ĠëªħìĿĺ":13273,"ìłľëĬĶ":13274,"Ġextraord":13275,"Ġprogression":13276,"Ġdistant":13277,"erge":13278,"íķľëĭ¤ë©´":13279,"ĠLos":13280,"ëĤ¼":13281,"ĠNob":13282,"Ġlakes":13283,"Ġshore":13284,"reshold":13285,"Ġborders":13286,"ĠEPA":13287,"ë°¥":13288,"Ġwinds":13289,"fire":13290,"2000":13291,"ĠTyp":13292,"Ġoverwhelming":13293,"Ġfertility":13294,"PV":13295,"íķ¨ìľ¼ë¡ľìį¨":13296,"Ġdemocratic":13297,"Ġul":13298,"Ġpreservation":13299,"ĠìĺĪìĪĺ":13300,"ĠFrancisco":13301,"mond":13302,"mail":13303,"ĠConfed":13304,"ĠìĨĶë£¨":13305,"Ġdisplays":13306,"ĠGulf":13307,"Ġsurveys":13308,"Ġëį°ìĿ´íĬ¸":13309,"ĠVan":13310,"Ġgenerating":13311,"ëŁīìĿ´":13312,"quiry":13313,"ĠCA":13314,"Ġstrange":13315,"Expl":13316,"inflammatory":13317,"Ġspacecraft":13318,"ripts":13319,"onics":13320,"ìĿ´ëĿ¼ë©´":13321,"awa":13322,"Ġpartial":13323,"ìĤ¬ëŀĳ":13324,"ĠìĪĺìĪł":13325,"ĠìĨĮíĶĦíĬ¸ìĽ¨ìĸ´":13326,"ĠìĬ¤ë§ĪíĬ¸íı°":13327,"Ġpoin":13328,"ught":13329,"ermat":13330,"Ġê²¨ìļ¸":13331,"Two":13332,"Ġschem":13333,"omers":13334,"Ġqualified":13335,"Ġaside":13336,"ĠSunday":13337,"ĠíĽ¨ìĶ¬":13338,"Ġìĭľë¦¬ì¦Ī":13339,"aneous":13340,"ì°Į":13341,"enda":13342,"iro":13343,"Ġì±ĦëĦĲ":13344,"Ġcontinent":13345,"Ġcontaminated":13346,"ĠIde":13347,"Ġjew":13348,"ĠìĺĨ":13349,",âĢĻ":13350,"ë¨¼íĬ¸":13351,"Ġdropped":13352,"Ġrough":13353,"Ġexclud":13354,"ÑĢ":13355,"ĠAud":13356,"ìĿ´ìļ©":13357,"Ġplates":13358,"Ġsuggestions":13359,"ìºł":13360,"ĠíĻķìĿ¸íķł":13361,"ĠEV":13362,"oked":13363,"ĠìĨįìĹĲìĦľ":13364,"Ġshelter":13365,"Ġplacing":13366,"outheast":13367,"93":13368,"ĠìĤ¬ìļ©ìŀĲ":13369,"ëĭĪìķĦ":13370,"ĠSK":13371,"Ġfraud":13372,"Ġê°ĢëĵĿ":13373,"Ġprescription":13374,"Ġmodeling":13375,"Ġtumors":13376,"ĠìķŀìĦľ":13377,"Ġelectronics":13378,"ifer":13379,"Ġpredom":13380,"ĠClean":13381,"PG":13382,"Ġidentical":13383,"ĠReal":13384,"Ġcope":13385,"ĠPerhaps":13386,"ĺĳ":13387,"æľ":13388,"Ð½":13389,"oca":13390,"oting":13391,"Ġì»¤ë®¤ëĭĪ":13392,"Os":13393,"Ġfraction":13394,"Ġsheets":13395,"ê³¼ëĬĶ":13396,"Ġinch":13397,"Ġcareg":13398,"ĠSection":13399,"after":13400,"ĠSn":13401,"âĢ¦âĢ¦":13402,"istent":13403,"92":13404,"Ġchurches":13405,"ĠíķĺëĤĺëĭĺìĿĺ":13406,"Ġpipes":13407,"fly":13408,"ĠArea":13409,"ë§Įíķľ":13410,"Ġtransformed":13411,"íķĺê¸°ë¡ľ":13412,"CR":13413,"Ġincidence":13414,"tension":13415,"ë¶ĦìĿĦ":13416,"ì±ĦíĮħ":13417,"plex":13418,"ĠBa":13419,"ĠJava":13420,"Ġì¤ĳìĿ¸":13421,"Ġgovernance":13422,"Ġsemi":13423,"ĠìĹĦì²Ń":13424,"Ġrealistic":13425,"Ġwashing":13426,"ì½©":13427,"Ġ1940":13428,"Ġê²ĥìĹĲ":13429,"ë£¸":13430,"Ġìĭ¤ìĭľê°Ħ":13431,"Ġexcav":13432,"Ġì§Ģì¼ľ":13433,"Ġmonthly":13434,"ĠëıĦìĽĢìĿĦ":13435,"Ġdeer":13436,"ĠìĻĦìłĦíŀĪ":13437,"Ġoceans":13438,"Ġdivide":13439,"income":13440,"Ġindependently":13441,"ĠìĹĦë§Ī":13442,"Ġcryptocurren":13443,"ĠWeek":13444,"Ġes":13445,"ê·¸ëĬĶ":13446,"Ġsubsid":13447,"ĠAT":13448,"Ġë½":13449,"Ġinspire":13450,"Ġseiz":13451,"Ġvolunteers":13452,"rait":13453,"atus":13454,"arded":13455,"ĠFrid":13456,"Ġ64":13457,"High":13458,"verages":13459,"imensional":13460,"ĠíĿ¡":13461,"ikes":13462,"HT":13463,"Ġë¹ĦíĮĲ":13464,"Ġconducting":13465,"Ġsurprising":13466,"Ġdigestion":13467,"Ġcameras":13468,"ĠLog":13469,"Ġê¸°ì´Ī":13470,"ë¶ĦìĹĲ":13471,"Ġì²¨":13472,"uct":13473,"Ġincredible":13474,"ĠíĻľìĦ±íĻĶ":13475,"Ġnic":13476,"Ġsup":13477,"ĠPut":13478,"Ġcoding":13479,"ìĤ¬ê³ł":13480,"ĠLat":13481,"Ġpersu":13482,"Ġstretch":13483,"ë³Ħë¡ľ":13484,"Ġë¹¼":13485,"unar":13486,"Ġchains":13487,"ëĵłì§Ģ":13488,"Water":13489,"ì²´ë¥¼":13490,"isition":13491,"vit":13492,"Ġcapability":13493,"ĠLocal":13494,"Ġonset":13495,"Ġsolely":13496,"Ġattributes":13497,"Ġinvention":13498,"Ġrealm":13499,"oom":13500,"Ġ800":13501,"ethe":13502,"ĠLine":13503,"ĠìĥĿê°ģìĿ´":13504,"Ġê¸°ìĪłìĿĦ":13505,"Ġdrops":13506,"rium":13507,"Additionally":13508,"íļĮìŀ¥":13509,"Ġcosm":13510,"ryption":13511,"Ġrecall":13512,"ĠSymptoms":13513,"Ġelig":13514,"Ġimmunity":13515,"ĠPaper":13516,"Ġìĺ·":13517,"ìĿ¼ë³¸":13518,"Ġregister":13519,"ëł¬":13520,"ĠDaniel":13521,"page":13522,"Ġcitizen":13523,"ëĮĢëĬĶ":13524,"Ġduties":13525,"ĠCR":13526,"Ġë¿Į":13527,"Ġbrid":13528,"ë¥´ê¸°":13529,"íĸĪëĭ¤ëĬĶ":13530,"íģĲ":13531,"Ġstrains":13532,"engers":13533,"inois":13534,"ĠRen":13535,"inance":13536,"Ġexplored":13537,"Ġinjured":13538,"ĠMA":13539,"ĠIntelligence":13540,"Ġspeaker":13541,"Ġskilled":13542,"Ġpink":13543,"âĸ¶":13544,"ìĥģëĭ´":13545,"íĴĪìĿĦ":13546,"Ġbeach":13547,"Ġì¶ľë°ľ":13548,"ĠCond":13549,"Ġacquire":13550,"Ġë¶Īê°Ģ":13551,"ãĢĭ":13552,"Students":13553,"Ġdiarrhea":13554,"ĠCorpor":13555,"Ġseasonal":13556,"Ġstrengths":13557,"Ġprevalent":13558,"Ġapproval":13559,"Ġlawn":13560,"ĠìŀĪëĬĶì§Ģ":13561,"ĠíĨµê³¼":13562,"Ġfingers":13563,"Ġphilosoph":13564,"Ġnumer":13565,"ĠìĹĺ":13566,"Ġintr":13567,"íĿ¡":13568,"Ġì¹´íİĺ":13569,"ĠìĿ¼ìłķ":13570,"there":13571,"Ġenvironmentally":13572,"Ġber":13573,"oline":13574,"ĠTwitter":13575,"jud":13576,"ĠìĿ´ëģĮ":13577,"Ġarchitectural":13578,"Ġforecast":13579,"Ġê²½íĹĺìĿĦ":13580,"ĠTrump":13581,"Ġoccupied":13582,"ulates":13583,"Ġfluor":13584,"ê´Ģëł¨":13585,"Ġfactory":13586,"ì¹¼":13587,"aver":13588,"ĠìĿ´ë¯¸ì§Ģ":13589,"ĠIraq":13590,"also":13591,"Ġëĭµë³Ģ":13592,"ë³´ëĭĪ":13593,"Ġcelebration":13594,"Ġ41":13595,"Ġaluminum":13596,"ê°Ķëĭ¤":13597,"Ġê³¡":13598,"ĠName":13599,"ĠGarden":13600,"Ġevolve":13601,"Ġempathy":13602,"aze":13603,"gener":13604,"onday":13605,"ëįĶëĿ¼":13606,"zone":13607,"Ġextraction":13608,"imen":13609,"Ġindicating":13610,"Ġbub":13611,"Ġtort":13612,"Ġdisposal":13613,"ĠCDC":13614,"ĠSoft":13615,"Ġendangered":13616,"Ġlegend":13617,"Ġì§§":13618,"Ġsymb":13619,"ê¸°ê³ł":13620,"íķµ":13621,"ĠFred":13622,"Ġinflammatory":13623,"'.":13624,"ĠComputer":13625,"ê¹¨":13626,"¼ìĨĲ":13627,"ĠConvention":13628,"ĠDyn":13629,"ĠMoses":13630,"Ġfluids":13631,"Ġdesk":13632,"Ġloyal":13633,"iors":13634,"Ġedges":13635,"ĠTown":13636,"ĠNeg":13637,"Ġending":13638,"Ġsurrounded":13639,"ë¬´ë¦¬":13640,"Ġcategor":13641,"Scient":13642,"Ġremem":13643,"ĠêµĲíĻĺ":13644,"Ġpneum":13645,"Data":13646,"Ġë§º":13647,"Ġteaches":13648,"Ġhazardous":13649,"Ġê²ĥì²ĺëŁ¼":13650,"Ġimbal":13651,"Ġroutes":13652,"ë²ķìĿĦ":13653,"hops":13654,"ghan":13655,"ĠEgyptian":13656,"Ġconsequence":13657,"Ġancestors":13658,"View":13659,"Ġmyster":13660,"Ben":13661,"thening":13662,"igious":13663,"Ġspeakers":13664,"Ġparks":13665,"Ġevolutionary":13666,"Ġthesis":13667,"Ġcrimes":13668,"Ġtotally":13669,"ĠëĲĲ":13670,"íķĺëł¤ë©´":13671,"Ġcollapse":13672,"ĠìĻ¸ë¶Ģ":13673,"Ġmedieval":13674,"ĠìļĶì¦ĺ":13675,"ê±´ê°ķ":13676,"nings":13677,"list":13678,"Ġë³¸ê²©":13679,"Ġfacial":13680,"Ġë¸ĶëŀĻ":13681,"Ġinequality":13682,"orters":13683,"Ġgerm":13684,"Ġorganisation":13685,"Ġsalmon":13686,"PE":13687,"Ùİ":13688,"dominal":13689,"Ġhip":13690,"ocument":13691,"ëħ¸ëıĻ":13692,"Ge":13693,"rosion":13694,"êµŃë¯¼":13695,"êµ¬ìĿĺ":13696,"Ġextends":13697,"yes":13698,"azz":13699,"Ġlottery":13700,"Ġwidth":13701,"Common":13702,"ëĤ©":13703,"Ġdangers":13704,"ador":13705,"Ġsurviv":13706,"ĠìĹħê³Ħ":13707,"Ġproud":13708,"Ġë°Ľìķĺëĭ¤":13709,"Ġdiagnose":13710,"ìĿ´ëĦĪ":13711,"Ġabsorbed":13712,"Ġë¶Īêµ¬íķĺê³ł":13713,"Copyright":13714,"Ġbrowser":13715,"Ġmeets":13716,"ĠChief":13717,"Ġinjection":13718,"ulture":13719,"Ġexpressions":13720,"ĠíĺķìĦ±":13721,"Ġlecture":13722,"John":13723,"Ġsovere":13724,"Ġdehyd":13725,"ĠìĪĺìŀħ":13726,"Ġpracticing":13727,"Ġloans":13728,"Ġherself":13729,"ependence":13730,"Ġadministrative":13731,"Ġê²½ê¸°ëıĦ":13732,"fficiency":13733,"Ġequity":13734,"akh":13735,"ĠBureau":13736,"ackson":13737,"Ġjaw":13738,"Ġlicense":13739,"Ġhopes":13740,"ĠSud":13741,"strial":13742,"Ġ46":13743,"ì²´ìĿĺ":13744,"Ġworn":13745,"Ġê²ĢìĤ¬":13746,"Ġwing":13747,"Ġvag":13748,"ĠìŀĪì§Ģ":13749,"Ġfifth":13750,"Ġadolescents":13751,"Ġautomated":13752,"Ġì·¨ìĨĮ":13753,"Ġmerch":13754,"conf":13755,"ctors":13756,"Ġcarries":13757,"Ġinhabitants":13758,"Ġevaluated":13759,"ìĽħ":13760,"ĠëıħìĿ¼":13761,"Ġdeliber":13762,"Ġvine":13763,"ĠMic":13764,"ĠFac":13765,"Ġantibodies":13766,"Ġelections":13767,"ĠNO":13768,"Ġevolving":13769,"bered":13770,"ì°¬ê°Ģì§Ģ":13771,"ĠìĿ¼ìľ¼":13772,"oning":13773,"Ġbought":13774,"ĠìĥĿìĦ±":13775,"ëį°ìĿ´":13776,"ĠCEO":13777,"Ġdistances":13778,"Ġì¤":13779,"Hz":13780,"ĠSustainable":13781,"Ġsupportive":13782,"ìĬ¤ëŁ½ê²Į":13783,"ĠBiology":13784,"Have":13785,"Ġasc":13786,"Ġcivilization":13787,"ë§ĪìĿĦ":13788,"ĠOthers":13789,"etically":13790,"ĠAndrew":13791,"Ġë¯¸ë¦¬":13792,"Ġbull":13793,"ĠSD":13794,"Ġstimulate":13795,"Ġsediment":13796,"Ġtendency":13797,"exts":13798,"Ass":13799,"Ġweekly":13800,"reatment":13801,"olds":13802,"Ġdecreases":13803,"ĠìĬ¤íİĺ":13804,"Ġoccasionally":13805,"chron":13806,"Ġcloth":13807,"ëĬĲëĥĲ":13808,"Ġoptimize":13809,"aine":13810,"ëĭ¨ìĿĺ":13811,"Any":13812,"Ġìķ½ìĨį":13813,"cts":13814,"Ġìĺģìĸ´":13815,"ĠCirc":13816,"íļĮìĽĲ":13817,"Ġallergy":13818,"raid":13819,"ĠRather":13820,"Ġstain":13821,"Ġì§Ħì§ľ":13822,"anas":13823,"Ġvacuum":13824,"Ġnerves":13825,"Ġgaining":13826,"iative":13827,"Ġorientation":13828,"Ġtanks":13829,"ĠìķĬëĭ¤":13830,"Ġcampaigns":13831,"Ġintra":13832,"Ġmolecule":13833,"ilson":13834,"Ġanat":13835,"ĠëıĦìłĦ":13836,"Ġdeposits":13837,"Ġcollections":13838,"ìĿ¸ê³µ":13839,"íĥĢìĿ´":13840,"Ġtransparency":13841,"emor":13842,"Ġcaffe":13843,"ìĬ¤íı¬ì¸ł":13844,"ĠPay":13845,"Ġaggreg":13846,"ĠAnaly":13847,"ĠíĨµìĭł":13848,"burn":13849,"ë¦¬ê¸°":13850,"Ġopens":13851,"Ġíİ¸ë¦¬":13852,"Ġembrace":13853,"Ġdemonstrates":13854,"Ġìĭ¬ê°ģ":13855,"ĠMexican":13856,"êµ°ìļĶ":13857,"Ġeconomies":13858,"ĠOcc":13859,"oved":13860,"Ġintermedi":13861,"Ġemployers":13862,"Ġjurisd":13863,"Ġwelcome":13864,"Ġflooding":13865,"Ġembedded":13866,"Ġelementary":13867,"Ġinvasion":13868,"ë¬´ìĽĲ":13869,"600":13870,"ìĿ´ìĥģ":13871,"Ġpediatric":13872,"Ġtang":13873,"Ġscholar":13874,"rizona":13875,"Ġacceptance":13876,"Ġsister":13877,"ê°Ģìŀħ":13878,"Ġuncertainty":13879,"Ġcharges":13880,"ĠHard":13881,"Ġgrace":13882,"Ġdisag":13883,"Ġeaten":13884,"Ġtransplant":13885,"this":13886,"Ġchamber":13887,"ìŀĶ":13888,"Ġprotects":13889,"wa":13890,"ĠOffic":13891,"Ġinnovations":13892,"Ġthickness":13893,"ĠëĶ±":13894,"Ġìĺ¤íŀĪëł¤":13895,"uming":13896,"Ġimmers":13897,"ë¦¬ê·¸":13898,"Ġthrow":13899,"Ġnoun":13900,"íĬ¹ë³Ħ":13901,"Ġdepr":13902,"Ġtiming":13903,"Ġfreely":13904,"Ġêµ¬ì²´":13905,"Ġtransparent":13906,"was":13907,"Ġpunishment":13908,"Ġlabels":13909,"Ġheadaches":13910,"agine":13911,"ĠìĤ¬ìĭ¤ìĿĦ":13912,"Ġantioxidants":13913,"Ġtriggers":13914,"Ġclouds":13915,"Ġmorph":13916,"acle":13917,"ĠHistorical":13918,"Ġresemb":13919,"Ġloop":13920,"ìĨĮëĵĿ":13921,"Ġarrival":13922,"eller":13923,"ĠFish":13924,"Ġupl":13925,"ĠëĲĺìĹĪìĬµëĭĪëĭ¤":13926,"powered":13927,"ĠCommons":13928,"Ġrent":13929,"Ġíİ¸ì§ĳ":13930,"doi":13931,"weet":13932,"ĠResearchers":13933,"Ġcostly":13934,"ìĭ¤ìĿĦ":13935,"Ġutilizing":13936,"ĠìĭľëıĦ":13937,"Ġmultipl":13938,"duate":13939,"Ġcontexts":13940,"ME":13941,"Ġfiction":13942,"thood":13943,"Ġimportantly":13944,"Ġsocietal":13945,"ĠìŀĲìĦ¸íŀĪ":13946,"Ġê³łìļ©":13947,"ĠSchools":13948,"ĠìķĦë¦Ħëĭ¤ìļ´":13949,"Ġboxes":13950,"ĠCulture":13951,"ĠSC":13952,"Ġë¶Ģìłķ":13953,"ĠìłĦë°ĺ":13954,"science":13955,"Ġexport":13956,"ìĿ¸íĦ°ëĦ·":13957,"ĠFarm":13958,"ĠJacob":13959,"ìĿ´ë©´":13960,"Ġìłľê¸°":13961,"Ġë´Ħ":13962,"Ġassessed":13963,"ĠInnov":13964,"ì»µ":13965,"ĠëıĦìĻĢ":13966,"ĠCall":13967,"íĴĢ":13968,"ĠThink":13969,"ĠMean":13970,"emies":13971,"Ġportray":13972,"Ġmapping":13973,"Ġtranslated":13974,"Ġoperated":13975,"ĠìłĦìļ©":13976,"Ġhomework":13977,"Ġpupp":13978,"Ġvelocity":13979,"Ġtag":13980,"ĠíĻķìĤ°":13981,"Ġirregular":13982,"estone":13983,"Ġmutations":13984,"Ġê·¸ëĵ¤ìĿĺ":13985,"Ġmagnitude":13986,"Ġë°Ľìķĺ":13987,"ĠStory":13988,"Ġintegrate":13989,"Ġdistinction":13990,"Ġbinding":13991,"Ġassistant":13992,"Ġrhythm":13993,"Ġhung":13994,"Ġgamb":13995,"ãħłãħł":13996,"Ġimmense":13997,"Ġvillages":13998,"Ġlibraries":13999,"Ġrh":14000,"Ġmissions":14001,"ĠíĿĺ":14002,"94":14003,"ĠSens":14004,"ĠGM":14005,"ospel":14006,"igma":14007,"ropriate":14008,"ĠBenefits":14009,"ĠìĦŃ":14010,"Ġë²łíĮħ":14011,"ĠUnivers":14012,"ĠAncient":14013,"Ġrefused":14014,"Ġkit":14015,"Ġbark":14016,"Ġíķĺëĭ¤":14017,"Ġpond":14018,"cal":14019,"Ġunnecessary":14020,"Ġdefects":14021,"Ġclarity":14022,"ĠíĽĪëł¨":14023,"Ġgran":14024,"Ġenabled":14025,"Ġruled":14026,"ĠëĮĢíĺķ":14027,"Ġfaculty":14028,"bul":14029,"ĠAntar":14030,"Ġoffices":14031,"ker":14032,"ĠField":14033,"Ġcataly":14034,"ĠëĶ°ëľ»":14035,"ĠRail":14036,"Ġë°ĺëĮĢ":14037,"inator":14038,"obby":14039,"orer":14040,"Ġemerge":14041,"Ġprogressive":14042,"Ġdisk":14043,"ĠìĺĪìĤ°":14044,"Based":14045,"Ġê·¸ë¦¬ìĬ¤":14046,"êµŃìłľ":14047,"Ġavoided":14048,"Ġpock":14049,"ëĭ¨ê³Ħ":14050,"ìĺĪìĪł":14051,"sized":14052,"Children":14053,"Ġcalendar":14054,"ĠTar":14055,"develop":14056,"asses":14057,"Ġrefugees":14058,"Ġvomiting":14059,"ĠFlow":14060,"ĠTurkey":14061,"ĠClinical":14062,"Ġcrown":14063,"ĠìĤ¬ëŀĮìĿĺ":14064,"otional":14065,"Ġoutdoors":14066,"Ġpreca":14067,"ynt":14068,"Ġacknowledge":14069,"ë©ĺ":14070,"Ġadvertising":14071,"Ġinvented":14072,"?)":14073,"NG":14074,"adelph":14075,"Ġë§Īì°¬ê°Ģì§Ģ":14076,"Ġentitled":14077,"ĠSelect":14078,"Ġdescend":14079,"ĠCreate":14080,"ëĵľê°Ģ":14081,"Ġcycl":14082,"Ġcourage":14083,"Ġmachinery":14084,"Ġsteady":14085,"íĻĪ":14086,"Ġeconomics":14087,"Ġthreshold":14088,"Ġproposal":14089,"Ġhorizontal":14090,"Ġatmospheric":14091,"ìĸ´ì§Ħ":14092,"Ġ1989":14093,"Ġgathering":14094,"ĠìĤ¬ëĬĶ":14095,"Ġrubber":14096,"ĠChoose":14097,"pdf":14098,"ĠBehavior":14099,"ĠText":14100,"Ġpurchasing":14101,"Ġconclusions":14102,"icul":14103,"Ġdiscl":14104,"Ġgenuine":14105,"Ġgau":14106,"Ġsynthesis":14107,"PL":14108,"Ġshopping":14109,"ĠClub":14110,"dess":14111,"Ġbullying":14112,"olph":14113,"ĠNG":14114,"Ġprolonged":14115,"ìĿ´ëĤł":14116,"íĹ¤":14117,"ĠLew":14118,"strate":14119,"Ġì²´ê²°":14120,"ĠíŀĺìĿĦ":14121,"VD":14122,"Ġphenomena":14123,"Ġmanusc":14124,"ê²½ì°°":14125,"Ġê±±ìłķ":14126,"Ġì¡°íķ©":14127,"Ġ×":14128,"ĠSecretary":14129,"Ġëĭ¤ë§Į":14130,"Ġë¹Ħë°Ģ":14131,"ĠPoint":14132,"Ġë¶Īê°ĢëĬ¥":14133,"Ġëĭ«":14134,"âĢĿ)":14135,"Ġíľ´ëĮĢ":14136,"Ġbeet":14137,"Ġexecution":14138,"íĮĶ":14139,"ĠíĶĦë¡ľê·¸ëŀ¨ìĿĦ":14140,"ĠìĨĮìľł":14141,"Ġhide":14142,"ĠFriday":14143,"Ġlith":14144,"ĠìĿ¼ìĥģ":14145,"Ġenzyme":14146,"ĠìŀĲìĦ¸íķľ":14147,"AB":14148,"Ġsubmit":14149,"sequently":14150,"ìłĲìĹĲìĦľ":14151,"Ġcomparing":14152,"regon":14153,"Ġabandoned":14154,"ĠMajor":14155,"uv":14156,"Ġyes":14157,"FS":14158,"ĠëĮĢìłĦ":14159,"Ġnurt":14160,"ĠCentury":14161,"Ġbell":14162,"íĬ¸ë¡ľ":14163,"ê°Ģì¡±":14164,"Ġstriking":14165,"bestos":14166,"Ġpotatoes":14167,"Ġìłľê³µíķĺê³ł":14168,"Ġcopies":14169,"Ġë¬´ë£Įë¡ľ":14170,"Ġexplores":14171,"ĠìĪĺë§İìĿĢ":14172,"ĠAltern":14173,"ela":14174,"yd":14175,"Ġwireless":14176,"dated":14177,"umbers":14178,"ĠLater":14179,"ëħĦëĮĢ":14180,"comp":14181,"Ġê°ľìłķ":14182,"Ġalgae":14183,"ĠEll":14184,"Ġê¸ĢìĿĦ":14185,"ĠìµľìłĢ":14186,"ĠìĨĮìĨį":14187,"Ġmim":14188,"asal":14189,"Ġê¸°ìĹ¬":14190,"¯¤":14191,"ĠFair":14192,"Ġcompletion":14193,"'d":14194,"EV":14195,"Ġarc":14196,"Ġoutline":14197,"Ġpou":14198,"Ġëª»íķĺê³ł":14199,"Ġautomation":14200,"Ġentertainment":14201,"Ġfemin":14202,"ĠIllinois":14203,"Ġíĸ¥íĽĦ":14204,"arten":14205,"2007":14206,"omatic":14207,"Ġappetite":14208,"ë´ĩ":14209,"ĠHig":14210,"Ġharness":14211,"Ġcertification":14212,"Ġverte":14213,"Ġfurniture":14214,"Ġpsychiat":14215,"Ġdispar":14216,"ĠStation":14217,"ĠëłĪìĿ´":14218,"Ġdow":14219,"Ġherbs":14220,"ìłģìĿĦ":14221,"Ġexhibition":14222,"utri":14223,"igation":14224,"Cal":14225,"Ġintensive":14226,"Ġê¾¸ì¤Ģ":14227,"Ġ47":14228,"Ġìłģíķ©":14229,"Ġpor":14230,"ĠDie":14231,"Ġfirms":14232,"Ġburned":14233,"ĠíķĺìĿ´":14234,"ë§ĮìĿ´":14235,"Ġsubtle":14236,"ĠShort":14237,"ja":14238,"Ġpine":14239,"Ġapparently":14240,"Ġorganism":14241,"Ġkeys":14242,"forward":14243,"Ġphysicians":14244,"ĠWales":14245,"ovid":14246,"Ġride":14247,"Ġlimiting":14248,"Ġpleasure":14249,"ĠWorking":14250,"Ġshouldn":14251,"Ġê²Ģì°°":14252,"ĠCapt":14253,"ATION":14254,"Ġaccessibility":14255,"ĠNorm":14256,"Ġcalculations":14257,"Ġfilling":14258,"otive":14259,"ĠëĤ´ìļ©ìĿĢ":14260,"Ġgastro":14261,"Ġæ":14262,"Ġpartially":14263,"iler":14264,"Ġë²½":14265,"!)":14266,"Ġdocumentation":14267,"Ġìĭ±":14268,"Ġrender":14269,"istically":14270,"Ġfatal":14271,"owers":14272,"issipp":14273,"kal":14274,"ĠCook":14275,"Def":14276,"Ġlanding":14277,"Ġbuck":14278,"Ġholy":14279,"rible":14280,"velength":14281,"Ġcontracts":14282,"91":14283,"Ġëļ":14284,"ĠHit":14285,"Ġfr":14286,"itzer":14287,"ëħĦëıĦ":14288,"Ġmindfulness":14289,"Ġë²ĦìłĦ":14290,"Ġmarginal":14291,"Ġofficially":14292,"ĠOp":14293,"íıīê°Ģ":14294,"Ġspecialists":14295,"Ġpainted":14296,"ivals":14297,"Ġclassrooms":14298,"Ġsons":14299,"Ġrelating":14300,
[...]
